{"version":"1.0","truncation":null,"padding":null,"added_tokens":[{"id":41190,"content":"<|file_sep|>","single_word":false,"lstrip":false,"rstrip":false,"normalized":false,"special":true},{"id":41256,"content":"<|im_start|>","single_word":false,"lstrip":false,"rstrip":false,"normalized":false,"special":true},{"id":49145,"content":"<|endoftext|>","single_word":false,"lstrip":false,"rstrip":false,"normalized":false,"special":true},{"id":49146,"content":"<|im_end|>","single_word":false,"lstrip":false,"rstrip":false,"normalized":false,"special":true},{"id":49147,"content":"<|tool_call|>","single_word":false,"lstrip":false,"rstrip":false,"normalized":false,"special":true},{"id":49148,"content":"<|tool_result|>","single_word":false,"lstrip":false,"rstrip":false,"normalized":false,"special":true},{"id":49149,"content":"<|pad|>","single_word":false,"lstrip":false,"rstrip":false,"normalized":false,"special":true}],"normalizer":null,"pre_tokenizer":{"type":"Sequence","pretokenizers":[{"type":"Split","pattern":{"Regex":"[^\\r\\n]*[\\r\\n]*"},"behavior":"Isolated","invert":false},{"type":"ByteLevel","add_prefix_space":false,"trim_offsets":true,"use_regex":false}]},"post_processor":null,"decoder":{"type":"ByteLevel","add_prefix_space":true,"trim_offsets":true,"use_regex":true},"model":{"type":"BPE","dropout":null,"unk_token":null,"continuing_subword_prefix":null,"end_of_word_suffix":null,"fuse_unk":false,"byte_fallback":false,"ignore_merges":false,"vocab":{"!":0,"\"":1,"#":2,"$":3,"%":4,"&":5,"'":6,"(":7,")":8,"*":9,"+":10,",":11,"-":12,".":13,"/":14,"0":15,"1":16,"2":17,"3":18,"4":19,"5":20,"6":21,"7":22,"8":23,"9":24,":":25,";":26,"<":27,"=":28,">":29,"?":30,"@":31,"A":32,"B":33,"C":34,"D":35,"E":36,"F":37,"G":38,"H":39,"I":40,"J":41,"K":42,"L":43,"M":44,"N":45,"O":46,"P":47,"Q":48,"R":49,"S":50,"T":51,"U":52,"V":53,"W":54,"X":55,"Y":56,"Z":57,"[":58,"\\":59,"]":60,"^":61,"_":62,"`":63,"a":64,"b":65,"c":66,"d":67,"e":68,"f":69,"g":70,"h":71,"i":72,"j":73,"k":74,"l":75,"m":76,"n":77,"o":78,"p":79,"q":80,"r":81,"s":82,"t":83,"u":84,"v":85,"w":86,"x":87,"y":88,"z":89,"{":90,"|":91,"}":92,"~":93,"¡":94,"¢":95,"£":96,"¤":97,"¥":98,"¦":99,"§":100,"¨":101,"©":102,"ª":103,"«":104,"¬":105,"®":106,"¯":107,"°":108,"±":109,"²":110,"³":111,"´":112,"µ":113,"¶":114,"·":115,"¸":116,"¹":117,"º":118,"»":119,"¼":120,"½":121,"¾":122,"¿":123,"À":124,"Á":125,"Â":126,"Ã":127,"Ä":128,"Å":129,"Æ":130,"Ç":131,"È":132,"É":133,"Ê":134,"Ë":135,"Ì":136,"Í":137,"Î":138,"Ï":139,"Ð":140,"Ñ":141,"Ò":142,"Ó":143,"Ô":144,"Õ":145,"Ö":146,"×":147,"Ø":148,"Ù":149,"Ú":150,"Û":151,"Ü":152,"Ý":153,"Þ":154,"ß":155,"à":156,"á":157,"â":158,"ã":159,"ä":160,"å":161,"æ":162,"ç":163,"è":164,"é":165,"ê":166,"ë":167,"ì":168,"í":169,"î":170,"ï":171,"ð":172,"ñ":173,"ò":174,"ó":175,"ô":176,"õ":177,"ö":178,"÷":179,"ø":180,"ù":181,"ú":182,"û":183,"ü":184,"ý":185,"þ":186,"ÿ":187,"Ā":188,"ā":189,"Ă":190,"ă":191,"Ą":192,"ą":193,"Ć":194,"ć":195,"Ĉ":196,"ĉ":197,"Ċ":198,"ċ":199,"Č":200,"č":201,"Ď":202,"ď":203,"Đ":204,"đ":205,"Ē":206,"ē":207,"Ĕ":208,"ĕ":209,"Ė":210,"ė":211,"Ę":212,"ę":213,"Ě":214,"ě":215,"Ĝ":216,"ĝ":217,"Ğ":218,"ğ":219,"Ġ":220,"ġ":221,"Ģ":222,"ģ":223,"Ĥ":224,"ĥ":225,"Ħ":226,"ħ":227,"Ĩ":228,"ĩ":229,"Ī":230,"ī":231,"Ĭ":232,"ĭ":233,"Į":234,"į":235,"İ":236,"ı":237,"Ĳ":238,"ĳ":239,"Ĵ":240,"ĵ":241,"Ķ":242,"ķ":243,"ĸ":244,"Ĺ":245,"ĺ":246,"Ļ":247,"ļ":248,"Ľ":249,"ľ":250,"Ŀ":251,"ŀ":252,"Ł":253,"ł":254,"Ń":255,"ĠĠ":256,"ĠĠĠĠ":257,"in":258,"Ġt":259,"er":260,"Ġa":261,"on":262,"re":263,"at":264,"he":265,"st":266,"or":267,"en":268,"it":269,"le":270,"Ġc":271,";Ċ":272,"al":273,"Ġthe":274,"an":275,"ar":276,"Ġs":277,"me":278,"ou":279,"ĠĠĠ":280,"ing":281,"is":282,"Ġw":283,"ct":284,"ĠĠĠĠĠĠĠĠ":285,"Ġf":286,"ion":287,"Ġp":288,"Ġb":289,"ed":290,"es":291,"_t":292,"ic":293,"et":294,"__":295,"Ġo":296,"nd":297,"Ġin":298,"od":299,"as":300,"Ġd":301,"ent":302,"il":303,"ro":304,"Ġto":305,"Ġ=":306,"id":307,"th":308,"Ġm":309,"Ġof":310,"Ġand":311,"nt":312,"el":313,"Ġh":314,"Ġ(":315,"Ġ\"":316,"ra":317,"Ġn":318,"Ġth":319,"Ġre":320,"ĠS":321,"ol":322,"em":323,");Ċ":324,"ĠĠĠĠĠĠĠ":325,"{Ċ":326,"ĠL":327,"om":328,"ĠI":329,"ex":330,"Ġl":331,"ad":332,"pp":333,"ĠT":334,"ut":335,"ce":336,"ig":337,"ur":338,"int":339,"ot":340,"Ġg":341,"se":342,"}Ċ":343,"**":344,"00":345,"ve":346,".Ċ":347,"ime":348,"ĠC":349,"ul":350,"ĉĉ":351,"pe":352,"ch":353,"ck":354,"if":355,"32":356,"âĢ":357,"ay":358,"ow":359,"ĠA":360,"im":361,"ation":362,"Ġy":363,"Ġis":364,"Ġfor":365,"um":366,")Ċ":367,"ab":368,"ate":369,"ag":370,"us":371,"Ġv":372,"ue":373,"ly":374,",Ċ":375,"Ġcon":376,"čĊ":377,"Ġ__":378,"ect":379,"pt":380,"--":381,"unt":382,"str":383,">Ċ":384,"</":385,"=\"":386,"un":387,"Ġon":388,"ĠR":389,"Ġbe":390,"//":391,"ers":392,"untime":393,"our":394,"ĠĠĠĠĠĠĠĠĠĠĠ":395,"ir":396,"iz":397,"ith":398,"ht":399,"\"Ċ":400,"ew":401,"ke":402,"Ġst":403,"ri":404,"ĠM":405,"ver":406,"_m":407,"ction":408,"\":":409,"Ġe":410,"ss":411,"ame":412,"ity":413,"In":414,"ĠB":415,"ĠN":416,"ĠP":417,"ort":418,"ms":419,"ass":420,"Ġme":421,"ine":422,"lo":423,"ist":424,"ype":425,"ode":426,"Ġ{Ċ":427,"Ġthat":428,"yst":429,"ter":430,"ata":431,"Ġ___":432,"ystem":433,"ject":434,"out":435,"am":436,"cpp":437,"Ġwith":438,"Ġit":439,"ore":440,"and":441,"_c":442,"ial":443,"Ġal":444,"->":445,"20":446,"St":447,"((":448,"Ġan":449,"Ġwh":450,"ĠW":451,"end":452,"ĠD":453,"10":454,"bject":455,"*)":456,"thod":457,"Ġyou":458,"ator":459,"ack":460,"able":461,"art":462,"âĢĻ":463,"iv":464,"omp":465,"lass":466,"rom":467,"ext":468,"msg":469,"this":470,"ĠF":471,"eth":472,"ment":473,"ef":474,"Ġas":475,"Ġ<":476,"urn":477,"ont":478,"op":479,"ĠH":480,"ĠE":481,"oid":482,"ill":483,"\",":484,"age":485,"ub":486,"ĠV":487,"12":488,"Ġor":489,"ran":490,"****":491,"ight":492,"ere":493,"ĠĠĠĠĠĠĠĠĠĠĠĠĠĠĠĠ":494,"ile":495,"ethod":496,"Ġare":497,"are":498,"Ġpro":499,"ess":500,"get":501,"ure":502,"Method":503,"qu":504,"Ġu":505,"sp":506,"ive":507,"ult":508,"ize":509,"Object":510,"Ġhe":511,"19":512,"IL":513,"turn":514,"))":515,"==":516,"ĠG":517,"ĠThe":518,".p":519,"ast":520,"><":521,"AB":522,"CP":523,"Ġ*":524,"16":525,"CE":526,"AD":527,"alue":528,"ant":529,"15":530,"Ġthis":531,"ff":532,"ind":533,"per":534,"ome":535,"ld":536,"ray":537,"rg":538,"ord":539,"Type":540,"os":541,"ec":542,"ain":543,"::":544,"Ġex":545,"ĠU":546,"ust":547,"all":548,"CPP":549,"Ġat":550,"Ġle":551,"FF":552,"port":553,"14":554,"ard":555,":Ċ":556,"ave":557,"oc":558,"ĠO":559,"ok":560,"17":561,"ge":562,"13":563,"En":564,"Ġfrom":565,"}ĊĊ":566,"ER":567,"18":568,"pl":569,"rou":570,"ĠRuntime":571,"ring":572,"Ġ{":573,"ED":574,"sh":575,"Ġconst":576,"ies":577,"25":578,"ost":579,"----":580,"gen":581,"_in":582,"ption":583,"30":584,"Ġch":585,"og":586,"Ġwe":587,"orm":588,"Ġnot":589,"ud":590,"EC":591,"Ġint":592,"Ġ'":593,"Ġ}":594,"Ġsh":595,"AC":596,"_C":597,"64":598,"Runtime":599,"ĉint":600,"av":601,"ice":602,"ull":603,"ep":604,"Ġr":605,"50":606,"ĠĠĠĠĠ":607,"24":608,"est":609,"ac":610,"Ġby":611,"></":612,"ctx":613,"fo":614,"ĊĊ":615,"EF":616,"DA":617,"ap":618,"80":619,"22":620,"Ġwas":621,"Ġif":622,"ool":623,"ĠIL":624,"ign":625,"rans":626,"_code":627,"ase":628,"ire":629,"TR":630,"ĠSystem":631,"Ġyour":632,"11":633,".c":634,"_codegen":635,"Ġj":636,"()":637,"uct":638,"ĠâĢ":639,"lic":640,"99":641,"(L":642,"ell":643,"EB":644,"85":645,"_d":646,"ary":647,"Ġse":648,"Ġhave":649,"Ġcan":650,"34":651,"vent":652,"LL":653,"Int":654,"CF":655,"ount":656,"ĠĠĠĠĠĠĠĠĠĠĠĠĠĠĠ":657,"line":658,"ite":659,"27":660,"26":661,"ĠSt":662,"Ġmethod":663,"ip":664,"ork":665,"ition":666,"#.":667,"_v":668,"23":669,"act":670,"ide":671,"Ġ-":672,"40":673,"CB":674,"ĠĊ":675,"90":676,"97":677,"rray":678,"28":679,"put":680,"60":681,"umer":682,"Ġus":683,"âĢĻs":684,"Ex":685,"ang":686,"method":687,"AF":688,"DF":689,"DB":690,"_A":691,"ĠRuntimeMethod":692,"57":693,"dd":694,"Info":695,"37":696,"..":697,"ould":698,"rgctx":699,"ib":700,"ME":701,"one":702,"_E":703,"ak":704,"ry":705,"Ġvoid":706,"cl":707,"ear":708,"omm":709,"Ġpl":710,"System":711,"ĠJ":712,"hen":713,"TH":714,"ther":715,"Ġcont":716,"39":717,"Ġsu":718,"TER":719,"so":720,"DC":721,"ail":722,"EE":723,"itial":724,"Ġwill":725,"44":726,"ace":727,"ULL":728,"Ġab":729,"67":730,"heck":731,"Ġall":732,"set":733,"Re":734,"55":735,"Ġcomp":736,"87":737,"ern":738,"que":739,"cc":740,"TD":741,"47":742,"iew":743,"Ġk":744,"Ġ.":745,"form":746,"69":747,"ctor":748,"\"ĊĊ":749,"),":750,"'s":751,"Ġde":752,"BB":753,"ual":754,"ĠTh":755,"msgstr":756,"29":757,"msgid":758,"ath":759,"Ġpre":760,"********":761,"86":762,"ance":763,"33":764,"return":765,"45":766,"AE":767,"Ġdo":768,"The":769,"ild":770,"ated":771,"key":772,"Ġout":773,"ll":774,"Ġ[":775,"#:":776,"ft":777,"row":778,"ber":779,"DD":780,"Ġ((":781,"import":782,"_EX":783,"String":784,"Ġclass":785,"Ġ//":786,"_I":787,"Ġen":788,"les":789,"->__":790,"olle":791,"ings":792,"Ġ$":793,"Ġ}Ċ":794,".py":795,"CC":796,"ook":797,"ake":798,"eld":799,"struct":800,"Enumer":801,"ransl":802,"ach":803,"ators":804,"FB":805,"89":806,"Ġhas":807,"AA":808,"_var":809,"Ġbut":810,"ress":811,"70":812,"ax":813,"con":814,"OR":815,"36":816,"uint":817,"Ġreturn":818,"atic":819,"Ġpr":820,"ield":821,"ĠNULL":822,"Array":823,"Value":824,"ong":825,"ob":826,"Ġup":827,"\">":828,"35":829,"49":830,"(\"":831,"Ġgo":832,"000":833,"erv":834,"ence":835,"ptr":836,"elf":837,"Ġ+":838,"ents":839,"ich":840,"ĉĉĉĉ":841,"\":\"":842,"38":843,"Ġnew":844,"));Ċ":845,"Id":846,"ert":847,"ublic":848,"DE":849,"own":850,"ranslators":851,"66":852,"ink":853,"ĠTranslators":854,"ener":855,"TERN":856,".C":857,"nity":858,"_EXTERN":859,"21":860,"ception":861,"li":862,"olor":863,"_r":864,"led":865,"cri":866,"====":867,"_data":868,"add":869,"quest":870,"Ġso":871,"ref":872,"ical":873,"ia":874,"59":875,"oint":876,"ĉreturn":877,"ĠIn":878,"48":879,"Ġdis":880,"BF":881,"tern":882,"ous":883,"ens":884,"ask":885,"Ġ&":886,"lement":887,"void":888,"gh":889,"RuntimeObject":890,"-c":891,"46":892,"met":893,"oto":894,"Ġne":895,"ollection":896,"BA":897,"<|":898,"ĉL":899,"##":900,"_s":901,"Ġun":902,"Enumerator":903,"TypeInfo":904,"ark":905,"new":906,"EA":907,"lay":908,"tem":909,"Ġget":910,"Ġwhen":911,"Ġapp":912,"Cpp":913,"âĢĿ":914,".čĊ":915,"31":916,"let":917,"OD":918,"ov":919,"Ġres":920,"ĉif":921,"Th":922,"ree":923,"CD":924,"ared":925,"Ġmore":926,"Ġthey":927,"07":928,"ĉN":929,"--------":930,"Ġone":931,"ĠK":932,"son":933,"itle":934,"CA":935,"unction":936,"Ġtheir":937,"\",\"":938,"201":939,"Ġtime":940,"ĉg":941,"Ġ|":942,"88":943,"Event":944,"Pro":945,"Ġ`":946,"file":947,"_get":948,"ĉĉĉ":949,"nc":950,"tp":951,";ĊĊ":952,"ized":953,"Ġ/":954,"_p":955,"ie":956,"Name":957,"Ġsome":958,"FE":959,"\",Ċ":960,"ĉgoto":961,"name":962,"ory":963,"div":964,"Ġset":965,"->___":966,"65":967,"string":968,"au":969,"FA":970,"Exception":971,"95":972,"atch":973,"77":974,"THOD":975,"METHOD":976,"_runtime":977,"BU":978,"Ġ#":979,"vel":980,"BE":981,"round":982,"air":983,"_AT":984,"BD":985,"_METHOD":986,"Ġ_":987,"adata":988,"Ġwhich":989,"_ATTR":990,"low":991,"ph":992,"Ġmy":993,"ĠY":994,"ound":995,"fer":996,"ations":997,"-b":998,"ON":999,"up":1000,"td":1001,"ove":1002,"Ġsc":1003,"Ġ:":1004,"ror":1005,"Ġper":1006,"05":1007,"Ġ@":1008,"Cont":1009,"_rgctx":1010,"metadata":1011,"Check":1012,"Res":1013,"Ġabout":1014,"Ġman":1015,"Ġli":1016,"96":1017,"Ġim":1018,"42":1019,"Ġ},Ċ":1020,"Data":1021,"ource":1022,"nb":1023,"eng":1024,"_inline":1025,"Ġwork":1026,"ose":1027,"ty":1028,"htm":1029,"ally":1030,"75":1031,"Ġsp":1032,"iter":1033,"urre":1034,"px":1035,"ick":1036,";čĊ":1037,"ey":1038,"ions":1039,"rad":1040,"ative":1041,"ton":1042,"app":1043,"ĠĠĠĠĠĠĠĠĠĠĠĠĠĠĠĠĠĠĠ":1044,"ä¸":1045,"},":1046,"Ġhis":1047,"word":1048,"ery":1049,"Ġour":1050,"FC":1051,"_il":1052,"41":1053,"_f":1054,"we":1055,"Ġno":1056,"Ġadd":1057,"_g":1058,"amp":1059,"FD":1060,"Get":1061,"tr":1062,"_TypeInfo":1063,"Ġhref":1064,"Ġsa":1065,"nbsp":1066,"old":1067,"ernal":1068,"gine":1069,"uild":1070,"ays":1071,"Ġany":1072,"res":1073,"irst":1074,"ond":1075,"Ġover":1076,"ele":1077,"Ġpublic":1078,"Ġname":1079,"Ġcl":1080,"ĠâĢľ":1081,"83":1082,"ID":1083,"|>":1084,"82":1085,"Ch":1086,"Ġwho":1087,"ĉNull":1088,"ĠÐ":1089,"ma":1090,"*)&":1091,"_T":1092,"06":1093,"BC":1094,"\">Ċ":1095,"List":1096,"(method":1097,"ĉNullCheck":1098,"ument":1099,").":1100,"enter":1101,"Ġtr":1102,"ates":1103,"odel":1104,"Ġ\\":1105,"itialize":1106,"ĠCh":1107,"arg":1108,"_B":1109,"urrent":1110,"Ġ}ĊĊ":1111,"();Ċ":1112,"Comp":1113,"fig":1114,"Ġ</":1115,"ox":1116,"://":1117,"Ð°":1118,"clud":1119,"Ġind":1120,"Ġdi":1121,"uintptr":1122,"ĉV":1123,"ï¼":1124,"Ġar":1125,"Ġpart":1126,"ely":1127,"ash":1128,"pr":1129,"ĠRe":1130,"_metadata":1131,"play":1132,"Ġi":1133,"Inv":1134,"_initialize":1135,"Ġqu":1136,"Ġcomm":1137,"hed":1138,"Ġother":1139,"_st":1140,"Ġalso":1141,"Ġyear":1142,"',":1143,"ĠThis":1144,"Ġem":1145,"Ġad":1146,"Ġrec":1147,"shared":1148,"ater":1149,"IN":1150,"Ġvar":1151,"Ġspe":1152,"ish":1153,"Ġass":1154,"Ð¾":1155,"Ġro":1156,"Ðµ":1157,"\"><":1158,"abel":1159,"09":1160,"Engine":1161,"Ġback":1162,"ĠIt":1163,"ific":1164,"ans":1165,"On":1166,"pro":1167,"ven":1168,"43":1169,"Ġlet":1170,"ble":1171,"ĉil":1172,"ĠUnity":1173,".htm":1174,"ute":1175,"of":1176,"ug":1177,"ys":1178,"unc":1179,"ength":1180,".j":1181,"anc":1182,"_method":1183,"_gshared":1184,"Ġte":1185,"red":1186,".t":1187,"79":1188,"ser":1189,"lock":1190,"81":1191,"Ġag":1192,"Ġbeen":1193,"Con":1194,"),Ċ":1195,".V":1196,"read":1197,"Ġdef":1198,"Ġjust":1199,".S":1200,"Ġuse":1201,"At":1202,"ange":1203,"ating":1204,"ollections":1205,"('":1206,"very":1207,"Ġlike":1208,"Field":1209,"OL":1210,"Ġdes":1211,"ix":1212,"Ġoff":1213,"56":1214,"enc":1215,"Fab":1216,"Internal":1217,"layFab":1218,"Ġwhat":1219,"igh":1220,"Initial":1221,"Gener":1222,"Ġthere":1223,"odu":1224,"-t":1225,"Ġneed":1226,"yle":1227,"_b":1228,"()Ċ":1229,"84":1230,"NA":1231,"-s":1232,"****************":1233,"IG":1234,"Ġpe":1235,"Initialized":1236,"ons":1237,"io":1238,"pport":1239,"Ġwould":1240,"Ġwere":1241,"Ġacc":1242,"Ġkn":1243,"view":1244,"index":1245,".s":1246,"ics":1247,"Ġinto":1248,"Ġhad":1249,"bool":1250,"Ġcom":1251,"ices":1252,"76":1253,".get":1254,"itt":1255,"lp":1256,"Ġ=>":1257,"pect":1258,"-in":1259,"Ġ>":1260,"Ġthan":1261,"200":1262,"nder":1263,"eg":1264,"array":1265,"fter":1266,"ng":1267,"alid":1268,"ĠĠĠĠĠĠĠĠĠ":1269,"def":1270,"Ġher":1271,"../":1272,"reate":1273,"ee":1274,"min":1275,"Ġits":1276,"vid":1277,"rag":1278,"riv":1279,"umber":1280,"roup":1281,"Ġ==":1282,"oke":1283,")(":1284,"(((":1285,"ise":1286,"over":1287,".B":1288,"wo":1289,"extern":1290,"Ġonly":1291,"ract":1292,"52":1293,"âĢĻt":1294,"/Ċ":1295,"MA":1296,"Ġbo":1297,"Ġthem":1298,"off":1299,"Generic":1300,"Set":1301,"aw":1302,"ock":1303,"ement":1304,"ning":1305,"ync":1306,"iction":1307,"tings":1308,"Class":1309,"Ġbec":1310,"âĶ":1311,"als":1312,"Ġel":1313,"Ġfe":1314,"100":1315,"ities":1316,"{\"":1317,"Ġinter":1318,"Ġgu":1319,"ape":1320,"rough":1321,"Ġhelp":1322,"Ġvalue":1323,"yp":1324,"Ġfirst":1325,"rite":1326,"rail":1327,"te":1328,"ault":1329,"http":1330,"Ð¸":1331,"ages":1332,"Ġself":1333,"rol":1334,"eb":1335,".d":1336,"ople":1337,"]Ċ":1338,"``":1339,"klass":1340,"ious":1341,"_se":1342,"TI":1343,"ues":1344,"cess":1345,"lect":1346,"ature":1347,"ĠString":1348,"Ġstr":1349,"Item":1350,".m":1351,")->":1352,"01":1353,"iss":1354,"*,":1355,"çļ":1356,"inal":1357,"arget":1358,"çļĦ":1359,"ian":1360,"cript":1361,"_n":1362,"quire":1363,"ful":1364,"As":1365,"Ġdata":1366,"Ġhow":1367,"Ġfunction":1368,"ner":1369,"alse":1370,"ĠEx":1371,"Task":1372,"reat":1373,"osition":1374,"thing":1375,"};Ċ":1376,"Ġmay":1377,"arch":1378,"62":1379,"'t":1380,"just":1381,"Ġtra":1382,"Ġact":1383,"(il":1384,")L":1385,"Ġtype":1386,"right":1387,"its":1388,"ible":1389,"sc":1390,"ĠAL":1391,".U":1392,"LE":1393,"keyword":1394,"ĠInt":1395,"========":1396,".Int":1397,"Request":1398,"ors":1399,"ause":1400,"Ġmake":1401,"AR":1402,"72":1403,"Ad":1404,".com":1405,"ÑĤ":1406,"ww":1407,"ility":1408,"âĶĢ":1409,"\"]":1410,"Element":1411,"ns":1412,"rc":1413,".ĊĊ":1414,"work":1415,"ssage":1416,"Ġreg":1417,"idth":1418,"Ġ%":1419,"pen":1420,"error":1421,"Ġpeople":1422,"Ġam":1423,"news":1424,"Key":1425,"Input":1426,"ram":1427,"Ġsaid":1428,"ader":1429,"ality":1430,"type":1431,"loat":1432,"02":1433,"-d":1434,"Text":1435,"PlayFab":1436,".f":1437,"ting":1438,"Ġbet":1439,"GC":1440,"Ġthrough":1441,"_title":1442,"user":1443,"001":1444,"const":1445,".Collections":1446,"med":1447,"lean":1448,"self":1449,"ĉRuntimeObject":1450,"Ġinclud":1451,"order":1452,"Ġ(!":1453,"ava":1454,"ade":1455,"ower":1456,"ward":1457,"Ġsize":1458,"Ġil":1459,"_re":1460,"Ġstart":1461,"ĠĠĠĠĠĠĠĠĠĠĠĠĠĠĠĠĠĠĠĠĠĠĠ":1462,"Ġ!":1463,"ush":1464,"Ġtrue":1465,"ood":1466,"Ġshould":1467,"item":1468,"Time":1469,"Ġbool":1470,"Ġinst":1471,"Ġthese":1472,"ĠRuntimeObject":1473,"Il":1474,"mer":1475,"(c":1476,"par":1477,"Ġend":1478,"Ġwant":1479,"hes":1480,"âĶĢâĶĢ":1481,"_S":1482,"ek":1483,"Ġknow":1484,"ution":1485,"Ġshe":1486,"202":1487,"ĠâĢĵ":1488,"oo":1489,"ersion":1490,"Ġinc":1491,"agn":1492,"ictionary":1493,"Ġtext":1494,"lex":1495,"ĠHe":1496,"span":1497,"OLOR":1498,"Ð½":1499,"log":1500,"08":1501,"ĠWe":1502,"51":1503,"Node":1504,"IDTH":1505,".g":1506,"Ġ--":1507,"orld":1508,"Ġmost":1509,"Ġresult":1510,"nect":1511,"Ġtwo":1512,"ï¼Į":1513,"ient":1514,"back":1515,");ĊĊ":1516,"Ġevery":1517,"_l":1518,"Ġdec":1519,"raille":1520,"Ġnull":1521,"perty":1522,"Hand":1523,"ĠWIDTH":1524,"_sep":1525,"ateg":1526,";&":1527,"soft":1528,"_F":1529,"Ġlook":1530,"ÑĢ":1531,"rib":1532,"To":1533,"RuntimeMethod":1534,"Unity":1535,"Result":1536,"ervice":1537,"arer":1538,"Ġlist":1539,"pty":1540,"value":1541,"lob":1542,"static":1543,"ins":1544,"53":1545,"CppMethod":1546,"ands":1547,"Ġid":1548,"ines":1549,"Ġdif":1550,"Ġplay":1551,"uff":1552,"94":1553,"date":1554,"Ġph":1555,"ialog":1556,"der":1557,"bs":1558,"ustom":1559,"\\\"":1560,"any":1561,"ev":1562,"ody":1563,"Ġcons":1564,"oduct":1565,"Ġunder":1566,"wn":1567,"Ġx":1568,"ict":1569,"arri":1570,"for":1571,"Ġwhere":1572,"Ġright":1573,"ough":1574,"ular":1575,"áĥ":1576,"ret":1577,"Ġwell":1578,"press":1579,"Ġ;Ċ":1580,"----------------":1581,"Sh":1582,">(":1583,"ĉbool":1584,"Ġread":1585,"Ġkey":1586,"Ġspec":1587,"Core":1588,"ily":1589,"03":1590,"91":1591,"Ġform":1592,"Ġafter":1593,"Ġthen":1594,"onse":1595,"reen":1596,"ream":1597,"à®":1598,"_array":1599,"78":1600,"98":1601,"Ġcolor":1602,"roll":1603,"View":1604,"Ġ*/Ċ":1605,"indow":1606,"ml":1607,"Ġsee":1608,"ank":1609,"Def":1610,"utton":1611,"ĠUn":1612,"ale":1613,"ĠUnityEngine":1614,"ets":1615,"002":1616,"br":1617,"_size":1618,"load":1619,"erson":1620,"ĠBGC":1621,"ĠBGCOLOR":1622,"not":1623,"63":1624,"Ġbraille":1625,"_Il":1626,"VDA":1627,"Ġnow":1628,"CppMethodInitialized":1629,"ĠWh":1630,"#p":1631,"Ġpar":1632,"Ġexper":1633,"92":1634,"rem":1635,"Ġsec":1636,"IM":1637,"other":1638,"ĠPro":1639,"Ġcould":1640,"(Ċ":1641,"ife":1642,"uilder":1643,"Func":1644,"ground":1645,"lete":1646,"04":1647,"Ġhigh":1648,"ied":1649,"oss":1650,"rit":1651,"InternalEnumerator":1652,"iness":1653,"ify":1654,"Ġelse":1655,"/s":1656,"Ġmany":1657,"Ġdown":1658,"RC":1659,"Ġmin":1660,"\");Ċ":1661,"ragma":1662,"ased":1663,"cription":1664,"ization":1665,"Ġloc":1666,"aster":1667,"tic":1668,"_Get":1669,"Ð¾Ð":1670,"atus":1671,"#pragma":1672,"Ġtest":1673,"Ġline":1674,"Arg":1675,"_R":1676,"ĠYou":1677,"Wh":1678,"\\u":1679,"Ġrel":1680,"Ġgame":1681,"Ġfind":1682,")ĊĊ":1683,"Ġchar":1684,"ited":1685,"(p":1686,"aking":1687,"ollow":1688,"ndex":1689,"raph":1690,"Ġvery":1691,"fore":1692,"],":1693,"_tA":1694,"ĠNew":1695,"Ġprog":1696,"58":1697,"Sc":1698,"Par":1699,"Ġpres":1700,"Ġatt":1701,"ointer":1702,"ccess":1703,"uch":1704,"Ġway":1705,"71":1706,"ason":1707,"-f":1708,"Ñģ":1709,"und":1710,"73":1711,"Ġdet":1712,"ĠIf":1713,"agnost":1714,"Ġsm":1715,"Ġ**":1716,"?Ċ":1717,"Ġmessage":1718,"Ġext":1719,"Code":1720,"ier":1721,"/c":1722,"icro":1723,"lobal":1724,"ttp":1725,"uc":1726,"ĉString":1727,"Ġshow":1728,"\\n":1729,"_type":1730,"ĠNVDA":1731,"Ġrem":1732,"By":1733,"ott":1734,"mb":1735,"Ġeven":1736,"74":1737,"ORD":1738,"Ġcor":1739,"SE":1740,"Ġgood":1741,"rivate":1742,"Ġcount":1743,"->____":1744,"af":1745,"iteral":1746,"bl":1747,"source":1748,"ait":1749,"Ġra":1750,"Ġyears":1751,"ren":1752,"68":1753,"Ġalign":1754,"Ġimport":1755,"54":1756,"Ġfile":1757,"_start":1758,"formation":1759,"Ġstud":1760,"Dis":1761,"olog":1762,"Ġac":1763,"uto":1764,".l":1765,"irt":1766,"Ġrequire":1767,"object":1768,"Ġreport":1769,"State":1770,"Json":1771,"ments":1772,"An":1773,"ector":1774,"Or":1775,"ocument":1776,"ackage":1777,"Ġwhile":1778,"agnostic":1779,"_P":1780,"arsh":1781,"Ed":1782,"Ġeach":1783,"Of":1784,"/j":1785,"Ġsim":1786,"Ġbecause":1787,"93":1788,"_cast":1789,"wh":1790,"usiness":1791,"ĠĠĠĠĠĠĠĠĠĠĠĠĠ":1792,"ctxt":1793,".Generic":1794,"Ġcal":1795,"ĠSh":1796,"Ġsub":1797,"ypes":1798,"uth":1799,"Ġbefore":1800,"Ġlong":1801,"Ġrun":1802,"ght":1803,"Ġdon":1804,"az":1805,"text":1806,"bo":1807,".L":1808,"rror":1809,"ps":1810,"ĠâĢĶ":1811,"Write":1812,"Ġused":1813,"font":1814,"Ġent":1815,"uring":1816,"Add":1817,"msgctxt":1818,"Ġdiagnostic":1819,"Ġnumber":1820,"Literal":1821,"åı":1822,"ample":1823,"Ġdoes":1824,"_L":1825,"Async":1826,"Ġfalse":1827,"_id":1828,"Ġcurrent":1829,"Ġsuch":1830,"=\"/":1831,"ouse":1832,"ational":1833,"HT":1834,"urs":1835,"à¤":1836,"Ġdid":1837,"Ġaw":1838,"Ġdiffer":1839,"ABLE":1840,"stringLiteral":1841,"[\"":1842,"alth":1843,"Invoke":1844,",System":1845,"ience":1846,"Ġclang":1847,"61":1848,"yth":1849,".\"Ċ":1850,"))Ċ":1851,"Read":1852,"Ġindex":1853,"Ġcol":1854,"Ġresp":1855,"att":1856,"_Tis":1857,"Ġhim":1858,"TE":1859,"-m":1860,"ĠAnd":1861,"adj":1862,"Ġhere":1863,"=\"#":1864,"ually":1865,"lear":1866,"rid":1867,"loc":1868,">ĊĊ":1869,"Ent":1870,"<System":1871,"Ġitem":1872,"Em":1873,".n":1874,"center":1875,"_RuntimeMethod":1876,"ĠAn":1877,"be":1878,"Ġser":1879,"Ġagain":1880,"velop":1881,"Ġeff":1882,"ervices":1883,"ĠSRC":1884,"ĠOn":1885,"Ġmark":1886,"Ġfound":1887,"Ġfl":1888,"(adj":1889,"Ġown":1890,"ote":1891,"Ġed":1892,"ined":1893,"ween":1894,"NAME":1895,"to":1896,"rame":1897,"offset":1898,"ailable":1899,"Ġhome":1900,"apt":1901,"Ġmon":1902,"Index":1903,".Object":1904,"_init":1905,"Ġlast":1906,"####":1907,"!Ċ":1908,"ru":1909,"code":1910,"ython":1911,"ĠCon":1912,"Ġbeing":1913,"Ġuser":1914,"ures":1915,"Ġmuch":1916,"action":1917,"_tC":1918,"alk":1919,"Ġ\"\"ĊĊ":1920,"Ġpass":1921,"...":1922,"\"></":1923,"];Ċ":1924,"rop":1925,"data":1926,"He":1927,"Dictionary":1928,"Hel":1929,"||":1930,"ech":1931,"var":1932,"Comm":1933,"Ġcall":1934,"ä»":1935,"TION":1936,"ND":1937,"ĠComp":1938,"Ġday":1939,"Ġdisplay":1940,"anag":1941,"Ġtrans":1942,"Ġthink":1943,"ision":1944,"Ġins":1945,"inition":1946,"Un":1947,"Ġpol":1948,"inter":1949,"ather":1950,"Ġcome":1951,"uck":1952,"oken":1953,"Ġbel":1954,"**Ċ":1955,"_end":1956,".âĢĿ":1957,"Comparer":1958,"_tB":1959,"*))":1960,"Ġhand":1961,"OU":1962,"ric":1963,"Ġtry":1964,"chard":1965,"For":1966,"arent":1967,"Ġcheck":1968,"erm":1969,"NTER":1970,".Void":1971,"ored":1972,"Ġorg":1973,"Ġsign":1974,"rac":1975,"arn":1976,"ãĢ":1977,"sl":1978,"IMG":1979,"inline":1980,"ever":1981,"SP":1982,"Action":1983,"Ġpoint":1984,"_tE":1985,"=\"../":1986,"ince":1987,".b":1988,"ĉIl":1989,"ession":1990,"Ġgiv":1991,"Ġtake":1992,"Builder":1993,"['":1994,"',Ċ":1995,"ains":1996,"Ġbest":1997,"We":1998,"åĪ":1999,"face":2000,"Ġsupport":2001,"_tF":2002,"Ġdisc":2003,"Im":2004,"Ġbl":2005,"Ġ{\"":2006,"500":2007,"Ġ(*)":2008,"ider":2009,"().":2010,"chardCore":2011,"format":2012,"={":2013,"ann":2014,"-l":2015,"Ġstring":2016,"Ġthose":2017,"Ġprint":2018,"Ġobject":2019,"\")Ċ":2020,"Ø§":2021,"Ġinformation":2022,"},{\"":2023,"Ġsur":2024,"lient":2025,"Ġcre":2026,"RE":2027,"Fields":2028,"ĠĠĠĠĠĠ":2029,"Ġsystem":2030,"']":2031,"IGN":2032,"ĠĠĠĠĠĠĠĠĠĠĠĠĠĠĠĠĠĠĠĠĠĠĠĠĠĠĠĠĠĠĠĠ":2033,"ST":2034,"(__":2035,"Ref":2036,"vert":2037,"Ġsol":2038,"Ġmust":2039,"Ġdire":2040,"Ġgener":2041,"_tD":2042,"UnityEngine":2043,"Ġfollow":2044,"ptions":2045,"|>Ċ":2046,"CENTER":2047,"isual":2048,"ĉG":2049,"rack":2050,"Ġperson":2051,"Ġchild":2052,"<TR":2053,"val":2054,"ĉPlayFab":2055,"Error":2056,"org":2057,"Handle":2058,"ump":2059,"ĠAl":2060,"(f":2061,"Ġval":2062,"AL":2063,"Adjust":2064,"Ġevent":2065,"/m":2066,",\"":2067,"Ġtop":2068,"aled":2069,"lease":2070,"opy":2071,")));Ċ":2072,"ãģ":2073,"rs":2074,"áĢ":2075,"<T":2076,"Ġweek":2077,"ars":2078,"_Item":2079,"ĠEn":2080,"ĠFor":2081,"Ġdep":2082,"inv":2083,"Collection":2084,"Ġusing":2085,"argin":2086,"Ġmade":2087,"used":2088,"chool":2089,"oot":2090,"icrosoft":2091,"Ġsame":2092,"Ġ->":2093,"Ġco":2094,"Ġcontrol":2095,"ross":2096,"day":2097,"ingle":2098,"Ġprovid":2099,"003":2100,"ĠALT":2101,"Ġworld":2102,"Ġnext":2103,"Sele":2104,"ĠOr":2105,")il":2106,"vailable":2107,"wer":2108,"loy":2109,"oy":2110,"unk":2111,")),":2112,"čĊčĊ":2113,"class":2114,"Ġsk":2115,"ends":2116,"lick":2117,"âĢľ":2118,"-p":2119,"less":2120,"gate":2121,"adding":2122,"ĠArray":2123,"the":2124,"Qu":2125,"ger":2126,"Date":2127,"Ġprocess":2128,"Context":2129,"pec":2130,"<td":2131,"Ġmed":2132,"CU":2133,"Ġfin":2134,"Ġsl":2135,"Call":2136,"cont":2137,"Ġsy":2138,"Ġlabel":2139,"Ġcare":2140,"cept":2141,"ĠList":2142,"Ġdel":2143,"oker":2144,"Char":2145,"Ġarg":2146,"_class":2147,"Ġtable":2148,"akes":2149,"ĠAs":2150,"Ġexp":2151,"oolean":2152,"Des":2153,"ple":2154,"Ġproduct":2155,")((":2156,"ential":2157,"Ġke":2158,"Property":2159,"Ġgui":2160,"IGHT":2161,"_M":2162,"Ġborder":2163,"reak":2164,"quality":2165,"Ġboth":2166,"Out":2167,"istr":2168,"ters":2169,"ler":2170,"This":2171,"ification":2172,"```":2173,"Ġlo":2174,"ribute":2175,"Ġfam":2176,"Form":2177,"Ġdevelop":2178,"aint":2179,"Ġfont":2180,"ness":2181,"Ġplace":2182,"Ġgreat":2183,"Static":2184,"mem":2185,"-g":2186,"stance":2187,"Ġbusiness":2188,"ts":2189,"Al":2190,">::":2191,"ORDER":2192,"Ġhead":2193,"Ġbetween":2194,"enu":2195,"NodeId":2196,"umn":2197,"Ð»":2198,"Argument":2199,"Ġmov":2200,"ik":2201,"ams":2202,"_MA":2203,"ved":2204,"Only":2205,"ING":2206,"Ġmode":2207,"Size":2208,"Ġcase":2209,"[]":2210,"/p":2211,"Ġ?":2212,"NT":2213,"endif":2214,"Ġstate":2215,"xml":2216,"Ġran":2217,"ister":2218,"åħ":2219,"ah":2220,"Ġpop":2221,"Ġdifferent":2222,"Ġcontent":2223,"Ġz":2224,"area":2225,"Base":2226,"Ġlife":2227,"(s":2228,".I":2229,"ĠBORDER":2230,"Job":2231,"Ġmodel":2232,"(System":2233,"Pair":2234,"Ġstill":2235,"Ġerror":2236,"uffer":2237,"public":2238,"max":2239,"Ġprivate":2240,"è¿":2241,"Ġcr":2242,"_reg":2243,"onent":2244,"by":2245,"ĠSc":2246,".set":2247,"çĶ":2248,"ces":2249,"Ġprogram":2250,"Ġimp":2251,"ails":2252,"Ġlog":2253,"Ġdesign":2254,"Ġreally":2255,"ĠBut":2256,"Ġfil":2257,"ember":2258,"):Ċ":2259,"#endif":2260,"#if":2261,"ured":2262,"ists":2263,"Style":2264,"ustr":2265,"orn":2266,"Ġinv":2267,"umb":2268,"Ġaround":2269,"ache":2270,"RI":2271,"ection":2272,"********************************":2273,"unity":2274,"åĲ":2275,"æľ":2276,"/*":2277,"ital":2278,"ense":2279,"iable":2280,"ĠHE":2281,"idd":2282,"erial":2283,"irtual":2284,"Ġcar":2285,"arge":2286,"-w":2287,"mp":2288,"((&":2289,"Ġopen":2290,"anel":2291,".html":2292,"ified":2293,"Back":2294,"use":2295,">&":2296,"Ġchang":2297,"AP":2298,"MP":2299,"float":2300,"cell":2301,"\";Ċ":2302,"incl":2303,"Ġgoing":2304,"Ġleft":2305,"Count":2306,"pper":2307,"Adjusted":2308,"Ġposition":2309,"www":2310,"Ġbackground":2311,"vest":2312,"Ġbook":2313,".X":2314,"Ġcour":2315,"SS":2316,"ender":2317,"_add":2318,"blem":2319,"artic":2320,"Ġwidth":2321,"Ġglobal":2322,"Config":2323,"Ġ);Ċ":2324,"Ġreal":2325,"Ġpat":2326,"Ġorder":2327,"ride":2328,"\")":2329,"inclair":2330,"ants":2331,"ivers":2332,"etwork":2333,"til":2334,"ways":2335,"Ġdist":2336,"Ġpost":2337,"Ġgroup":2338,"ling":2339,"Ġred":2340,"_O":2341,"util":2342,"Ġtoo":2343,"uration":2344,"Ġtitle":2345,".Input":2346,"Ġproject":2347,"509":2348,"ĠHEIGHT":2349,"ĠclassName":2350,"ope":2351,"ural":2352,"Ġ/*":2353,"Ġclo":2354,"Helper":2355,"Ġsettings":2356,"ĠAr":2357,"(Initialized":2358,"Ġelement":2359,"(InitializedTypeInfo":2360,"Ġcost":2361,"param":2362,"arm":2363,"Ġthree":2364,"rain":2365,"tn":2366,"_object":2367,"Ġsizeof":2368,")))Ċ":2369,".Json":2370,"rap":2371,"Ġallow":2372,"search":2373,"Ġ&&":2374,"):":2375,"ots":2376,"Ġpresent":2377,"Ġmargin":2378,"(&":2379,"ocus":2380,"Sp":2381,"Ġassert":2382,"ĠALIGN":2383,"Ġfield":2384,"Ġvis":2385,"User":2386,"255":2387,"time":2388,"äº":2389,"Ġsay":2390,"Ġstep":2391,"-area":2392,"Ġoper":2393,"lish":2394,">čĊ":2395,"Ġbuild":2396,"With":2397,"Ġfact":2398,"Ġwithout":2399,"Ġview":2400,"meric":2401,"ĠĠĠĠĠĠĠĠĠĠĠĠĠĠĠĠĠĠĠĠĠĠĠĠĠĠĠ":2402,"================":2403,"url":2404,"[i":2405,"If":2406,"Sl":2407,"ibr":2408,").Ċ":2409,"ives":2410,"iet":2411,"space":2412,"Definition":2413,"NAG":2414,".N":2415,"Model":2416,"ĠĠĠĠĠĠĠĠĠĠĠĠĠĠĠĠĠ":2417,"Ġbeg":2418,"Ġmat":2419,"Ġbu":2420,"Ġob":2421,"_count":2422,"Empty":2423,"Ġdialog":2424,"AN":2425,"Ġfinal":2426,"ittle":2427,"å®":2428,"Ġfew":2429,"Ġtog":2430,"};ĊĊ":2431,"Ġcustom":2432,"_MANAG":2433,"ĠX":2434,"Ġeas":2435,"Ġfeel":2436,",âĢĿ":2437,"Ġrep":2438,"Ġbrow":2439,"Types":2440,"_MANAGED":2441,"ensor":2442,"_mE":2443,"upport":2444,"Ġans":2445,"*)__":2446,"elegate":2447,"Ġhttp":2448,"uction":2449,"pression":2450,"Ã©":2451,"You":2452,"arshaled":2453,"Ġinput":2454,"Ġavailable":2455,"Ġfree":2456,"ĠThey":2457,"ically":2458,"/d":2459,"uss":2460,".h":2461,"ativeArray":2462,"Att":2463,"ane":2464,"Ġprov":2465,"Ġpath":2466,"left":2467,"ases":2468,"Ġlead":2469,"chn":2470,"Ġ)":2471,"RequestEvent":2472,"Up":2473,"rect":2474,"Ġcontin":2475,"ats":2476,"Ġrequest":2477,"man":2478,"ished":2479,"ĉIL":2480,"aving":2481,"race":2482,"Ġreview":2483,"(n":2484,"function":2485,"Ġpartic":2486,"raw":2487,"iled":2488,"|Ċ":2489,"Enumerable":2490,"comp":2491,"Ġign":2492,"ident":2493,"oh":2494,"acter":2495,"Invoker":2496,"Ġadv":2497,"umm":2498,"Ġhapp":2499,"ĠGet":2500,"ottom":2501,"Ġcreate":2502,"state":2503,"Ġlevel":2504,"Ġcho":2505,"rand":2506,"ouble":2507,"Ġkeep":2508,"orth":2509,"ĠRes":2510,"ĠSp":2511,"arrier":2512,"roid":2513,"result":2514,".w":2515,"Ġjob":2516,".png":2517,"004":2518,"col":2519,"IT":2520,"_name":2521,"box":2522,"Ġref":2523,"It":2524,"âĶĢâĶĢâĶĢâĶĢ":2525,"aj":2526,"From":2527,"ĠType":2528,"pret":2529,"ced":2530,"Ġsecond":2531,"Ġdocument":2532,"fl":2533,"ä½":2534,"_for":2535,"And":2536,"ips":2537,"board":2538,"ism":2539,"test":2540,"ĠAll":2541,"Ġposs":2542,"ãĢĤ":2543,"')":2544,"ology":2545,"ium":2546,"199":2547,"Ġask":2548,"Ġì":2549,"Ġquest":2550,"Ġmonth":2551,"Ġanother":2552,"vious":2553,"Entry":2554,"essage":2555,"ĠOff":2556,"Ġconf":2557,"Sub":2558,"wit":2559,"Ġver":2560,")(__":2561,"-a":2562,"ron":2563,"rint":2564,"Ġput":2565,"roller":2566,"NULL":2567,"Ġconnect":2568,"ĠĠĠĠĊ":2569,"Ġ};Ċ":2570,"Ġthings":2571,"_set":2572,"ĠMicrosoft":2573,"_new":2574,"Ñĥ":2575,"ĠAd":2576,"_value":2577,"ainer":2578,"Ġprodu":2579,"Ġhealth":2580,"âĢĻre":2581,"Ġear":2582,".cs":2583,"flow":2584,"Ġold":2585,"lection":2586,"Ġoutput":2587,"uthor":2588,"':":2589,"Ġ____":2590,"Ġiss":2591,"Ġduring":2592,"itor":2593,"yn":2594,"itional":2595,"anager":2596,"Ġgot":2597,"ĠHow":2598,"ention":2599,"ackson":2600,"ĠIl":2601,"afe":2602,"Ġcond":2603,"ResultEvent":2604,"++":2605,"StaticFields":2606,"ĠAmeric":2607,"com":2608,"Ġve":2609,"Ġteam":2610,"Ġ\"\\":2611,"ication":2612,"Not":2613,"ead":2614,"alf":2615,"ences":2616,"uments":2617,"_U":2618,"pg":2619,"Ġword":2620,"cent":2621,"Ġblock":2622,"head":2623,"Ġlittle":2624,"_StaticFields":2625,"Ġ((((":2626,"Ġexpect":2627,"reg":2628,"Ġtechn":2629,"abled":2630,"App":2631,"Ġaction":2632,"system":2633,"ÐµÐ":2634,"input":2635,"aterial":2636,"land":2637,"OM":2638,"All":2639,"Ġconfig":2640,"OC":2641,"oney":2642,"Gen":2643,"='":2644,"Ġmod":2645,"Ġtarget":2646,"Ġsmall":2647,"Script":2648,"ending":2649,"Ġstatic":2650,"Ġtool":2651,"ValuePair":2652,"Ġchange":2653,"cy":2654,"Token":2655,"Ð°Ð":2656,"].":2657,"aps":2658,"Ġwater":2659,"ought":2660,"stand":2661,"angu":2662,"Ġplan":2663,"Ġpay":2664,"version":2665,"Oper":2666,"Range":2667,"utes":2668,"Ġprot":2669,"à¯":2670,"IC":2671,"lication":2672,"output":2673,"<UnityEngine":2674,"Ġtask":2675,"(self":2676,"ls":2677,"ontent":2678,"ãĥ":2679,"Ġsure":2680,".gif":2681,"Ġmax":2682,"imal":2683,"(city":2684,".M":2685,".âĢĿĊ":2686,"ĠSo":2687,"Ġalways":2688,"Ġsomething":2689,"Ġ{čĊ":2690,"Ġgiven":2691,"*)&_":2692,"ware":2693,"down":2694,".T":2695,"Ġmarket":2696,"Ġann":2697,"Ġ\"-":2698,"iron":2699,"Ġfri":2700,"ift":2701,"ĉĉĉĉĉ":2702,"Ġfull":2703,"///":2704,"Ġoffer":2705,"Ġincre":2706,"urch":2707,"Ġanswer":2708,"ready":2709,"ission":2710,"target":2711,"-color":2712,"erg":2713,"ison":2714,"Ġeffect":2715,"FFFF":2716,"Ġincluding":2717,"oday":2718,"005":2719,"Ġ*Ċ":2720,"Stream":2721,"æķ":2722,"Ġtri":2723,".UI":2724,"ultip":2725,"Store":2726,"060":2727,"Color":2728,"Ġorgan":2729,"PTION":2730,"Ġappro":2731,"_Items":2732,"color":2733,"ãĤ":2734,"Ġâ":2735,"739":2736,"Ġbetter":2737,"214":2738,"https":2739,"Ġret":2740,"_D":2741,"'Ċ":2742,"Ġbig":2743,"ves":2744,"pos":2745,"ĠInd":2746,"Ġmain":2747,"Reg":2748,"bar":2749,"ume":2750,"count":2751,"Ġsite":2752,"Ġla":2753,"Ġmight":2754,"ina":2755,"Ġrece":2756,"Ġselect":2757,"ĉs":2758,"itive":2759,"ç»":2760,"_w":2761,"ining":2762,"ately":2763,"Ġfeature":2764,"TA":2765,"006":2766,"ĠZ":2767,"intptr":2768,"print":2769,"Ġnever":2770,"ĠApp":2771,".add":2772,"ĉM":2773,"Ġaccess":2774,"Ġrest":2775,"Ġlocal":2776,"Ġlove":2777,"ours":2778,"hetic":2779,"Ġpython":2780,"Ġcommand":2781,"els":2782,"Ġschool":2783,"Ġgrow":2784,"Dialog":2785,"Select":2786,"qualityComparer":2787,"Ġresponse":2788,"ĠPr":2789,"Ġprof":2790,"ior":2791,"RA":2792,"Ġcompany":2793,"Ġintern":2794,"Ġflex":2795,"_H":2796,"illion":2797,"/S":2798,"Stack":2799,"Ġinterest":2800,"list":2801,"vider":2802,"ĠCl":2803,"html":2804,"Ġ||":2805,"103":2806,"_i":2807,"ECT":2808,"File":2809,"æĸ":2810,"\\\\":2811,"img":2812,"ĠPl":2813,"Table":2814,"Ġignored":2815,"avig":2816,".Boolean":2817,"Barrier":2818,"ken":2819,"ĠQ":2820,"Ġsuccess":2821,"à¸":2822,"çĶ¨":2823,"Ġ*/":2824,"Ġequ":2825,"ameter":2826,"ĠAt":2827,"ĠPh":2828,"#ifdef":2829,"ocial":2830,"Ġsince":2831,"emp":2832,"rade":2833,"CodeGen":2834,"CppCodeGen":2835,"Ġlot":2836,"Ġhard":2837,"book":2838,"WriteBarrier":2839,"CppCodeGenWriteBarrier":2840,"inq":2841,"Ġide":2842,"urity":2843,"isk":2844,"CEPTION":2845,"ule":2846,"ĠShe":2847,"rist":2848,"Ġtot":2849,"Settings":2850,"eed":2851,"RuntimeArray":2852,"-format":2853,"_System":2854,".XR":2855,"efore":2856,"_pointer":2857,"Ġmem":2858,"ĉuint":2859,"_EXCEPTION":2860,"exec":2861,"Ġstand":2862,"Ġrow":2863,"CFB":2864,"å¤":2865,"Ġpower":2866,"tes":2867,"Ġactiv":2868,"ches":2869,"evice":2870,"Ġservice":2871,"ounc":2872,"_length":2873,"Ġpadding":2874,".jpg":2875,"aut":2876,"Delegate":2877,"Objects":2878,"Ġdev":2879,".P":2880,"\\w":2881,"Ġlay":2882,"Ġexpl":2883,"ertain":2884,"clude":2885,"æĺ":2886,"ird":2887,".Linq":2888,"Ġcode":2889,"resh":2890,"ination":2891,"ags":2892,"label":2893,"from":2894,"#,":2895,"Ġarray":2896,"ILE":2897,"GE":2898,"âĢ¦":2899,"Ġstyle":2900,"New":2901,"Ġturn":2902,"ĠThere":2903,"Elements":2904,"ĠComm":2905,"pi":2906,"Ġbreak":2907,"Ġreason":2908,");":2909,"ites":2910,"Ġes":2911,"wos":2912,"Ġwr":2913,"ĠNo":2914,"interpret":2915,"Ġwom":2916,"Ġleg":2917,"198":2918,"(d":2919,"Ġlarge":2920,"////":2921,"150":2922,"Rec":2923,"Ġmanag":2924,"__Ċ":2925,"Ġimportant":2926,"-city":2927,"Ġprovide":2928,"err":2929,"ability":2930,"Ġexperience":2931,"BAB":2932,"uda":2933,"Ġ/>Ċ":2934,"Ġorig":2935,"ilter":2936,"table":2937,".u":2938,"ether":2939,"ÙĦ":2940,";</":2941,"pert":2942,"formance":2943,"ponse":2944,"odule":2945,"rec":2946,"Ġwithin":2947,"._":2948,"Ġnon":2949,"Ġcell":2950,"Commands":2951,"urst":2952,"Ġfamily":2953,"Ġdr":2954,"è¯":2955,"umerator":2956,"clang":2957,"Ġrecord":2958,"ique":2959,"gest":2960,"Ġuint":2961,"struction":2962,"icate":2963,"rue":2964,"inc":2965,"Val":2966,"Ġunt":2967,"nthetic":2968,"Ġemp":2969,"inary":2970,"ights":2971,"_mC":2972,"Ġreinterpret":2973,"Attribute":2974,"viron":2975,"cul":2976,"anguage":2977,"Ã¡":2978,"ONT":2979,"Ġ[\"":2980,"(static":2981,"Ġart":2982,"ront":2983,"\":{\"":2984,"iver":2985,"Content":2986,"Ġest":2987,"';Ċ":2988,"imation":2989,"izes":2990,"Ġless":2991,"ĠTo":2992,"Ġ>::":2993,"Ext":2994,"istant":2995,"âĢĶ":2996,"ĠCE":2997,"api":2998,"TABLE":2999,"ĠglobalCommands":3000,"<il":3001,"Ġsupp":3002,");čĊ":3003,"usic":3004,"Ġ/**Ċ":3005,"ingField":3006,"Ġbody":3007,"/l":3008,"Ġdays":3009,"Is":3010,"Ġ\"\"":3011,"ibrary":3012,"BackingField":3013,"Act":3014,"ĠSe":3015,"Null":3016,".InputSystem":3017,"ards":3018,"');Ċ":3019,"Ġcenter":3020,"ently":3021,"ended":3022,"black":3023,"Ġheight":3024,"ĠPlayFab":3025,"pped":3026,"terator":3027,"oin":3028,"ĉfloat":3029,"ĠBe":3030,"Ġpub":3031,"Ġ]":3032,"using":3033,"no":3034,"_IN":3035,"_mB":3036,"erc":3037,"Ġpage":3038,"_h":3039,"VE":3040,"Ġagainst":3041,"uple":3042,"Your":3043,"Ġproblem":3044,"ories":3045,"ields":3046,"ĠEm":3047,"Ġcap":3048,"ĠâĢĺ":3049,"ECD":3050,"($":3051,"Ġlink":3052,"åľ":3053,"ategy":3054,"ideo":3055,"Ġfour":3056,"ency":3057,"pose":3058,"ategory":3059,"Ġgive":3060,"epend":3061,"uf":3062,"Work":3063,"ised":3064,"Ġche":3065,".Array":3066,".\"":3067,"Ġable":3068,"Ġaut":3069,"ĠCont":3070,".st":3071,"922":3072,"ourn":3073,")\\":3074,"Service":3075,"_marshaled":3076,"Ġ!=":3077,"ä¸Ģ":3078,"ship":3079,"fect":3080,"Shape":3081,"Ass":3082,"init":3083,"994":3084,"oci":3085,"IS":3086,"thisAdjusted":3087,"Ġbrowse":3088,"Off":3089,"865":3090,"Ġinvest":3091,"Ġconsider":3092,"Ġformat":3093,"Ġonline":3094,"Manager":3095,"-st":3096,"Ġrange":3097,"Format":3098,"Ġchildren":3099,"iversity":3100,"MethodBuilder":3101,"outh":3102,"Ġprom":3103,"ql":3104,"Ġbeh":3105,"ĠInput":3106,"Next":3107,"/P":3108,"åŃ":3109,"ĉstatic":3110,"oll":3111,"_th":3112,"\"},{\"":3113,"310":3114,"leted":3115,"ĠDe":3116,"earch":3117,"Ġbro":3118,"Aw":3119,"Ġinclude":3120,"Ġcomplete":3121,"ormal":3122,"_mF":3123,"Ġdefault":3124,"_Current":3125,"(),":3126,"_index":3127,"asterxml":3128,"-on":3129,"ĉType":3130,"_mA":3131,"items":3132,"BR":3133,"ources":3134,"ike":3135,"Ġlaw":3136,"char":3137,"Ġalready":3138,"Ġnote":3139,"Ġsrc":3140,"OUND":3141,"ĠNVDAObjects":3142,"Ġemail":3143,"side":3144,"Items":3145,"Function":3146,"achine":3147,"ius":3148,"ouch":3149,"Ġclear":3150,"Ġaff":3151,"bed":3152,"400":3153,"Ġspecial":3154,"ĠSy":3155,"files":3156,"vironment":3157,"ln":3158,"())":3159,"æĪ":3160,"129":3161,"Ġconc":3162,"ĠBl":3163,"Ġarea":3164,"ĠOrchardCore":3165,"ries":3166,"REF":3167,"806":3168,"place":3169,"Ġsource":3170,".D":3171,"score":3172,"Ġservices":3173,"ermin":3174,"Le":3175,"go":3176,"Ġwebs":3177,"--------------------------------":3178,"ĠWith":3179,"Ġ===":3180,"BAF":3181,"417":3182,"important":3183,"ä¸ª":3184,"Iterator":3185,"Ret":3186,"obj":3187,"Ġbecome":3188,"thers":3189,"layer":3190,"default":3191,"eam":3192,"Ġsearch":3193,"ably":3194,"izer":3195,"512":3196,"]_":3197,"Ġshort":3198,"Ġartic":3199,"ëı":3200,"ĠThat":3201,"ACK":3202,".,":3203,"ports":3204,"Mode":3205,"Ġjava":3206,"Auto":3207,"Client":3208,"conom":3209,"112":3210,"des":3211,"Sort":3212,"Ġfollowing":3213,"Ġport":3214,"ailed":3215,"ired":3216,"Ġdem":3217,"ene":3218,"128":3219,"pping":3220,"aces":3221,"'ll":3222,"Ġstore":3223,"_mD":3224,"isplay":3225,"Ġbit":3226,"Ġfun":3227,"web":3228,"cel":3229,".org":3230,"ĠIs":3231,"235":3232,"ulture":3233,"active":3234,"ived":3235,"istory":3236,"115":3237,"300":3238,"(m":3239,"ole":3240,"Ñı":3241,"Ġ<=":3242,"256":3243,"Display":3244,"ĠSet":3245,"'re":3246,"No":3247,"ference":3248,"Ġresults":3249,"Ġfood":3250,"æķ°":3251,"OrchardCore":3252,"articles":3253,"AI":3254,"ograph":3255,"OT":3256,"ADD":3257,"Ġcalled":3258,"DAF":3259,"tonsoft":3260,".print":3261,"yc":3262,"ĠEnumerator":3263,"size":3264,"âĢĻve":3265,"resent":3266,"Ġwhe":3267,"Ðº":3268,"irc":3269,"623":3270,"FONT":3271,".AR":3272,"uman":3273,"Ġtotal":3274,"ills":3275,".UIElements":3276,"acity":3277,"Ġsat":3278,"../../":3279,"FuncInvoker":3280,"hent":3281,"Ġshape":3282,"*)(":3283,"Ġsays":3284,"perties":3285,"ĠWhen":3286,"INE":3287,"older":3288,"ReadOnly":3289,"Response":3290,"FILE":3291,"RuntimeClass":3292,"Ġauthor":3293,"ten":3294,"ĠSee":3295,".Cont":3296,"Ġaud":3297,"arning":3298,"Ġ),Ċ":3299,"ĠEd":3300,"ances":3301,"Ġident":3302,"Ġuntil":3303,"Aut":3304,"invoke":3305,"/f":3306,"Ġabs":3307,"_Ad":3308,"Ġsum":3309,"Default":3310,"/L":3311,"ellow":3312,"Invalid":3313,"è®":3314,"Ġworking":3315,"ransp":3316,"åº":3317,"plate":3318,"Ġ///":3319,"Ġhttps":3320,"Ġcorrect":3321,"EmptyInternalEnumerator":3322,"Ġmaking":3323,"Edit":3324,"cast":3325,"(package":3326,"Ġmeans":3327,"iving":3328,"LA":3329,"SC":3330,"aiter":3331,"Ġcover":3332,"120":3333,"&nbsp":3334,"Ġet":3335,"settings":3336,"_Collections":3337,"Ġpa":3338,"Ġvalues":3339,"Operation":3340,"Ġ|Ċ":3341,"Throw":3342,"Thunk":3343,"eature":3344,".ph":3345,"mbol":3346,"Web":3347,".ex":3348,"Ġmeet":3349,"Source":3350,"config":3351,"Ġkind":3352,"link":3353,"Controller":3354,"current":3355,"Provider":3356,"Pr":3357,"Ġmatch":3358,"Ġcent":3359,"Ġrequired":3360,"Ġlive":3361,"irm":3362,"axrs":3363,"Ġbox":3364,")->___":3365,"XI":3366,"OG":3367,"ero":3368,"069":3369,"Dialogs":3370,"uid":3371,"Ġlight":3372,"river":3373,"aim":3374,"ulti":3375,"mark":3376,"266":3377,".is":3378,"Start":3379,"è¡":3380,"Ġbutton":3381,".String":3382,"raft":3383,"orThunk":3384,"_Adjust":3385,"Ġtimes":3386,"pecial":3387,"Ġversion":3388,"CAB":3389,"-h":3390,"ĠØ":3391,"_AdjustorThunk":3392,"ransform":3393,"(_":3394,"Ġben":3395,"Ġtoday":3396,"007":3397,"Ġquick":3398,"ui":3399,"Ġexact":3400,"Ġexample":3401,"Ġgover":3402,"Ġaway":3403,"onents":3404,"Ġcourse":3405,"Ġstruct":3406,"src":3407,"ĠSome":3408,"Pl":3409,"\"}":3410,"Ġpack":3411,".Visual":3412,"Address":3413,"ursor":3414,"Ġcolle":3415,"ëıĻ":3416,"riter":3417,"image":3418,"Ġmet":3419,"FAB":3420,"ibility":3421,"Callback":3422,"idual":3423,"Tuple":3424,"ĠĠĠĠĠĠĠĠĠĠĠĠĠĠĠĠĠĠĠĠĠĠĠĠĠĠĠĠĠĠĠ":3425,"way":3426,"Ġresearch":3427,"Ec":3428,"gle":3429,"æĹ":3430,"vers":3431,"/b":3432,"typ":3433,"797":3434,"quals":3435,"Ġthing":3436,"Ġbas":3437,"ĠHREF":3438,"_G":3439,"Ġspace":3440,"erence":3441,"IZ":3442,"Ġoptions":3443,"282":3444,"ĠAdd":3445,"otal":3446,"Ġocc":3447,"oad":3448,"Ġsn":3449,"Ġemploy":3450,"Ġsoft":3451,"åĬ":3452,"å¼":3453,"nment":3454,"Ġfore":3455,"Hash":3456,"Ġsever":3457,"Button":3458,"ĉU":3459,"ĠAss":3460,"æĺ¯":3461,"(e":3462,"Ġtoken":3463,"Ġwrit":3464,"Ġroom":3465,"Ġdirect":3466,"tx":3467,"ury":3468,"icon":3469,"Ġtogether":3470,"Ġcomput":3471,"Ġimpro":3472,"**)(":3473,"Ġpast":3474,"---":3475,"ĠUS":3476,"Ġwire":3477,"ĉpublic":3478,"Map":3479,"ĠDo":3480,"999":3481,"ĠInternal":3482,"Ġstd":3483,"ively":3484,"une":3485,"sers":3486,".php":3487,"aining":3488,"Ġ\\\"":3489,"Ġtrack":3490,"ither":3491,"define":3492,"Ġmoney":3493,"uro":3494,"Ġlim":3495,"230":3496,"isc":3497,"Ġmean":3498,"come":3499,"165":3500,".length":3501,"uture":3502,"Path":3503,"Ek":3504,"Ġbegin":3505,"height":3506,"446":3507,"192":3508,"Ġside":3509,"Ġwhy":3510,"-size":3511,"pre":3512,"161":3513,"Ġpossible":3514,"197":3515,"923":3516,"ĠWhat":3517,"([":3518,"ĉc":3519,"unch":3520,"ulation":3521,"___":3522,"era":3523,"Byte":3524,"/src":3525,"Ġprevious":3526,"Mem":3527,"Ġpush":3528,"Ġitems":3529,".Burst":3530,"Ġ});Ċ":3531,"721":3532,"RuntimeType":3533,"Ġaccount":3534,"ĠValue":3535,"Ġcatch":3536,"What":3537,"Ġlooking":3538,"ummary":3539,"ĠOffice":3540,"Ġwin":3541,"aff":3542,".push":3543,"########":3544,"EBF":3545,"KeyValuePair":3546,"âĢĻm":3547,"Handler":3548,"à²":3549,"Ġpract":3550,"ides":3551,"Ġsaf":3552,"olved":3553,"Ġupdate":3554,"Ġonce":3555,"sole":3556,"reet":3557,"Ġstudents":3558,".e":3559,"Ġcou":3560,"Ġop":3561,"ĠLe":3562,"Ġlik":3563,"ged":3564,"true":3565,"Ġalong":3566,"Ã³":3567,"mit":3568,"member":3569,"ĠÐ¿":3570,"Acc":3571,"fully":3572,"_static":3573,"Ġinstance":3574,"light":3575,"\\/":3576,"message":3577,"_fields":3578,"enn":3579,"Ñĭ":3580,"Ġsingle":3581,"**)(&":3582,"Ġaddress":3583,"KE":3584,"Ġneeds":3585,"Ġfix":3586,"YS":3587,"Ġbased":3588,"Ġstat":3589,"alt":3590,"lished":3591,"Ġtell":3592,"Ġtalk":3593,"sourceNodeId":3594,"targetNodeId":3595,"Ġanal":3596,"returnValue":3597,"Ġdone":3598,"Ġdate":3599,"EqualityComparer":3600,"Ġ>=":3601,"ĠCan":3602,"Ġsuper":3603,"avor":3604,"Message":3605,"ĠÂ":3606,"826":3607,"767":3608,"ÃŃ":3609,"Point":3610,"ĠDes":3611,"Per":3612,"End":3613,"_e":3614,"Position":3615,"976":3616,"Ġunderstand":3617,"ĠCELL":3618,"button":3619,"Ġpress":3620,"assword":3621,"Ġexist":3622,"uest":3623,"package":3624,"de":3625,"mbers":3626,".Text":3627,"(t":3628,"FED":3629,"695":3630,"452":3631,"862":3632,"\"},":3633,"Ġleast":3634,"iety":3635,"oud":3636,"Scripting":3637,"å°":3638,"itions":3639,"(\\":3640,"ising":3641,"ully":3642,"ĠRet":3643,"650":3644,"Ġfocus":3645,"Ptr":3646,"OP":3647,"âĢĻll":3648,"!--":3649,"Ġbase":3650,"Pointer":3651,"Ġthought":3652,"());Ċ":3653,"fg":3654,"aring":3655,".VisualScripting":3656,"ley":3657,"Ġoverride":3658,"Ġfac":3659,"903":3660,"ieve":3661,"epth":3662,"Open":3663,"joy":3664,"109":3665,"agaz":3666,"Ġoften":3667,"Ġ<<":3668,"Ġnear":3669,"Ġdiv":3670,"\\window":3671,"ADC":3672,"Ġdoesn":3673,"Ġfar":3674,"FFA":3675,"LINE":3676,"TaskMethodBuilder":3677,"ivity":3678,"IZE":3679,"icy":3680,"Ġfloat":3681,"ajor":3682,"Ġhaving":3683,"ĠRead":3684,"ĠĠĠĠĠĠĠĠĠĠĠĠ":3685,"770":3686,"ba":3687,")čĊ":3688,"ĠChrist":3689,">,":3690,"ohn":3691,"ayout":3692,"Ġcarri":3693,"ÐµÐ½":3694,"ä¸Ń":3695,"AutoShape":3696,"Ġwebsite":3697,"istic":3698,"OutOf":3699,"Ø±":3700,"ĉinline":3701,"){Ċ":3702,"485":3703,"ĠNone":3704,"Ġsug":3705,"./":3706,"ĠInternalEnumerator":3707,"Http":3708,"Group":3709,"plac":3710,"Ġcharacter":3711,"execution":3712,"ched":3713,"sure":3714,"=black":3715,"Ġindustr":3716,"ained":3717,"uation":3718,"Ġenough":3719,"Ġbuy":3720,"Ġacross":3721,"odes":3722,"298":3723,"Ġ,":3724,"Support":3725,"ks":3726,"FAD":3727,"Ġcommunity":3728,"Dec":3729,"path":3730,"tool":3731,"ai":3732,"Ġ)Ċ":3733,".out":3734,"Ġvisit":3735,"Ġindiv":3736,"body":3737,"Ġvalid":3738,"include":3739,"Ġcomb":3740,"Str":3741,"imary":3742,"ino":3743,"Ġvol":3744,"Ġdidn":3745,"Ġsort":3746,".R":3747,"Ùħ":3748,"Span":3749,"Ġlearn":3750,"Ġseason":3751,"%;Ċ":3752,"314":3753,"Ġactually":3754,"Ġpot":3755,"ilt":3756,"ording":3757,"896":3758,"ids":3759,"Ġmakes":3760,"018":3761,"600":3762,"Ġwindow":3763,"341":3764,"Ġbring":3765,"ral":3766,"Ġseem":3767,"OutOfRange":3768,"Ġload":3769,"Ġproducts":3770,"Ġtrad":3771,"-n":3772,"Ġscreen":3773,"Over":3774,"DateTime":3775,"arrac":3776,"ones":3777,"ä¹":3778,"ĠOut":3779,"Ġbg":3780,"iod":3781,"692":3782,"Log":3783,"<a":3784,"ï¼ļ":3785,"arracuda":3786,"196":3787,"Ġoriginal":3788,"iate":3789,"shape":3790,".View":3791,"RL":3792,"105":3793,"ĠExt":3794,"142":3795,"ĉĉĉĉĉĉĉĉ":3796,"ension":3797,"248":3798,"AISE":3799,"315":3800,"_RAISE":3801,"Box":3802,"Ġimage":3803,"eger":3804,"Expression":3805,"ĠÑģ":3806,"'ve":3807,"Ġsent":3808,"Ð²":3809,"Ġtre":3810,"ĠGod":3811,"Where":3812,"éĢ":3813,"ering":3814,"799":3815,"oding":3816,"Update":3817,"ÙĨ":3818,"ocal":3819,"Ġever":3820,"Ġshare":3821,"ogn":3822,"settingsDialogs":3823,"\\settingsDialogs":3824,"Image":3825,"031":3826,"ĠObject":3827,"odules":3828,".Barracuda":3829,"ames":3830,"icial":3831,"Number":3832,"onStore":3833,"Views":3834,"AT":3835,"atab":3836,"CppChar":3837,"iler":3838,".<|":3839,"Ġgl":3840,"Ġlow":3841,"Ġhouse":3842,"###":3843,"ĠMay":3844,"obile":3845,"anced":3846,"Ġbenef":3847,"946":3848,"ging":3849,"110":3850,"'m":3851,"mset":3852,"Ġlate":3853,"imum":3854,"-B":3855,"yles":3856,"Thread":3857,"ĠCar":3858,".net":3859,"InternalArray":3860,"Ġmove":3861,"istics":3862,"æī":3863,"ilar":3864,"ractor":3865,"ML":3866,"_INLINE":3867,"ĠNot":3868,"Ġweb":3869,"auth":3870,"880":3871,"_ptr":3872,"Ġpanel":3873,"Ġamount":3874,"Ġthrow":3875,"Ġsocial":3876,"Ġquality":3877,"]),Ċ":3878,"ĠCal":3879,"Util":3880,"UI":3881,".v":3882,"æł":3883,"332":3884,"Ġstory":3885,"Ġcountry":3886,".app":3887,"751":3888,"ĉme":3889,"Ġcertain":3890,"Ġoption":3891,".Comp":3892,"221":3893,"Ġmembers":3894,"ari":3895,"ĊĊĊ":3896,"Ġair":3897,"Ġelect":3898,"740":3899,"250":3900,"Ġeasy":3901,"Ġindividual":3902,"email":3903,"409":3904,"Ġparent":3905,"Ġtreat":3906,"fort":3907,"*>(":3908,"Ġgetting":3909,"Ġquestion":3910,"ĠCO":3911,"Ġland":3912,"080":3913,"gi":3914,"erialization":3915,"ĠKey":3916,"ogle":3917,"Ġteach":3918,"134":3919,"152":3920,"osp":3921,"ĠUniversity":3922,"Ġbelow":3923,"ĉmemset":3924,"))))Ċ":3925,"room":3926,"471":3927,"ta":3928,"Ġnight":3929,"Ġappear":3930,"Block":3931,"UT":3932,"weight":3933,"617":3934,"HE":3935,".cshtml":3936,"ony":3937,"outputs":3938,"umbers":3939,"rive":3940,"ients":3941,"750":3942,"008":3943,"åĨ":3944,"ìĿ":3945,"${":3946,"TaskAw":3947,"ĠMy":3948,"Ġthough":3949,"iddle":3950,"clus":3951,"åľ¨":3952,"Ġant":3953,"Ġtem":3954,"asing":3955,"her":3956,"927":3957,"Ġdoing":3958,"DOC":3959,"```ĊĊ":3960,"resp":3961,"Ġwomen":3962,"Ġlength":3963,"Ġpersonal":3964,"Ġter":3965,"953":3966,"\\Views":3967,"olve":3968,"MAP":3969,"ĠReg":3970,"\"]},":3971,"195":3972,"select":3973,"OutOfRangeException":3974,"arison":3975,"Ġothers":3976,"')Ċ":3977,"ĠInter":3978,".println":3979,"973":3980,"Ġnone":3981,"åĽ":3982,"Test":3983,"Ġwhether":3984,"Ġregion":3985,"ĠDec":3986,"Ġmom":3987,"info":3988,"Ġprice":3989,"annel":3990,"ĠCo":3991,"omb":3992,"Ġgames":3993,"ĠOne":3994,"aken":3995,"Instance":3996,"(b":3997,"Ġsit":3998,"How":3999,"Ġseveral":4000,"ĉS":4001,"fic":4002,"Ġ[]":4003,".F":4004,"point":4005,"411":4006,"Ġhold":4007,"start":4008,"_AXI":4009,"DDE":4010,"rix":4011,"most":4012,"Ġmusic":4013,"ODE":4014,"isf":4015,"adow":4016,"ĠDate":4017,"ĠMar":4018,"Ġenjoy":4019,"597":4020,"ne":4021,"_pro":4022,"076":4023,"440":4024,"Ġhost":4025,"Status":4026,".js":4027,"Ġ{ĊĊ":4028,"my":4029,"ĠTask":4030,"ises":4031,"Ġdig":4032,"ration":4033,"ĠThese":4034,"Ġfund":4035,"There":4036,"ĠVirtual":4037,"700":4038,"Label":4039,"Events":4040,"Ġcontact":4041,"800":4042,"ges":4043,"itted":4044,"Be":4045,"ultiple":4046,"Ġfre":4047,"Ġcomes":4048,"Ġmaterial":4049,"artment":4050,"âĢĵ":4051,"Sinclair":4052,"Ġparticular":4053,"Ġcame":4054,"DCA":4055,"åĩ":4056,"Query":4057,"_ex":4058,"Ġabove":4059,"ĠMark":4060,"ĠText":4061,"script":4062,"wards":4063,"Ġrisk":4064,"327":4065,"df":4066,"ctory":4067,"witch":4068,"Ġchanged":4069,"ply":4070,"nsl":4071,"ĉm":4072,"Ġpos":4073,"Ġinstall":4074,"hema":4075,"_Add":4076,"_Is":4077,"Ġpo":4078,"Ġca":4079,"ocket":4080,"Ġmajor":4081,"Ð´":4082,".\"ĊĊ":4083,".as":4084,"align":4085,".log":4086,"hentication":4087,"Ġlanguage":4088,".data":4089,"istance":4090,"Cl":4091,"urther":4092,"ergy":4093,"Ġsw":4094,"Inst":4095,"Ġargs":4096,"å¯":4097,"Ġcopy":4098,"Ġclean":4099,"Ġpercent":4100,"ĠMed":4101,"US":4102,"223":4103,"Ġprofession":4104,"]\"":4105,"Ġcity":4106,"ued":4107,"<BR":4108,"olumn":4109,"Ġimplement":4110,"Ñĩ":4111,"Step":4112,"ACE":4113,"verse":4114,"Ġnetwork":4115,"idden":4116,"!(":4117,":**":4118,"ĠGo":4119,"Ġtyp":4120,"Ġcontext":4121,"ected":4122,"Ġlater":4123,"_sub":4124,"ADF":4125,"acters":4126,"eral":4127,"333":4128,"ĠBo":4129,"ĠTime":4130,"Workflow":4131,"180":4132,"nection":4133,"hip":4134,"Ġyet":4135,"_str":4136,"157":4137,"rew":4138,"_W":4139,"472":4140,".to":4141,"bj":4142,"oved":4143,"ops":4144,"Ġwalk":4145,"idget":4146,"_FOR":4147,"oute":4148,"ado":4149,"ebug":4150,"680":4151,"Ġvideo":4152,"ements":4153,"Ġround":4154,"Resource":4155,"ĠSu":4156,"Ġdevelopment":4157,"Ġfuture":4158,"imate":4159,"mt":4160,"query":4161,"293":4162,"139":4163,"][":4164,"Ġauto":4165,"Ġsound":4166,"ster":4167,"Api":4168,"CAC":4169,"Ġcamp":4170,"ĉT":4171,"erved":4172,"ĠYour":4173,"ĠIm":4174,"ĠÃ":4175,"Ġhot":4176,"Ġdisplayed":4177,"Ġ+=":4178,"*/Ċ":4179,"Ġcommun":4180,"De":4181,"Ġeduc":4182,"sed":4183,"_key":4184,"Ġproperty":4185,"Ġmillion":4186,"493":4187,"Inter":4188,"-y":4189,"esh":4190,"'b":4191,"009":4192,"Ġhours":4193,"ada":4194,"Ġmind":4195,"Component":4196,"457":4197,"ĠAmerican":4198,"ĠÐ²":4199,"506":4200,"612":4201,"347":4202,"SON":4203,"(:":4204,"ĠNewtonsoft":4205,"997":4206,"rd":4207,"title":4208,".Contents":4209,"Ġrecomm":4210,"Ġopport":4211,"();ĊĊ":4212,"808":4213,"ES":4214,"Ġ()":4215,"Ġstarted":4216,"!(((":4217,"uly":4218,"Args":4219,"Ġ{},":4220,".Views":4221,"Ġstatus":4222,"ĠEnt":4223,"823":4224,"DED":4225,"ĠUp":4226,"oveNext":4227,"Ġbar":4228,"114":4229,"FFB":4230,"Ġhappen":4231,"}čĊ":4232,"frame":4233,"erver":4234,"radius":4235,"-left":4236,"187":4237,"amic":4238,"ung":4239,"Ġmeas":4240,"raint":4241,"401":4242,"Ġsetting":4243,"822":4244,"361":4245,"044":4246,"Ġfn":4247,"axi":4248,"rel":4249,"BDA":4250,"Ġcur":4251,"Ġgovernment":4252,"rief":4253,"Ġawait":4254,"048":4255,"`,":4256,"nown":4257,"assistant":4258,"ecess":4259,"-cont":4260,".</":4261,"Ġey":4262,"ians":4263,"ĠDictionary":4264,"So":4265,"Ġmen":4266,"Ġcut":4267,"iff":4268,"052":4269,"Ġnavig":4270,"(int":4271,"epar":4272,"where":4273,"Ġund":4274,"013":4275,"Ġverification":4276,"omain":4277,"emb":4278,"ales":4279,"Ġenter":4280,"Ġ(Ċ":4281,"Ġwon":4282,"Ġcontinue":4283,"olution":4284,"ĠBy":4285,"Ġnode":4286,".cont":4287,"Admin":4288,"ameters":4289,"834":4290,"ached":4291,"utions":4292,"ental":4293,"116":4294,".util":4295,"cer":4296,"Ġpoints":4297,"Ġneeded":4298,"à¥":4299,"OW":4300,"ĠCount":4301,"vidence":4302,"GR":4303,"model":4304,"ux":4305,"ĠInst":4306,")s":4307,"When":4308,"ĠState":4309,"_FORCE":4310,"description":4311,"CBA":4312,"Ġrele":4313,"CH":4314,"Ġprob":4315,"Ġhalf":4316,"lector":4317,"Buffer":4318,"Ġfall":4319,"ArgumentOutOfRangeException":4320,"ÙĪ":4321,"uted":4322,"=\"[":4323,"aught":4324,"acc":4325,"Writer":4326,"(V":4327,"598":4328,"Ġface":4329,"rior":4330,"/en":4331,"Ar":4332,"top":4333,"ude":4334,"Ġcommon":4335,"anies":4336,"acy":4337,"Ġtook":4338,"Ġenc":4339,"ĠRec":4340,"invalid":4341,"Ġcannot":4342,"Ġsatisf":4343,"Ġclose":4344,"Ġperfect":4345,"tract":4346,"actory":4347,"Ġcursor":4348,"Ġnat":4349,"Ġmiss":4350,"055":4351,"inally":4352,"[index":4353,"idents":4354,"(--":4355,"PT":4356,"Ġspecific":4357,"Ġexec":4358,"ball":4359,"Ġcompet":4360,"123":4361,"Ġago":4362,"Ġpick":4363,"ĠJohn":4364,"101":4365,"-sm":4366,"edException":4367,"emove":4368,"Ġwent":4369,"verage":4370,"AAB":4371,"564":4372,"ĠĠĠĠĠĠĠĠĊ":4373,"Ġupd":4374,"Ġë":4375,"BED":4376,"Ġearly":4377,"otion":4378,"175":4379,"atabase":4380,"<TABLE":4381,"ĠVm":4382,"ĠAb":4383,"ĠWeb":4384,"lose":4385,"icit":4386,"947":4387,"Ġwhite":4388,"ĉp":4389,"Ġwor":4390,"Ġminutes":4391,"rapper":4392,"Ġage":4393,"Ġgrad":4394,"))->___":4395,"Ġyoung":4396,"Ġstrong":4397,"Ġdeal":4398,"ĉObject":4399,"437":4400,"_by":4401,"-top":4402,"block":4403,"Page":4404,"PA":4405,"Ġeither":4406,"leg":4407,"871":4408,".Util":4409,"-v":4410,"309":4411,"variable":4412,"Ġchanges":4413,"Ġdeb":4414,"ÛĮ":4415,"ĠPar":4416,"Ġ[],":4417,"ĉRuntimeType":4418,"atter":4419,"DCF":4420,"Ġdetails":4421,"264":4422,"ĠEmpty":4423,"lt":4424,"ä¸º":4425,"ners":4426,"Ġselected":4427,"white":4428,"Ġseen":4429,"IO":4430,"py":4431,"âĶĢâĶĢâĶĢâĶĢâĶĢâĶĢâĶĢâĶĢ":4432,"PE":4433,"_op":4434,"Ġcolumn":4435,"export":4436,"Ġcreated":4437,"Process":4438,"Reference":4439,"Ġsimple":4440,"EEA":4441,"Sizes":4442,"Click":4443,"461":4444,"Ġknown":4445,"Ġenergy":4446,")__":4447,"Ġdescription":4448,"430":4449,"Ġwhole":4450,"ssue":4451,"æĹ¶":4452,"Ġvi":4453,"else":4454,"801":4455,"map":4456,"-bottom":4457,"Ġbr":4458,"Parameter":4459,"da":4460,"_result":4461,"855":4462,"Ġcarries":4463,"amb":4464,"Ġenvironment":4465,"CCD":4466,"Record":4467,"Ġphot":4468,"Ġstudy":4469,"050":4470,"972":4471,"Subsystem":4472,"su":4473,"Change":4474,"Ġdistr":4475,"Ġforward":4476,"_V":4477,"ĉVector":4478,"CEA":4479,"Ġfeatures":4480,"027":4481,"ĠFl":4482,"_Invoke":4483,"Ġannounc":4484,"iles":4485,"-brace":4486,"oration":4487,"Ġmut":4488,"ĠEng":4489,"change":4490,"Ġ\"#":4491,"Ġeconom":4492,"731":4493,"Ġmonths":4494,"Ġmaint":4495,"DAD":4496,"271":4497,"ĠAfter":4498,"Ġautom":4499,"Level":4500,"sing":4501,"Ph":4502,"Ġcomputer":4503,"/I":4504,"Ġusers":4505,"Ġrelation":4506,"Ġbeaut":4507,"egin":4508,".re":4509,"=s":4510,"dn":4511,"irect":4512,"istration":4513,"Ġextra":4514,"andom":4515,"addonStore":4516,".me":4517,"Ġopt":4518,"ĠSec":4519,"Track":4520,"Ġwait":4521,"Ġpresented":4522,"857":4523,"ilities":4524,"Ġseries":4525,"113":4526,"Ġhuman":4527,"043":4528,"True":4529,"Ġsoftware":4530,".G":4531,"Ġrole":4532,"Ġexactly":4533,"ums":4534,"Ġvia":4535,"045":4536,"_N":4537,"102":4538,"Ġrunning":4539,"ĠIntern":4540,"mm":4541,"ĠHowever":4542,"904":4543,"Ġparticip":4544,"structor":4545,"(),Ċ":4546,"à¯į":4547,"CDA":4548,"Ġcontract":4549,"Ġfive":4550,"179":4551,"-sh":4552,"Ġ\",Ċ":4553,"ĠBox":4554,"Account":4555,"ĨĴ":4556,"Ġprovided":4557,"Ġ[Ċ":4558,"ĠYork":4559,"/C":4560,"oon":4561,"æľī":4562,"agazines":4563,"ĠÐ½":4564,"012":4565,"ĉC":4566,"GenericClass":4567,"Ø§ÙĦ":4568,"Ġpurch":4569,"Ġrather":4570,"Ġexpert":4571,"Ġclient":4572,"Ġ((!(((":4573,"fol":4574,"125":4575,".Utilities":4576,"Ġchall":4577,"828":4578,"iation":4579,"285":4580,"AAA":4581,"section":4582,"Ġblack":4583,"ĠĠĠĠĠĠĠĠĠĠĠĠĠĠĠĠĠĠĠĠĠ":4584,"026":4585,".con":4586,"<TD":4587,"Ġeverything":4588,".Runtime":4589,"Ġphys":4590,"Ġcharacters":4591,"ees":4592,"rl":4593,"maz":4594,"ided":4595,"])":4596,"çĽ":4597,"832":4598,"Ġtax":4599,"Ġrespons":4600,"#include":4601,"(String":4602,"Reader":4603,"ysis":4604,"028":4605,"hecked":4606,"TypeDefinition":4607,"369":4608,"ĠVirtualFuncInvoker":4609,"inding":4610,"pag":4611,"ĠPer":4612,"elling":4613,"ocol":4614,"inner":4615,"952":4616,"rant":4617,"}<|":4618,"Ġess":4619,"Ġtraining":4620,"Ġwords":4621,"Ġpret":4622,"Ġnews":4623,"(new":4624,"child":4625,"876":4626,"130":4627,".id":4628,"Ġ\"&":4629,"wise":4630,"}{":4631,"Ġinf":4632,"oice":4633,"Ġheart":4634,":ĊĊ":4635,"TaskAwaiter":4636,"_InternalArray":4637,"ĠMin":4638,"Øª":4639,"Ġfriend":4640,"ä¸į":4641,"ÑĮ":4642,"Ġmedia":4643,"sub":4644,"Ġevidence":4645,"Ġdue":4646,"Ġstay":4647,"urope":4648,"Ġapplication":4649,"117":4650,"888":4651,"orage":4652,"itten":4653,"374":4654,"Animation":4655,"/<":4656,"Ġhistory":4657,"({":4658,"ocs":4659,"ĉĠĠĠ":4660,"Ġru":4661,"lim":4662,"InvalidOperation":4663,"SO":4664,"ĠReport":4665,"na":4666,"ober":4667,".sp":4668,"-offset":4669,"412":4670,"Ġindustry":4671,"rum":4672,"EN":4673,"IR":4674,"_Length":4675,".Dictionary":4676,"Ġdiscuss":4677,"Ġfig":4678,"819":4679,"Ġapproach":4680,"CppTypeDefinition":4681,"CppTypeDefinitionSizes":4682,"Ġfront":4683,"Control":4684,"Line":4685,"_typeDefinition":4686,"_this":4687,"_typeDefinitionSize":4688,"639":4689,"019":4690,"inate":4691,"ValueTuple":4692,"156":4693,"Ġsomeone":4694,"ĠUnited":4695,"option":4696,"_com":4697,"Let":4698,"page":4699,"YourSinclair":4700,"Tree":4701,"ç¨":4702,"140":4703,"æĿ":4704,"CFF":4705,"Machine":4706,"arr":4707,"Dispose":4708,"Ġtypes":4709,"194":4710,"](":4711,"ä¼":4712,"iting":4713,"313":4714,"ana":4715,"408":4716,"240":4717,"265":4718,"ĉList":4719,"ancial":4720,"ĠSynthetic":4721,"Ġentire":4722,"éĹ":4723,"Ġground":4724,"Ġworks":4725,"104":4726,"Enc":4727,"Ġweight":4728,"ĠTr":4729,"rep":4730,"ignment":4731,"164":4732,"Port":4733,"-content":4734,"424":4735,"uce":4736,"**)(&__":4737,"Ġissues":4738,"Ġevents":4739,"Create":4740,"Ġtold":4741,"011":4742,"263":4743,"Ġsuggest":4744,"Ġplease":4745,"ĠReturn":4746,"Ġcalcul":4747,"Fl":4748,"office":4749,"Ġtw":4750,"Ġgr":4751,"785":4752,"163":4753,"ĠId":4754,"Ġwrite":4755,"Ġflo":4756,"Ġadded":4757,"(this":4758,"938":4759,"pu":4760,"criptor":4761,"Ġflow":4762,"490":4763,"Ġlayer":4764,"ÙĬ":4765,"ceed":4766,"Impl":4767,"aily":4768,"Ġamong":4769,"do":4770,"229":4771,"Ġengine":4772,"909":4773,"Ġtransp":4774,"think":4775,"*>(__":4776,".y":4777,"sec":4778,"Ġbad":4779,"pecially":4780,"kit":4781,"ua":4782,"_subtract":4783,"ĠSIZE":4784,"though":4785,"111":4786,"421":4787,"Ġlower":4788,"ipe":4789,"Ġexpected":4790,"Ġinstead":4791,"AME":4792,"Ġperiod":4793,"942":4794,"Ġpur":4795,"998":4796,"-width":4797,"ĠFunc":4798,"745":4799,"cond":4800,"<tr":4801,"Ġnumbers":4802,"ertific":4803,".List":4804,"Ġgeneral":4805,"_comp":4806,"992":4807,"åĮ":4808,"190":4809,"Ġfriends":4810,"ĠĠĊ":4811,"253":4812,"Ġdistractor":4813,"But":4814,"Ġcred":4815,"EBB":4816,"ias":4817,"Device":4818,"Ð¼":4819,"084":4820,"Ġtaking":4821,"193":4822,"EFA":4823,"amera":4824,"ĠSH":4825,"303":4826,"_AR":4827,"ĠPS":4828,"sm":4829,"indows":4830,"Reset":4831,"iant":4832,"900":4833,"Ġissue":4834,"API":4835,"Ġ(*":4836,"181":4837,"ĠcontrolTypes":4838,"æĢ":4839,"Ġinfl":4840,"127":4841,"ĠDef":4842,"FFC":4843,".json":4844,"DisplayClass":4845,"Ġbre":4846,"DBF":4847,"Ġdest":4848,"841":4849,"elves":4850,"tempt":4851,"ao":4852,"Ġtaken":4853,"unused":4854,"ĠNow":4855,"ĠQu":4856,"434":4857,"184":4858,"183":4859,"pected":4860,"068":4861,"428":4862,"TX":4863,"{čĊ":4864,"ET":4865,"/Pages":4866,"show":4867,"One":4868,"945":4869,"(x":4870,".pl":4871,"FFFFFF":4872,"vis":4873,"CBB":4874,"Ġdescri":4875,"hem":4876,"030":4877,"agent":4878,"Ġcompanies":4879,"local":4880,"Ġanything":4881,"Filter":4882,"908":4883,"================================":4884,"ĠWest":4885,"Ġrepresent":4886,"Ġquestions":4887,"119":4888,"Link":4889,"Ġapply":4890,"Ġspeech":4891,"$$":4892,"SortHelper":4893,"Ġaddition":4894,"EFC":4895,"528":4896,"ilit":4897,"ĉFunc":4898,"Services":4899,"ĠFran":4900,"nav":4901,"hel":4902,"lib":4903,"Ġperformance":4904,".Workflow":4905,"open":4906,"ĉDictionary":4907,"/Issue":4908,"#define":4909,"ĠMon":4910,"761":4911,"_to":4912,"Ġfurther":4913,"_pinvoke":4914,"Ġincludes":4915,"Ġsimilar":4916,"-variable":4917,"rams":4918,"ç¨ĭ":4919,"etails":4920,".pro":4921,"420":4922,"Ġcard":4923,"Ġsepar":4924,"izing":4925,"Ġwar":4926,"118":4927,"ĠWorld":4928,"348":4929,"Ġ...":4930,"606":4931,"éĩ":4932,"abs":4933,"083":4934,"Ġnecess":4935,"Ġunique":4936,"Ġloss":4937,"tmp":4938,"257":4939,"Ġcomplet":4940,"ĠPol":4941,"AsyncTaskMethodBuilder":4942,"ledge":4943,"role":4944,"Ġapplic":4945,"!!":4946,".uk":4947,"Ġdouble":4948,"try":4949,"Ġreplac":4950,"look":4951,"Ġbrief":4952,"-x":4953,".name":4954,"ĠĠĠĠĠĠĠĠĠĠĠĠĠĠĠĠĠĠĠĠĠĠĠĠĠĠĠĠĠĠĠĠĠĠĠ":4955,"817":4956,"Ġbuilding":4957,"Ġfoot":4958,"host":4959,"orp":4960,"ECB":4961,".java":4962,"ĠGener":4963,"Ġaccept":4964,"dt":4965,"status":4966,"acebook":4967,"106":4968,"Ġ-->Ċ":4969,"ĠâĨĴ":4970,"Wunused":4971,"-offsetof":4972,"Winvalid":4973,"alle":4974,"Listener":4975,"Ø¯":4976,"itting":4977,"ĠCity":4978,"OS":4979,"TIVE":4980,"Ġsolid":4981,"gram":4982,"Ġpattern":4983,"_To":4984,"Ġrad":4985,"Ġtrying":4986,"\"]</":4987,".co":4988,"Ġneg":4989,"Authentication":4990,"Ġmultiple":4991,"PS":4992,"Ġassoci":4993,"Ġclaim":4994,"args":4995,"Ġpotential":4996,"Ġhope":4997,"ama":4998,"Ġblog":4999,"Ð°Ð½":5000,"ABB":5001,"172":5002,"ĠData":5003,"apter":5004,"-radius":5005,"BJ":5006,"Ġwriting":5007,"ĠOur":5008,"mut":5009,"Ġfire":5010,"ival":5011,"DBB":5012,"ĉPlayFabRequestEvent":5013,"æİ":5014,"Description":5015,"btn":5016,"hic":5017,".J":5018,"rypt":5019,"ores":5020,".Edit":5021,"eline":5022,"ĠDep":5023,"aa":5024,"016":5025,"xy":5026,"gre":5027,"Ġdoc":5028,"BAE":5029,"allback":5030,"ĠForm":5031,"ulie":5032,"Enum":5033,"åı¯":5034,"Ġrequested":5035,"DDA":5036,"Ġwatch":5037,"ĠTest":5038,"_LOG":5039,"Ġsex":5040,"630":5041,"len":5042,"Ġexc":5043,"now":5044,"Descriptor":5045,"patch":5046,"run":5047,"/java":5048,"ym":5049,"That":5050,"isualElement":5051,"_tEA":5052,"views":5053,"ficult":5054,"Ġquite":5055,"onder":5056,"Ġmor":5057,"anged":5058,"Ð¾Ð²":5059,"Ġlen":5060,"<div":5061,"eal":5062,"times":5063,"010":5064,"ĉR":5065,".jackson":5066,"Ġgir":5067,"ĠNative":5068,"795":5069,"_IEnumerator":5070,"atform":5071,"Ġpolit":5072,"616":5073,"Ġbelieve":5074,"InvalidOperationException":5075,".fasterxml":5076,"Ġtechnology":5077,"SupportedException":5078,"-right":5079,"875":5080,"BCE":5081,"698":5082,"Ġvarious":5083,"ĠBACK":5084,"æ³":5085,"Ġasked":5086,"ĠGu":5087,"Ġrg":5088,"666":5089,"odal":5090,"Ġhandle":5091,"folio":5092,"Ġinteg":5093,"aves":5094,"609":5095,"NC":5096,"ĉĉĉĉĉĉ":5097,"AAC":5098,"Ġrate":5099,")))(":5100,"Ġnormal":5101,"blems":5102,"Ġlocation":5103,"Ġinside":5104,"gress":5105,"Ġdetermin":5106,"371":5107,"leep":5108,"Ġidea":5109,"Ġdevice":5110,"db":5111,"oves":5112,"874":5113,"Ġplayer":5114,"redicate":5115,"ĠUser":5116,"ĠSm":5117,"ifier":5118,"ynamic":5119,"ĥ½":5120,"**)":5121,"Ġstop":5122,"ĠVector":5123,"014":5124,"Ġpict":5125,"ving":5126,"/pub":5127,"Ġeng":5128,"173":5129,"pressions":5130,"acing":5131,"Ġpred":5132,"_con":5133,"anger":5134,"TL":5135,"EL":5136,"160":5137,"135":5138,"Ġsignific":5139,">>":5140,"aven":5141,"KEY":5142,"ECK":5143,"endar":5144,"320":5145,"ensive":5146,"Ð¿":5147,"Ġarticle":5148,"Version":5149,"oring":5150,"ĠCOL":5151,"urance":5152,"Ġlines":5153,"GROUND":5154,"aur":5155,"561":5156,"553":5157,"Ġinterface":5158,"opt":5159,"644":5160,"552":5161,"ADB":5162,"arter":5163,"ĠĠĠĠĠĠĠĠĠĠ":5164,"lied":5165,"DBE":5166,"è¡Į":5167,"Ġlikely":5168,"Ġsix":5169,"_sc":5170,"820":5171,"015":5172,"xt":5173,"217":5174,"Ġsave":5175,"Search":5176,"}čĊčĊ":5177,"Ġthird":5178,"/**Ċ":5179,"osit":5180,"rodu":5181,"/sinclair":5182,"æŃ":5183,"nsafe":5184,"},Ċ":5185,"anks":5186,"359":5187,"Ġalmost":5188,"ĉPlayFabResultEvent":5189,"Ġactive":5190,"Ġetc":5191,"////////":5192,"Ġshows":5193,"Ops":5194,"Header":5195,"alls":5196,"Ġ%(":5197,"939":5198,"\"/":5199,"203":5200,"905":5201,"Ġcustomers":5202,"Ġroot":5203,"168":5204,"Layout":5205,"Ġinitial":5206,"ĉĊ":5207,"890":5208,"107":5209,"025":5210,"length":5211,"ĠSouth":5212,"_path":5213,"154":5214,"Ġmanagement":5215,"ament":5216,"yl":5217,"Frame":5218,"178":5219,"137":5220,"incip":5221,".A":5222,"ĠDr":5223,"åį":5224,"SPAN":5225,"Ġsection":5226,"Ġfavor":5227,"DDF":5228,"ĠBACKGROUND":5229,"ĠAction":5230,"072":5231,"_thisAdjusted":5232,"Ġserver":5233,"igned":5234,"Ġnum":5235,"Ġ-->":5236,"Ġtravel":5237,"Slice":5238,"566":5239,"Ġmix":5240,"225":5241,"Ġisn":5242,"icense":5243,"CDF":5244,"alling":5245,"Ã§":5246,"596":5247,"661":5248,"Ġstrategy":5249,"Ġtouch":5250,"eek":5251,"Ġcoll":5252,"Ġpages":5253,"ĠPart":5254,"...Ċ":5255,"ä»¥":5256,"386":5257,"ĠAct":5258,"673":5259,"Ġobj":5260,"std":5261,"_Full":5262,"Ġprovides":5263,"example":5264,"475":5265,"334":5266,"Ġsymbol":5267,"hand":5268,"My":5269,"Ġsimply":5270,".meulie":5271,"ECE":5272,"Ġev":5273,".create":5274,".Users":5275,"EFB":5276,"444":5277,"Ġoffers":5278,"Ġincrease":5279,"174":5280,"-md":5281,"124":5282,"580":5283,"159":5284,"DBA":5285,"Ġconcern":5286,"Ġbgcolor":5287,"885":5288,"yellow":5289,"Ġreading":5290,"378":5291,"085":5292,"Ġclick":5293,"581":5294,"171":5295,"Any":5296,"Ġdownload":5297,"_CH":5298,"136":5299,"Ġcurrently":5300,"ĠMe":5301,"ĠMan":5302,"header":5303,"Ġtakes":5304,"Ġframe":5305,"like":5306,"root":5307,"162":5308,"update":5309,"Ġque":5310,"Ġgre":5311,"/A":5312,"186":5313,"Ġeffort":5314,"FCF":5315,"778":5316,"airs":5317,"ĉArray":5318,"_AC":5319,"inst":5320,"Ġnothing":5321,"ief":5322,"Ġelements":5323,"132":5324,"ĠHigh":5325,"=R":5326,"Ġreported":5327,"alled":5328,"676":5329,"Ġmenu":5330,"å½":5331,")</":5332,"AED":5333,"impl":5334,"_GetType":5335,"ĠCOLSPAN":5336,"Ġespecially":5337,"Ġep":5338,"ming":5339,"Ġdifficult":5340,"/YourSinclair":5341,"825":5342,"_file":5343,".Ex":5344,"ãĢģ":5345,"Ġnatural":5346,"spe":5347,"Ġeveryone":5348,"****************************************************************":5349,"053":5350,"Ġchoose":5351,"spect":5352,"Ġlonger":5353,"-group":5354,"Ġsteps":5355,"Mapp":5356,"ÐµÐ¼":5357,"raints":5358,"vision":5359,"\\\":":5360,"654":5361,"co":5362,"æĮ":5363,"ĠWill":5364,"Ġprobably":5365,"workspace":5366,"518":5367,"cr":5368,"022":5369,"Ġbehind":5370,"Title":5371,"_k":5372,"_def":5373,"510":5374,"Ġshown":5375,"sy":5376,"instance":5377,"eration":5378,"532":5379,"amily":5380,"Ġways":5381,"MS":5382,"ĠEurope":5383,"Ġmap":5384,"/g":5385,"Factory":5386,"witter":5387,"iful":5388,"ĠUse":5389,"247":5390,"\".":5391,"è¦":5392,"Ġattempt":5393,"ournal":5394,"**:":5395,"607":5396,"ĠLet":5397,"Ġblo":5398,"Ġoutside":5399,"?:":5400,"Ġfail":5401,"ECC":5402,"Do":5403,"211":5404,"455":5405,"ĠNorth":5406,"}\\":5407,"Offset":5408,"Ġsubject":5409,"Ġexperi":5410,"íķ":5411,"Ġadditional":5412,"503":5413,"752":5414,"640":5415,"CEF":5416,"744":5417,"228":5418,"(index":5419,"formed":5420,"pub":5421,"SCRI":5422,"Ġstre":5423,"Unc":5424,"ĠStates":5425,"Ġspeak":5426,"991":5427,"Ġphone":5428,"971":5429,"Ġadmin":5430,"Ġrecogn":5431,"Ġ(&":5432,"CBD":5433,"AddressAt":5434,"ĠGe":5435,"Ġ\"{":5436,"336":5437,"182":5438,"AS":5439,"vention":5440,"866":5441,"base":5442,"-up":5443,"364":5444,"arry":5445,"039":5446,"Output":5447,"049":5448,"-to":5449,"ernel":5450,"ĠEmptyInternalEnumerator":5451,"style":5452,"lier":5453,"IP":5454,"Ġcirc":5455,"ername":5456,"etch":5457,"Ġareas":5458,"æį":5459,"-C":5460,"311":5461,"known":5462,"741":5463,"width":5464,"EEED":5465,"017":5466,"ĠSchool":5467,"816":5468,"108":5469,"//!":5470,"Ġtransform":5471,"å¯¹":5472,"Utils":5473,"CEE":5474,"ÑģÑĤ":5475,"Ġach":5476,"quired":5477,"RAY":5478,"last":5479,"CBF":5480,"Ġalt":5481,"189":5482,"request":5483,"_Obj":5484,"Ġensure":5485,"ĠPres":5486,"Ġannounced":5487,"java":5488,"Valid":5489,"Ġ},ĊĊ":5490,"ounds":5491,"Ã£":5492,"239":5493,"ili":5494,"633":5495,"ownload":5496,"Gui":5497,"449":5498,"ĠĊĊ":5499,"apache":5500,"ĉvoid":5501,".rs":5502,"iece":5503,"null":5504,"Ġdefinition":5505,"ĠJan":5506,"658":5507,"illed":5508,"Ġther":5509,"ĠMc":5510,"141":5511,"\">@":5512,"Ġproblems":5513,"reme":5514,"133":5515,"osed":5516,"<!--":5517,".Workflows":5518,"143":5519,"ocation":5520,"æŀ":5521,"Ġap":5522,"901":5523,"Ġdam":5524,"CPU":5525,"176":5526,"level":5527,"021":5528,"Ġcoming":5529,"-dump":5530,"rab":5531,"Tables":5532,"Ġ*/,":5533,"with":5534,"Ġcook":5535,"åĴ":5536,"_tool":5537,"ADE":5538,"Ġenumer":5539,"Ġhowever":5540,"ety":5541,"ensions":5542,"Url":5543,"Ġabsol":5544,"project":5545,"273":5546,"258":5547,"FEB":5548,"Ġmatter":5549,"åĴĮ":5550,"ĠNational":5551,"_list":5552,"pack":5553,"365":5554,"ĠHis":5555,"irection":5556,"969":5557,"381":5558,"631":5559,"Ġsignificant":5560,"Ġperform":5561,"Ġpretty":5562,"360":5563,"Ġnsl":5564,"elt":5565,"Ġpopular":5566,"Ġwanted":5567,"Ġdark":5568,"Ġfilm":5569,"Ġconsole":5570,"uses":5571,"ables":5572,"/magazines":5573,"/jackson":5574,"nov":5575,"istry":5576,"_MoveNext":5577,"Ġfa":5578,"548":5579,"Ð°ÑĤ":5580,"/jaxrs":5581,"Ġfast":5582,"Ġsend":5583,"/fasterxml":5584,"ube":5585,"aging":5586,"Ġcomment":5587,"121":5588,"field":5589,"237":5590,"Ġsecurity":5591,"707":5592,"191":5593,"ĠEvent":5594,"Ġarch":5595,"(T":5596,"188":5597,"lyph":5598,".aspx":5599,"218":5600,"Ġcases":5601,"ka":5602,"Subsystems":5603,"Match":5604,"ADA":5605,"920":5606,"Asset":5607,"Ġcontains":5608,"_button":5609,"cho":5610,";čĊčĊ":5611,"Ġmember":5612,"first":5613,"<\\/":5614,"ECA":5615,"453":5616,"ÐµÑĢ":5617,"Ġsoon":5618,"ĠRep":5619,"786":5620,"gency":5621,"691":5622,"219":5623,"SCRIPT":5624,"amples":5625,"ze":5626,"ĠBig":5627,"758":5628,"280":5629,"-lg":5630,"848":5631,"rest":5632,".ARSubsystems":5633,"185":5634,"587":5635,"AFE":5636,"PR":5637,"ĠWord":5638,"Shared":5639,"]);Ċ":5640,"oder":5641,"ufact":5642,"Ã¤":5643,"assert":5644,"atur":5645,"Ġaccording":5646,"ravel":5647,"udget":5648,"Unchecked":5649,"958":5650,"(i":5651,"042":5652,"Cast":5653,"Ġcross":5654,"325":5655,"_is":5656,"146":5657,"350":5658,"}\"Ċ":5659,"Ġitself":5660,"Ġoffice":5661,"CBC":5662,"event":5663,"771":5664,"Ġofficial":5665,"269":5666,"ĠWork":5667,"Ġyourself":5668,"<NAME":5669,"ica":5670,"844":5671,"ĠNov":5672,"Order":5673,"337":5674,"405":5675,"144":5676,"ĠCheck":5677,"078":5678,"Ġq":5679,"-item":5680,"393":5681,"Ġbottom":5682,"AsyncU":5683,"NS":5684,"040":5685,"uate":5686,"Ġhor":5687,"ĠbrowseMode":5688,"651":5689,"Ġprofessional":5690,"Ã£o":5691,"Ġpaper":5692,"Ġvariable":5693,"Ġprior":5694,"ERS":5695,"238":5696,"Ġprogress":5697,"wrap":5698,"Ġserv":5699,"ca":5700,"Ġweeks":5701,"aries":5702,"olid":5703,"ĠRed":5704,"Options":5705,"pm":5706,"BEB":5707,"ĠStud":5708,"Ġandroid":5709,"231":5710,"Ġimpact":5711,"/articles":5712,"259":5713,"Ġformatting":5714,"inder":5715,"ĠMore":5716,"DBC":5717,"ooks":5718,"_state":5719,"Ġmoment":5720,"980":5721,"Ġà¤":5722,"Ġliving":5723,"419":5724,"Ġreceived":5725,"810":5726,"837":5727,"Ġfinancial":5728,"Ġfit":5729,"324":5730,"441":5731,"878":5732,".Fields":5733,"074":5734,"=-":5735,"GET":5736,"screen":5737,"722":5738,"Ut":5739,"Ġstaff":5740,"555":5741,"astic":5742,"Container":5743,"Ġchoice":5744,"ĠAf":5745,"Ġtransl":5746,"Parser":5747,"802":5748,"roy":5749,"Sec":5750,"Ġactual":5751,"Ġfiles":5752,"167":5753,"andid":5754,"abor":5755,"EEF":5756,"Ġcrit":5757,"730":5758,"json":5759,"ĠAmerica":5760,"ĠÐº":5761,"380":5762,"Ġdog":5763,"504":5764,"Ġconnection":5765,"Ġkeyboard":5766,"ĠPe":5767,"321":5768,"=sf":5769,"Ġsil":5770,"ertificate":5771,"950":5772,"sk":5773,"atrix":5774,"MENT":5775,"eft":5776,"204":5777,"WhereSelect":5778,"CppF":5779,"220":5780,"FFD":5781,"541":5782,"Ã³n":5783,"788":5784,"591":5785,"Ġbuilt":5786,"Trans":5787,"660":5788,"966":5789,"529":5790,"ĉintptr":5791,"Su":5792,"ependent":5793,"GetAt":5794,"ĠØ§ÙĦ":5795,"ĠNativeArray":5796,"ĠID":5797,"Ġtools":5798,".append":5799,"Ġregard":5800,"ArgumentException":5801,"QL":5802,"rins":5803,"ĠDon":5804,"Ġhigher":5805,"Ġbed":5806,"Ġchart":5807,"-us":5808,"450":5809,"ĠColor":5810,"types":5811,"ĠÐ´":5812,"BFB":5813,"277":5814,"563":5815,"Ġbal":5816,"-based":5817,"527":5818,"Ġplayers":5819,"Ġow":5820,"Ġurl":5821,".\\":5822,"selector":5823,"è¦ģ":5824,"278":5825,"_axi":5826,"Ġcause":5827,"ĠAP":5828,"Ġfilter":5829,"ĠJust":5830,"gy":5831,"iven":5832,"Ġready":5833,"NullException":5834,"display":5835,"ACING":5836,"CABD":5837,"ByteU":5838,"Ð¾ÑĢ":5839,"368":5840,"342":5841,"è¾":5842,"qual":5843,"`Ċ":5844,"node":5845,"251":5846,"554":5847,"Ġwritten":5848,"ĠSim":5849,"Ġquery":5850,"ORDS":5851,"Ġestab":5852,"ny":5853,"Ġfill":5854,"Ġsuff":5855,"oph":5856,"Ġreturns":5857,"305":5858,"Ġstandard":5859,"oe":5860,"514":5861,"Ġoil":5862,"_Equals":5863,"286":5864,"player":5865,"Ġcomplex":5866,"reated":5867,"/agent":5868,"376":5869,"Ġentry":5870,"eter":5871,"shot":5872,"089":5873,"She":5874,"Length":5875,"Load":5876,"Ġopp":5877,"_x":5878,"170":5879,"Mon":5880,"578":5881,"APE":5882,"Ġmass":5883,"SPACING":5884,"ĠCELLSPACING":5885,"Values":5886,"_item":5887,"Ġroad":5888,"Ġhon":5889,"SetAt":5890,"ĠChar":5891,"861":5892,"794":5893,"742":5894,"456":5895,"_no":5896,"umns":5897,"Ġproduction":5898,"Ġregister":5899,"Ġcustomer":5900,"Ġallows":5901,"Ġrgba":5902,"idx":5903,"Ġrecent":5904,".Enumerable":5905,"480":5906,"æĶ":5907,"uredTaskAwaiter":5908,"Ġgrade":5909,"EED":5910,"ABA":5911,"orch":5912,"ha":5913,"ĠCenter":5914,"Vector":5915,"Ġgen":5916,"net":5917,"Ġunits":5918,"ithub":5919,"notation":5920,"177":5921,"ĠInc":5922,"atal":5923,"icated":5924,"DBD":5925,"Ġdeath":5926,"ä¿":5927,"FBF":5928,"ios":5929,"Max":5930,"holder":5931,"ĠFrom":5932,".jaxrs":5933,"fn":5934,"irth":5935,"683":5936,"strong":5937,"ä¸Ģä¸ª":5938,"Ļ¨":5939,"166":5940,"Ġptx":5941,"432":5942,"ership":5943,"wosfiles":5944,"205":5945,"ctors":5946,"ĠAm":5947,"726":5948,"Ġrefer":5949,"/w":5950,"Ġ\"<":5951,"ĠPark":5952,"349":5953,"RetVal":5954,"group":5955,"Ġdirectly":5956,"react":5957,"Completed":5958,"Ġpolicy":5959,"ĠbrailleTables":5960,"_string":5961,"Ġgrowth":5962,"\"/>Ċ":5963,"BCA":5964,"::_":5965,"377":5966,"131":5967,"____":5968,"Ġjustify":5969,"756":5970,"Rep":5971,"_Throw":5972,"åĻ¨":5973,"etable":5974,".comp":5975,"Ġregular":5976,"\">čĊ":5977,"_workspace":5978,"iqu":5979,"983":5980,"ĠRuntimeClass":5981,"254":5982,"Case":5983,"AREA":5984,"],Ċ":5985,"ename":5986,"ĠNAME":5987,"521":5988,"Ġsong":5989,"902":5990,"Unit":5991,"uel":5992,"_Text":5993,"290":5994,"Ġparty":5995,"Override":5996,"ĠStreet":5997,"406":5998,"_CHECK":5999,"667":6000,"697":6001,"Ġleave":6002,"467":6003,"Min":6004,"Ġ(.":6005,"Entity":6006,"ography":6007,"çİ":6008,"Ġavoid":6009,"({Ċ":6010,"Ġstatement":6011,"212":6012,"aste":6013,"576":6014,"024":6015,"layout":6016,"Ġboo":6017,"ario":6018,"445":6019,"299":6020,"Ġpers":6021,"ĠSHAPE":6022,"Ġcollection":6023,"458":6024,"ifies":6025,")))->___":6026,"loyment":6027,"Cal":6028,"516":6029,"_GenericClass":6030,"à¯įà®":6031,"php":6032,"926":6033,"Ġprofile":6034,"284":6035,"Ġdesigned":6036,"ĠMessage":6037,"ĠCOORDS":6038,"pagetable":6039,"=RECT":6040,"inger":6041,"ĠAcc":6042,"<AREA":6043,"ropdown":6044,"Found":6045,"ĠOct":6046,"elcome":6047,"Ġcollect":6048,"Ġrights":6049,"Ab":6050,"Ġstra":6051,"122":6052,"BAC":6053,"_ARRAY":6054,"486":6055,"ille":6056,"605":6057,"469":6058,"Server":6059,"ÑĨ":6060,"Ġ{}":6061,"DEF":6062,"158":6063,"\"],":6064,"568":6065,"Ġterms":6066,"436":6067,"Ġlearning":6068,".x":6069,"352":6070,"?f":6071,"145":6072,"åŃĺ":6073,"bor":6074,"ura":6075,"-center":6076,"Ġsatisfaction":6077,"ij":6078,"710":6079,"uge":6080,"ROM":6081,"Ġseems":6082,"Mark":6083,"ĠOver":6084,"EEE":6085,"&M":6086,"TP":6087,"Serial":6088,"-align":6089,"_test":6090,"DEB":6091,"aved":6092,"asc":6093,"268":6094,"705":6095,"range":6096,"267":6097,"ĉNULL":6098,"embly":6099,"063":6100,"enced":6101,"Ġsched":6102,"ades":6103,"ĠLog":6104,"535":6105,"-year":6106,"ese":6107,"831":6108,"Ġsystems":6109,"906":6110,"260":6111,"Ġheld":6112,"arant":6113,"094":6114,"atory":6115,"Ġlevels":6116,"275":6117,"Ġprep":6118,"Ġdistrib":6119,"Ġusually":6120,"727":6121,"FCE":6122,"272":6123,"den":6124,"FCD":6125,"ycle":6126,"dis":6127,"Ġeducation":6128,"851":6129,"Ġreceive":6130,"ĠIdent":6131,"Ġmodels":6132,"AAF":6133,"Ġdriv":6134,"Ġstudent":6135,"Ġmot":6136,"BBB":6137,"*/":6138,"Ġeval":6139,"itude":6140,"930":6141,"Ġplaying":6142,"Ġmess":6143,"ĠAre":6144,"gn":6145,".Task":6146,"ĠCreate":6147,"CS":6148,"FCB":6149,"647":6150,"929":6151,"208":6152,"Modules":6153,"Ġtemp":6154,"elebr":6155,".microsoft":6156,"020":6157,"_Set":6158,"Ġboard":6159,"gt":6160,"\\_":6161,"Ġworth":6162,"document":6163,"CPUOps":6164,"216":6165,";\\":6166,"ĠIN":6167,"ĠHome":6168,"ĉRuntimeTypeHandle":6169,"936":6170,"BBE":6171,"Ġaverage":6172,".md":6173,"ris":6174,"ĠBar":6175,"ĉĉĊ":6176,"814":6177,"Ġreach":6178,"lients":6179,".Vector":6180,"FromHandle":6181,"Ġfinally":6182,"ugin":6183,"224":6184,"724":6185,"213":6186,"Ġhit":6187,"ĠDay":6188,"_Dispose":6189,"Connection":6190,"Ġspeed":6191,"Texture":6192,"Ġknowledge":6193,"<intptr":6194,"Ġbrand":6195,"Ġarticles":6196,"/t":6197,"Ġdeliver":6198,"Ġ{@":6199,"222":6200,"Ġscale":6201,"icient":6202,"Ġtreatment":6203,"ðŁ":6204,"CN":6205,"Ġsignal":6206,"ĠGroup":6207,"Ġremove":6208,"ĠTrue":6209,"Player":6210,"Ġexerc":6211,"Ġsal":6212,"Ġselection":6213,"**ĊĊ":6214,"Ġsense":6215,"Ġsqu":6216,"Ġupon":6217,"ĠTech":6218,"ĉF":6219,"DFA":6220,"/Enumerator":6221,"573":6222,"{{":6223,"ACC":6224,"915":6225,"AuthenticationContext":6226,"720":6227,"ĠAug":6228,"ä»¶":6229,"Ġattack":6230,"åĪ°":6231,"747":6232,"242":6233,"ĠJSON":6234,"erate":6235,"raphics":6236,"strument":6237,"Pol":6238,"ĠFirst":6239,"ĠCent":6240,"599":6241,"Ġconditions":6242,".Style":6243,"898":6244,"Ġparts":6245,"/library":6246,"_GetTypeFromHandle":6247,"Ġwonder":6248,"353":6249,"Ġ\"\"\"Ċ":6250,"ArgumentNullException":6251,"hover":6252,"itation":6253,"ĠHere":6254,"fa":6255,"tt":6256,"812":6257,"gment":6258,"517":6259,"804":6260,"ueue":6261,"487":6262,"798":6263,"å¾":6264,"148":6265,"Ġsales":6266,"template":6267,"547":6268,"Ġmso":6269,"AutoShapeTypes":6270,"ĠmsoAutoShapeTypes":6271,"Steam":6272,"501":6273,"Command":6274,"hib":6275,"685":6276,"rinsics":6277,"096":6278,"lin":6279,"uk":6280,"Ġones":6281,"First":6282,"Ġempty":6283,"335":6284,"Ġwrong":6285,"Ġinit":6286,"Ġexisting":6287,"product":6288,"Ġcouple":6289,"754":6290,"weet":6291,"544":6292,"Ġprec":6293,"zy":6294,"\\\",":6295,"author":6296,"872":6297,"Wrapper":6298,"404":6299,"}</":6300,"Custom":6301,"Ġopportunity":6302,"ological":6303,"243":6304,"pril":6305,"âĢĻd":6306,"road":6307,"PU":6308,"valid":6309,"åĪĨ":6310,"\">/":6311,"Ġrespect":6312,"Ġdecl":6313,"hood":6314,"remote":6315,"++)":6316,"media":6317,"?.":6318,"\").":6319,"755":6320,"Ġmer":6321,"/ff":6322,"Ġlives":6323,"ugg":6324,"Menu":6325,"610":6326,"ĉEnumerator":6327,".Thread":6328,"209":6329,"main":6330,"394":6331,"ÑĢÐ°Ð":6332,"470":6333,"Ġbeautiful":6334,"comm":6335,"Panel":6336,"Ġenumeration":6337,"rig":6338,"ĠPa":6339,"ĉcase":6340,"590":6341,"ĠAg":6342,"avax":6343,"653":6344,"stamp":6345,"057":6346,":.":6347,"OUNDS":6348,"ĠĠĠĠĠĠĠĠĠĠĠĠĠĠĠĠĠĠĠĠĠĠĠĠĠ":6349,"Ġmethods":6350,"388":6351,"utils":6352,"Virtual":6353,"662":6354,"Ġanyone":6355,"ĠHealth":6356,"äºİ":6357,"(S":6358,"msdn":6359,"enge":6360,"istor":6361,"426":6362,"ê°":6363,".Intrinsics":6364,"625":6365,"041":6366,"ĠReturns":6367,"EAD":6368,"connect":6369,".Single":6370,"Ġcomfort":6371,"ĠMSO":6372,"460":6373,"_info":6374,"FAAB":6375,"543":6376,"/office":6377,"SPP":6378,"Ġdecision":6379,"498":6380,"admin":6381,"634":6382,"NativeArray":6383,"783":6384,"ĉB":6385,"Ġreli":6386,";<":6387,"889":6388,"Ġdraw":6389,"content":6390,"DataType":6391,"ifact":6392,"934":6393,"Ġste":6394,"case":6395,"DT":6396,".Get":6397,"Ġkids":6398,"793":6399,"Ġbi":6400,"AutoShapeType":6401,"&MSPP":6402,"ĠMSOAutoShapeType":6403,"&MSPPError":6404,"Ġ}čĊ":6405,"riday":6406,"Ġdirection":6407,"DDB":6408,"Ġthroughout":6409,"732":6410,"051":6411,"Ġsaw":6412,"ADDING":6413,"uy":6414,"288":6415,"_BOUNDS":6416,"Processing":6417,"å¹":6418,"ipment":6419,"283":6420,"ĠWhile":6421,"Float":6422,"nes":6423,"294":6424,"Ġvehic":6425,"Ġprevent":6426,"Ġskin":6427,"435":6428,"gor":6429,"angle":6430,"After":6431,"job":6432,"Ġextends":6433,"itution":6434,"Ġrelated":6435,"215":6436,"oes":6437,"Ġconfiguration":6438,"iment":6439,"061":6440,"385":6441,"styles":6442,"169":6443,"mission":6444,"yd":6445,"838":6446,"YPE":6447,"::<":6448,"cp":6449,"har":6450,"cppRetVal":6451,"Ġrelease":6452,"ĠCour":6453,"Se":6454,"092":6455,"Email":6456,"Pool":6457,"imer":6458,"Ġincluded":6459,"next":6460,"Ġattention":6461,"Ġgoal":6462,"ĠEast":6463,"494":6464,"Ġagre":6465,".value":6466,"Ġmedical":6467,"Ġhair":6468,"056":6469,"uary":6470,"/main":6471,"elect":6472,"_In":6473,"339":6474,"Chart":6475,"ĠappModules":6476,"Ġremember":6477,"Exec":6478,"Ġrequires":6479,"ĠNe":6480,"iming":6481,"465":6482,"Com":6483,"ĠReview":6484,"_On":6485,"aker":6486,"398":6487,".___":6488,"Ġstructure":6489,"\"},\"":6490,"483":6491,"086":6492,".Type":6493,"860":6494,"foot":6495,"959":6496,"Ġscript":6497,"579":6498,"RGC":6499,"ĠÎ":6500,"515":6501,"has":6502,"build":6503,"Ġsolution":6504,"668":6505,"_tAD":6506,"033":6507,"ĠĠĠĠĠĠĠĠĠĠĠĠĠĠĠĠĠĠĠĠĠĠĠĠĠĠĠĠĠĠĠĠĠĠĠĠĠĠĠ":6508,"NO":6509,"è§":6510,"CppRGC":6511,"typed":6512,"CppRGCTX":6513,"Ġgives":6514,"ĠKeyValuePair":6515,"rt":6516,"840":6517,"478":6518,"678":6519,"FAC":6520,"ĠThen":6521,"252":6522,"();čĊ":6523,"Ġlost":6524,"671":6525,"II":6526,"ĠEl":6527,"é¡":6528,"558":6529,"æĸĩ":6530,"Ġ;":6531,"å®ļ":6532,"ĠStyle":6533,"868":6534,"663":6535,"Ġdeep":6536,"FFF":6537,"545":6538,"![":6539,"(NULL":6540,"_lo":6541,"664":6542,"çº":6543,"Ġimmed":6544,"æ³ķ":6545,"DCC":6546,"PADDING":6547,"Ñħ":6548,"459":6549,"Ġpassword":6550,"Ġcalls":6551,"ĠCELLPADDING":6552,"567":6553,"ĠWindows":6554,"_EN":6555,"antity":6556,"ultiply":6557,"979":6558,"244":6559,"á»":6560,"ç§":6561,"CODE":6562,"ashing":6563,".lang":6564,".BurstCPUOps":6565,"Ġbehav":6566,"Ġbooks":6567,"850":6568,"Ġincidents":6569,"091":6570,"Ġ\"\"\"":6571,"Post":6572,"Ġtree":6573,"149":6574,"/M":6575,"Ġpositive":6576,"CAA":6577,"Ġtrain":6578,"Ġterm":6579,"Ġdrive":6580,"Ġfeed":6581,"Ġslow":6582,"cyan":6583,"Ġuses":6584,"ĠDis":6585,"877":6586,")(((":6587,"Ġmobile":6588,"Ġquickly":6589,"ĠCounty":6590,"ommons":6591,"585":6592,"Ġpractice":6593,"Ġhappy":6594,"533":6595,"mselves":6596,"Utility":6597,"Ġasync":6598,"357":6599,"UE":6600,"uns":6601,"768":6602,"ening":6603,"Ġill":6604,"984":6605,"Ġcondition":6606,"524":6607,"Ġprincip":6608,"574":6609,"562":6610,"-re":6611,"ĠHouse":6612,"actions":6613,"_time":6614,"505":6615,"áĥĲ":6616,"ĠConfig":6617,"]<|":6618,"Ġreturned":6619,"èĥ½":6620,"Ġnecessary":6621,"571":6622,"Ġgets":6623,"heme":6624,"Ġpark":6625,"iÃ³n":6626,"ancell":6627,"407":6628,"Ġjo":6629,"701":6630,"931":6631,"ancy":6632,"icker":6633,"782":6634,"Ġasp":6635,"511":6636,"ederal":6637,"246":6638,"304":6639,"846":6640,"vg":6641,"problem":6642,"Ġwants":6643,"Ġanalysis":6644,"ixed":6645,"Ġtransition":6646,"ĠĠĠĠĠĠĠĠĠĠĠĠĠĠ":6647,"CFA":6648,"Ġmid":6649,"ĠDav":6650,"830":6651,"/D":6652,"ĠEX":6653,"054":6654,"Ġprotect":6655,"227":6656,"ding":6657,"FBD":6658,"Ġpaint":6659,"Ġinstruction":6660,"138":6661,"Ġimm":6662,"atas":6663,"Ġstuff":6664,"951":6665,"Ġintptr":6666,"807":6667,"ĠShow":6668,"Ġthemselves":6669,"Ġdise":6670,"entity":6671,"249":6672,"BEC":6673,"Ġ*)&":6674,"ultic":6675,"833":6676,"753":6677,"550":6678,"æĸ¹":6679,"448":6680,"raction":6681,"849":6682,"Ġleading":6683,"-control":6684,"773":6685,"AFB":6686,"147":6687,"911":6688,"urt":6689,"153":6690,"ugs":6691,"Play":6692,"Ġnational":6693,"675":6694,"Ġunit":6695,"irit":6696,"Ġsession":6697,"ĠJune":6698,"false":6699,"itc":6700,"DFD":6701,"Lo":6702,"ranch":6703,"354":6704,"Ġgroups":6705,"Ġintrodu":6706,"Ġrecently":6707,"542":6708,"-time":6709,"582":6710,"Ġmanufact":6711,"ĠMarch":6712,"ĠSept":6713,"ĠSk":6714,"AEF":6715,"Rect":6716,"805":6717,"(Type":6718,"Ġlatest":6719,"ABE":6720,"281":6721,"099":6722,"_y":6723,"Ġautomatic":6724,"iam":6725,"EBE":6726,"059":6727,".<":6728,"CppRGCTXDataType":6729,"ĠCons":6730,"cing":6731,"æĪĲ":6732,"EnumerableIterator":6733,".Func":6734,"gorith":6735,"789":6736,"eries":6737,"Ġsubs":6738,"ĠWar":6739,"126":6740,".Threading":6741,">ĊĊĊ":6742,"375":6743,"ABC":6744,"typedef":6745,"Ġsafe":6746,"ĉchar":6747,"aches":6748,"ÐµÑĤ":6749,"226":6750,"Ġ×":6751,"','":6752,"Multi":6753,"326":6754,"Ġ};ĊĊ":6755,"Ġboolean":6756,"iring":6757,"attern":6758,"orrect":6759,"_arg":6760,"Ġuns":6761,"Ð¾Ð»":6762,"(tr":6763,"Ġsell":6764,"oms":6765,"Ġeasily":6766,"ABAD":6767,"Ġgoes":6768,"636":6769,"ham":6770,"sert":6771,"=True":6772,"åĢ":6773,"572":6774,"Changed":6775,"avy":6776,"riend":6777,"aign":6778,"Ġskills":6779,"635":6780,"ĠNOT":6781,"ĠPlease":6782,"ĠRef":6783,"la":6784,"Schema":6785,"815":6786,"itch":6787,"webkit":6788,"Ġpain":6789,"210":6790,"hest":6791,"ä¾":6792,"Reflection":6793,"882":6794,"Ġpatients":6795,"'d":6796,"Ġsold":6797,"Ġresources":6798,"_a":6799,"cal":6800,"Ġprojects":6801,"Ġproper":6802,"Ġstates":6803,".par":6804,"Our":6805,"629":6806,"GL":6807,"534":6808,"Ġfresh":6809,"289":6810,"Ġcas":6811,"plit":6812,"608":6813,"Performance":6814,"Selector":6815,"HashCode":6816,"Ġprograms":6817,"ĉSystem":6818,"Office":6819,"obby":6820,"Ġ($":6821,"Ġclients":6822,"ĠDiv":6823,"Ġnice":6824,"439":6825,"quence":6826,"_model":6827,"Decimal":6828,"330":6829,"384":6830,"686":6831,"OST":6832,"perature":6833,"957":6834,"Master":6835,"Ġwoman":6836,"ullyShared":6837,"CppFullyShared":6838,"CppFullySharedGeneric":6839,"956":6840,"aly":6841,"verter":6842,"images":6843,"EventArgs":6844,"Ġfight":6845,"464":6846,"ĠAustr":6847,"(cont":6848,"Ġmeasure":6849,":\\":6850,"asons":6851,"Ġfailed":6852,"918":6853,"718":6854,"lit":6855,"Password":6856,"522":6857,"Ġcorp":6858,"Ġnp":6859,"DCB":6860,"392":6861,"å¸":6862,"************************************************************************":6863,"Game":6864,"primary":6865,"Ġple":6866,"297":6867,"410":6868,"584":6869,"592":6870,"ä½ľ":6871,"allel":6872,"655":6873,"CED":6874,"Ġdocuments":6875,"537":6876,"ĠReported":6877,"ĉDelegate":6878,"766":6879,"Ġgreen":6880,"Can":6881,"Ġrecommend":6882,"322":6883,"################":6884,"620":6885,"986":6886,"982":6887,"Are":6888,"Ġimages":6889,"716":6890,"bit":6891,"èĢ":6892,"292":6893,"Ġactivities":6894,"887":6895,"764":6896,"BBC":6897,"DataSet":6898,"ç¬":6899,"474":6900,"395":6901,"Ġability":6902,"ague":6903,"DAA":6904,"haps":6905,"Ġmemory":6906,"Activ":6907,"ĠStr":6908,"adem":6909,"852":6910,"Ġletter":6911,"729":6912,"985":6913,"913":6914,"áĥĺ":6915,"497":6916,"FFE":6917,"ĠAsync":6918,"847":6919,"ĠCol":6920,"zz":6921,"ĠOf":6922,"rupt":6923,"Ġblood":6924,"709":6925,"Ġsus":6926,"791":6927,"274":6928,"=\"-":6929,"520":6930,"824":6931,"373":6932,"ĠDem":6933,"ĠIP":6934,"Ġworked":6935,"Ġur":6936,"Ġmovie":6937,"DCD":6938,"ĉInt":6939,"EAE":6940,"Ġreasoning":6941,"(C":6942,"rim":6943,"Ġlarg":6944,"881":6945,"_back":6946,"233":6947,"703":6948,"Encoding":6949,"690":6950,"652":6951,"Ġchalleng":6952,"415":6953,"Ġrandom":6954,"519":6955,"\"\"":6956,"AEB":6957,"CEB":6958,"itable":6959,"post":6960,"ĠBlack":6961,"-weight":6962,"Ġcategory":6963,"\\Ċ":6964,"Ġax":6965,"Ġformer":6966,"ubs":6967,"ĠClass":6968,"Ġcelebr":6969,"_us":6970,"Ġinj":6971,"Convert":6972,"-out":6973,"387":6974,"Ġscore":6975,"Ġmarsh":6976,"encies":6977,"Ġcosts":6978,"Ġstock":6979,"557":6980,"Ġmention":6981,"604":6982,".)":6983,"Ġele":6984,"Ġviol":6985,"734":6986,"694":6987,"Ġcredit":6988,"MM":6989,"Ġmorning":6990,"UL":6991,"316":6992,"ABF":6993,"301":6994,"093":6995,"340":6996,"ĠView":6997,"border":6998,"attle":6999,"ECAF":7000,"Ġtrust":7001,"429":7002,":čĊ":7003,"omin":7004,"-bin":7005,"Ġsens":7006,"TRIC":7007,"Ġlooks":7008,"Ġrelationship":7009,"539":7010,"ĠName":7011,"depth":7012,"687":7013,"Ġrot":7014,"615":7015,"Vert":7016,"otype":7017,"Ġbank":7018,"vant":7019,"047":7020,"095":7021,"ĠColle":7022,"ĠCOLOR":7023,"ĠMAL":7024,"Ġstraight":7025,"card":7026,"Ġinternational":7027,"Ġstarting":7028,"Last":7029,"atives":7030,"772":7031,"736":7032,"ociety":7033,"æ¯":7034,"igration":7035,"ç®":7036,"ĠPost":7037,"CDB":7038,"Screen":7039,"ancellation":7040,"env":7041,"468":7042,"681":7043,"Ġrequirements":7044,"234":7045,"ĠPower":7046,"client":7047,"708":7048,"anner":7049,"873":7050,"ression":7051,"Ġconsist":7052,"md":7053,"Ġamaz":7054,"ĉObjectU":7055,"495":7056,"Ġnames":7057,"Alignment":7058,"Java":7059,"643":7060,"Ġlegal":7061,"ç½":7062,"308":7063,"ogistics":7064,"Width":7065,"erve":7066,"565":7067,"492":7068,"ĠRem":7069,"chart":7070,"onds":7071,"Ġadjust":7072,"Ġgap":7073,"(truck":7074,"ĠTHE":7075,"Ġswitch":7076,"757":7077,"ĠMALogistics":7078,"pha":7079,"_error":7080,"Ġplant":7081,"ository":7082,"BBABAD":7083,"ĠService":7084,"Ġgrid":7085,"964":7086,"907":7087,"733":7088,"ici":7089,"CNm":7090,"811":7091,"ĠPort":7092,"åĩº":7093,"cd":7094,"Ġhands":7095,"Ġcareer":7096,"Ġexplo":7097,"aged":7098,"Ġcapt":7099,"748":7100,"ributes":7101,"è¡¨":7102,"389":7103,"Met":7104,"Run":7105,"735":7106,"Ġwasn":7107,"Ġreviews":7108,"Op":7109,"\\role":7110,"Ġ\\<":7111,"Ġbtn":7112,"508":7113,"\\\":\\\"":7114,"ulticast":7115,"à¯ģ":7116,".Data":7117,"079":7118,"763":7119,"396":7120,"Ġimprove":7121,"318":7122,"lers":7123,">\\":7124,"IA":7125,"num":7126,"ĠDisplay":7127,"928":7128,"efined":7129,"options":7130,"ĉĉĉĉĉĉĉ":7131,"Ġeffective":7132,"icket":7133,"343":7134,"_cont":7135,"ered":7136,"frac":7137,"keys":7138,"719":7139,"(name":7140,"Ġmeeting":7141,"307":7142,"band":7143,"_ACTIVE":7144,"032":7145,"ĠAir":7146,"Ġbus":7147,"513":7148,"ii":7149,"cons":7150,"Ġrock":7151,"960":7152,"Ġdu":7153,"Ġdrink":7154,"ĠFile":7155,"ivery":7156,"Ġsleep":7157,"icks":7158,"ï¼ī":7159,"ĠInterface":7160,"ĠChina":7161,"ĠEnglish":7162,"rate":7163,"apan":7164,"Ġexcept":7165,"oming":7166,"317":7167,"Ġsuccessful":7168,"éĹ´":7169,"Ġcontain":7170,"Ġmyself":7171,"367":7172,"yy":7173,"Ġbenefits":7174,"Ð·":7175,"Ġsites":7176,"ĠLabel":7177,"ĠMr":7178,"tml":7179,"ĠAccess":7180,".IEnumerator":7181,"Ø§Ø":7182,"ĠRuss":7183,"276":7184,"-A":7185,"Ġpublished":7186,"_Create":7187,"Vis":7188,"447":7189,"fs":7190,"è¿Ľ":7191,"586":7192,"895":7193,"Ġseek":7194,"ä½¿":7195,"ĠURL":7196,"ĠJuly":7197,"Ġ(\"":7198,"759":7199,"Child":7200,"speech":7201,"414":7202,"ãĢĤĊĊ":7203,"Pos":7204,"AFC":7205,"ropri":7206,"Castclass":7207,"981":7208,"SA":7209,"Ġinfo":7210,"715":7211,".in":7212,"Ġsun":7213,"Ġparents":7214,"279":7215,"ï¼Ī":7216,"261":7217,"call":7218,"Ġcountries":7219,"overy":7220,"ulate":7221,"075":7222,"Ġled":7223,"Queue":7224,"vey":7225,"589":7226,"058":7227,"Some":7228,"è¿Ļ":7229,"ĠTV":7230,"262":7231,"ĠApril":7232,"Ġconstraints":7233,"¦Ĥ":7234,"Ġdead":7235,"yte":7236,"Ġserious":7237,"859":7238,"ternal":7239,"<br":7240,"ĠGoogle":7241,"Ġnumer":7242,".class":7243,"Ġ['":7244,"server":7245,"lements":7246,"aturday":7247,"(data":7248,"803":7249,"rote":7250,"Ġchance":7251,"Ġorganization":7252,"723":7253,"double":7254,"431":7255,"423":7256,"Ġobs":7257,"clusion":7258,"669":7259,"Ġlock":7260,".sw":7261,"306":7262,"Ð³":7263,"ç±":7264,"696":7265,"Ġsurpr":7266,"Ġfine":7267,"çĤ":7268,"ĠPresident":7269,"ĠCON":7270,"_eq":7271,"Ġinvolved":7272,"Slave":7273,"Ġ\"\"Ċ":7274,"READ":7275,"iding":7276,"=\\\"":7277,"Ġplans":7278,"Ġden":7279,"ordin":7280,"491":7281,"gg":7282,"236":7283,"lined":7284,"Memory":7285,"546":7286,"ĠReadOnly":7287,"MPro":7288,"Ġdim":7289,"738":7290,"Ð¾Ð´":7291,"622":7292,"utive":7293,"Help":7294,"090":7295,"425":7296,"433":7297,"DATA":7298,"Ġmus":7299,"ses":7300,"ĠCustom":7301,"Ġinsurance":7302,"urrenc":7303,"process":7304,"-items":7305,"Ġcool":7306,"oub":7307,"611":7308,"711":7309,"äºĨ":7310,"479":7311,"355":7312,"776":7313,"ĠAc":7314,"910":7315,"çĲ":7316,"ula":7317,"aptive":7318,"Transform":7319,"345":7320,"977":7321,"Ġbegan":7322,"Ġideas":7323,"ospital":7324,"_instance":7325,"ears":7326,"Row":7327,"Ġtour":7328,"Ġpiece":7329,"MemResource":7330,"ëĭ":7331,"Ġphysical":7332,"628":7333,"Properties":7334,"897":7335,"344":7336,"531":7337,":hover":7338,"CAD":7339,"inn":7340,"ThrowHelper":7341,",UnityEngine":7342,"Ġten":7343,"apacity":7344,">.":7345,"Ġtests":7346,"rought":7347,"ĠLaw":7348,"071":7349,"aby":7350,"ĠÐ¸":7351,"Ġbecame":7352,"Ġmarketing":7353,"Ġrelative":7354,"Ġreports":7355,"Ġshall":7356,"894":7357,"thern":7358,"372":7359,"949":7360,"<String":7361,"anagement":7362,"ilerServices":7363,"Configuration":7364,"ida":7365,"_bytes":7366,"ĠError":7367,"ĠSan":7368,"ooth":7369,"Ġhour":7370,"ĠMich":7371,"659":7372,"ĠSw":7373,"ĠFeb":7374,"Ġfrequ":7375,"/api":7376,"Ġinsp":7377,"Ġmodern":7378,"OK":7379,"VER":7380,"å¼ı":7381,"mitted":7382,"BCF":7383,"article":7384,">d":7385,"442":7386,"Ġreplaced":7387,"232":7388,"/************************************************************************":7389,"728":7390,"ĠAny":7391,"osing":7392,"-gray":7393,"ĠGL":7394,"Ġwide":7395,"ercial":7396,",T":7397,"Ġsummer":7398,"206":7399,"ĠAtt":7400,"Ġcompletely":7401,"Ġfunctions":7402,"Ġedge":7403,"Ġcreating":7404,"DEC":7405,"ĠVal":7406,".Expressions":7407,"672":7408,"ç±»":7409,"},\"":7410,"ago":7411,"Ġpackage":7412,"482":7413,"Ġfields":7414,"*)(&":7415,"ä¸Ĭ":7416,"624":7417,"ById":7418,"858":7419,"Height":7420,"Cell":7421,"Ġ!==":7422,"Ġfelt":7423,"BCC":7424,"ĠOper":7425,"ĉByteU":7426,"())Ċ":7427,"569":7428,"955":7429,"EAA":7430,"iny":7431,"rash":7432,"åĨħ":7433,"626":7434,"(l":7435,"ĠÐ¾":7436,"ĠRuntimeArray":7437,"Ġdecided":7438,"åŃĹ":7439,"BAD":7440,"produ":7441,"values":7442,"641":7443,"response":7444,"Ġseed":7445,"_GP":7446,".ref":7447,"Now":7448,"ĠAfric":7449,"Ġcandid":7450,"iforn":7451,"577":7452,"ayer":7453,"âĢ¢":7454,"Ġ${":7455,"363":7456,"**)&":7457,"619":7458,"åĿ":7459,"Ġarguments":7460,"ĠIsl":7461,"151":7462,"034":7463,"637":7464,"Cache":7465,"ĠBack":7466,"DAC":7467,"Ġpara":7468,"racy":7469,"åī":7470,"FAF":7471,"358":7472,"Ġfair":7473,"unwrap":7474,"å±":7475,"Ġalloc":7476,"DDC":7477,"155":7478,"Ġvariety":7479,"isions":7480,"737":7481,"ĠOpen":7482,"Ġdiscover":7483,".Con":7484,"319":7485,"Ġcharg":7486,"CBE":7487,"Delete":7488,"525":7489,"summary":7490,"Ġdigital":7491,"328":7492,"FDE":7493,"Ġobjects":7494,"Ġsynthetic":7495,"Ġpolitical":7496,"438":7497,"760":7498,"ĠSTD":7499,"677":7500,"965":7501,"AAE":7502,")))":7503,"Ġqual":7504,"Var":7505,"Ùĩ":7506,"msOffice":7507,"Interface":7508,"Î¿":7509,"ĠAssoci":7510,"Ġupdated":7511,"see":7512,"ĠHer":7513,"Ġjud":7514,"-box":7515,"Ġbudget":7516,"FDA":7517,"-shadow":7518,"ico":7519,"empty":7520,"Part":7521,"Ġmaybe":7522,"443":7523,"remove":7524,"062":7525,"ani":7526,".spring":7527,"Ġnet":7528,"Ġpurchase":7529,"399":7530,"Ġfavorite":7531,"EDE":7532,"Dep":7533,"422":7534,"ĉstruct":7535,"Ġfru":7536,"702":7537,"484":7538,"Ġcourt":7539,"arguments":7540,"Ġpassed":7541,"818":7542,"ĉThrowHelper":7543,".an":7544,"EFD":7545,"559":7546,"Ġsafety":7547,"Ä±":7548,"resolved":7549,"ĠJob":7550,".CompilerServices":7551,"646":7552,"Target":7553,"msOfficeChart":7554,"526":7555,"296":7556,"Ġreduc":7557,"ture":7558,"ĠArg":7559,"556":7560,"_{":7561,"Ġmiddle":7562,"ae":7563,"Ġjavax":7564,"Ġtown":7565,"-height":7566,"Ġeyes":7567,"Ġhear":7568,"ĠAustral":7569,"before":7570,"control":7571,"066":7572,"eep":7573,"oggle":7574,"à®¿":7575,"Ġfixed":7576,"%,":7577,"530":7578,"Ġassign":7579,"995":7580,"974":7581,"Ġdb":7582,"Ġaltern":7583,"Head":7584,"029":7585,"unday":7586,"Ġexam":7587,"ipping":7588,"Ġtogg":7589,"241":7590,"Ġstreng":7591,"Ġdoor":7592,"649":7593,"ä¸ĭ":7594,"idence":7595,"693":7596,"ĠDepartment":7597,"çĲĨ":7598,"mon":7599,"Ġstage":7600,"Ġessential":7601,"370":7602,"ibly":7603,"ALIGN":7604,"Ġplac":7605,"_call":7606,"462":7607,"070":7608,"207":7609,"Ġplayed":7610,"Ġgiving":7611,"peat":7612,"787":7613,"488":7614,"çĤ¹":7615,"ĉEntry":7616,"#[":7617,"atches":7618,"990":7619,"Ġball":7620,"Ġproviding":7621,"ifornia":7622,"390":7623,"Ġenh":7624,"632":7625,"BDE":7626,"Ġlocated":7627,"eatures":7628,"454":7629,"BAA":7630,"023":7631,"pite":7632,"035":7633,"').":7634,"hold":7635,"Ġprop":7636,"863":7637,"dir":7638,"anges":7639,"Ġallowed":7640,"Ġgave":7641,"ĠDel":7642,"(value":7643,"642":7644,"496":7645,"Ġexcell":7646,"lk":7647,"mes":7648,"Common":7649,"EAC":7650,"store":7651,"```Ċ":7652,"Î±":7653,"ayload":7654,".text":7655,"Ġobt":7656,"ael":7657,"883":7658,"ecause":7659,"933":7660,"Ġerr":7661,"Ġpressure":7662,"<Unity":7663,"379":7664,"Ġlif":7665,"miss":7666,"nce":7667,"ney":7668,"python":7669,"ouncil":7670,"ĠAugust":7671,"AEC":7672,"_LOGIC":7673,"Ġprem":7674,"402":7675,"ĠEvery":7676,"ancellationToken":7677,"064":7678,"second":7679,"ĠBrit":7680,"Ġinvestig":7681,"CNmParameter":7682,"932":7683,"<?":7684,"Ġease":7685,"_text":7686,"ords":7687,"`.":7688,"framework":7689,"082":7690,"-M":7691,"exp":7692,"593":7693,"777":7694,"oz":7695,"ĠEntry":7696,"izont":7697,"éĿ":7698,"hi":7699,"601":7700,"Ġmoving":7701,"ĉfor":7702,"Ġutil":7703,"Ġcomponent":7704,"Ġmarri":7705,".NativeArray":7706,"Ġnor":7707,"wood":7708,"Sign":7709,"Ġextreme":7710,"466":7711,"391":7712,"036":7713,"682":7714,"\\Items":7715,"ĠException":7716,"Ġ})Ċ":7717,"CCE":7718,"Ġà®":7719,"674":7720,"DDD":7721,"=(":7722,"463":7723,"Ġ~":7724,"edia":7725,"opping":7726,"679":7727,"Ġdelete":7728,"];ĊĊ":7729,"993":7730,"Sim":7731,"åĲİ":7732,"æį®":7733,"CT":7734,"827":7735,"çī":7736,"omen":7737,"Ġdepend":7738,"038":7739,"åºı":7740,"enty":7741,"Sy":7742,"check":7743,"forms":7744,"Ġscient":7745,"ously":7746,"ĠArt":7747,"Ġemployees":7748,"rown":7749,"ara":7750,"åħ¥":7751,"gorithm":7752,"Unsafe":7753,"613":7754,"ĠSeptember":7755,"å·":7756,"Bar":7757,"ĠHT":7758,"941":7759,"iers":7760,"itect":7761,"ĠSpe":7762,"ĠGerm":7763,"944":7764,"Ġvers":7765,"agraph":7766,"imed":7767,"ĠFalse":7768,">::.":7769,"!(Ċ":7770,"RY":7771,"Ġconstant":7772,"ĠJson":7773,"}}":7774,"Ġexception":7775,"383":7776,"åĲĮ":7777,"Ġencou":7778,"Ġneigh":7779,"ĠUK":7780,"å®ŀ":7781,"Ġwrote":7782,"Ġvoice":7783,"ĠFree":7784,"Ġdifference":7785,"ipped":7786,"urg":7787,"245":7788,"imately":7789,"_val":7790,"ondon":7791,"arily":7792,"Ġactivity":7793,"Ġfish":7794,"Ġinteresting":7795,"657":7796,"Ġ\"Ċ":7797,"Ġwish":7798,"684":7799,"])Ċ":7800,"Ġwood":7801,"mas":7802,"ermine":7803,"alloc":7804,"ìĦ":7805,"Ġrender":7806,"para":7807,"Ġvolume":7808,"295":7809,"(a":7810,"ALL":7811,"Ġmaster":7812,"746":7813,"403":7814,"Ġdaily":7815,".Net":7816,"_u":7817,"nswer":7818,"713":7819,"ĠOBJ":7820,"Sched":7821,"Render":7822,"Ġguest":7823,"unities":7824,"Ġthinking":7825,"Ġcolors":7826,"ĠPat":7827,"PointerType":7828,"Clear":7829,"éĻ":7830,"Ġannual":7831,"Ġmount":7832,"ĠFacebook":7833,"();":7834,"Ġdrop":7835,"769":7836,"714":7837,"835":7838,"oting":7839,"362":7840,"....":7841,"ĠBase":7842,"656":7843,"Ġcampaign":7844,"Ġcarry":7845,"595":7846,"Ġsaying":7847,"551":7848,"270":7849,"867":7850,"Ġprefer":7851,"excel":7852,"ĠHol":7853,"ĠFriday":7854,"_TisU":7855,"Please":7856,"itute":7857,"onday":7858,"Ġinflu":7859,"total":7860,"356":7861,"081":7862,"821":7863,"937":7864,"_impl":7865,"Ġsupported":7866,"number":7867,"ĠHel":7868,"Ġtele":7869,"ĠOctober":7870,"067":7871,"Application":7872,"Ġweather":7873,"Ġrules":7874,"ĠLa":7875,"Ġrout":7876,"Ġindependent":7877,"Ġmis":7878,"ros":7879,"780":7880,"Ġrev":7881,"413":7882,"umbs":7883,"Ġargument":7884,"DCE":7885,"Ġmulti":7886,"EDF":7887,"SL":7888,"\\speech":7889,"ĠSen":7890,"Ġidentify":7891,"829":7892,"Seg":7893,"Ġpool":7894,"Ġmother":7895,"oom":7896,"edList":7897,"EDC":7898,"338":7899,"ĠLink":7900,"ĠReact":7901,"\"));Ċ":7902,"540":7903,"ĠNetwork":7904,"Ġecho":7905,"ategories":7906,"ÑĦ":7907,"Ġpolice":7908,"Ġmarshalling":7909,"Ġdro":7910,"illing":7911,"ĠDateTime":7912,"621":7913,"614":7914,"987":7915,"Ġjson":7916,".io":7917,"Ġseparate":7918,"ĠBank":7919,"Ġamazing":7920,",čĊ":7921,"while":7922,"Ġson":7923,"Ġord":7924,"\\win":7925,"Ġband":7926,"ownt":7927,"Ġsometimes":7928,"ĠÐ·":7929,"Ġassociated":7930,"Ġedit":7931,"Register":7932,"Ġconsidered":7933,"Ġbroad":7934,"287":7935,"Ġcontrib":7936,"924":7937,"oj":7938,"476":7939,"å¦Ĥ":7940,"ultureInfo":7941,"725":7942,">/":7943,"=CENTER":7944,"CCC":7945,"892":7946,"Ġcomments":7947,"Ġshoot":7948,"Ġhuge":7949,"CFDD":7950,"Ġliter":7951,"Integer":7952,"Ġcomponents":7953,"891":7954,"BBA":7955,"_HP":7956,"Ġgirl":7957,"LI":7958,"*)((":7959,"Ġblue":7960,"usion":7961,"DFF":7962,"ĉelse":7963,"Ġsou":7964,"rows":7965,"_Reset":7966,"BDC":7967,"Ġoptim":7968,"phone":7969,"Ġhimself":7970,"869":7971,"/lang":7972,"Ġlack":7973,"sg":7974,"Ġanim":7975,"<p":7976,"670":7977,"Ġ\\Ċ":7978,"ĠMarket":7979,"Module":7980,"ĠInterfaceFuncInvoker":7981,".springframework":7982,"366":7983,"ĠSl":7984,"098":7985,"762":7986,"otes":7987,"vas":7988,"Lower":7989,"645":7990,"DEA":7991,"Ġnavigation":7992,"416":7993,"ires":7994,"Ġreleased":7995,"Chain":7996,"FunctionPointerType":7997,"648":7998,"809":7999,"704":8000,"_target":8001,"ronic":8002,"Ġlaunch":8003,"Ġcapital":8004,"ships":8005,"ĠHash":8006,"073":8007,"lying":8008,"638":8009,"845":8010,"323":8011,"Ġhum":8012,"331":8013,"Ġreference":8014,"Ġearn":8015,"EX":8016,"351":8017,"_comparer":8018,"ĠEqualityComparer":8019,"Ġmicro":8020,"ĠJanuary":8021,"ĠPlay":8022,"451":8023,"Ġcells":8024,"à®¿à®":8025,"Strategy":8026,"-r":8027,"_GetEnumerator":8028,"329":8029,"Ġlimit":8030,"ĠGame":8031,"CDC":8032,").čĊ":8033,"Ġfinish":8034,"Ġicon":8035,"ĠAND":8036,"ĠKing":8037,"989":8038,"856":8039,"Parse":8040,"eve":8041,"background":8042,"Ġsituation":8043,".Items":8044,"overs":8045,"oogle":8046,"ä¼ļ":8047,"\\\"\\":8048,"profile":8049,"Ġabsolute":8050,"ACF":8051,"836":8052,"912":8053,"Ġeffects":8054,"()ĊĊ":8055,"Ġir":8056,"AFD":8057,"CFE":8058,"Ġhelps":8059,"Ġdatabase":8060,"Ġtowards":8061,"481":8062,"orge":8063,"initely":8064,"(const":8065,"Ġexpress":8066,"ened":8067,"Ġmachine":8068,"ĠNews":8069,"Ġtp":8070,"ActionInvoker":8071,"Ġturned":8072,"Copy":8073,"Ġhighly":8074,"Ġplaces":8075,"Ġsand":8076,"Ġded":8077,"-sc":8078,"996":8079,"291":8080,"ĠMath":8081,"Ġconsum":8082,"olume":8083,"978":8084,"venue":8085,"088":8086,"473":8087,"flex":8088,"037":8089,"(-":8090,"Ġimag":8091,"ocused":8092,"Ġvec":8093,"583":8094,"Ġparameter":8095,"Ã¶":8096,"Ġdistance":8097,"963":8098,"ĉArgumentOutOfRangeException":8099,"489":8100,"åĳ":8101,"Ġcup":8102,".k":8103,"chan":8104,"Ġpublish":8105,"046":8106,"\"),Ċ":8107,"Option":8108,"775":8109,"Right":8110,"Ġ&#":8111,"Ġconduct":8112,"Ġgreater":8113,"Ġequipment":8114,"\\winword":8115,"olf":8116,"})":8117,"Ġfully":8118,"Ġmaterials":8119,"ĠOb":8120,"ancel":8121,"::.":8122,"Root":8123,"Ġphotos":8124,"916":8125,"outer":8126,"onstr":8127,"312":8128,"899":8129,"Ġcommit":8130,"418":8131,"Ġraise":8132,"427":8133,"ĠEar":8134,"Ġheard":8135,"Ġcheckbox":8136,"ĠMethod":8137,"Ġshared":8138,"ç´":8139,"Ġmodule":8140,"Column":8141,"Ġjoin":8142,"Ġoperation":8143,"570":8144,"Ġcult":8145,"Ġge":8146,"ĠStep":8147,"bon":8148,"ĠTe":8149,"706":8150,"943":8151,"OpenId":8152,"Ġsurface":8153,".css":8154,"Ġtrip":8155,"more":8156,".find":8157,"935":8158,"Ġearlier":8159,"Ġnature":8160,"Ġreduce":8161,"BDD":8162,"ĠFound":8163,"expected":8164,"}\")Ċ":8165,"Ġforce":8166,"Ġproperties":8167,"Ġbound":8168,"665":8169,"Ġkeys":8170,"Pre":8171,"ullable":8172,"_Remove":8173,"ProcessingStack":8174,"Ġplatform":8175,"549":8176,"Ġloop":8177,"áĥĲáĥ":8178,"cover":8179,"Ġtag":8180,"Ġdating":8181,"Ġplaceholder":8182,"538":8183,"ĠTechn":8184,"Ġstorage":8185,"Ġprimary":8186,"ConfiguredTaskAwaiter":8187,"DFE":8188,"ĠPre":8189,"Ġdeg":8190,"Ġindividuals":8191,"æı":8192,"qs":8193,"ĠFollow":8194,"TRY":8195,"792":8196,"618":8197,"ilies":8198,"ivil":8199,"Ġappropri":8200,"Ġindic":8201,"Ġut":8202,"ĠInternational":8203,"743":8204,"Us":8205,"orate":8206,"Ġlimited":8207,"Ġactions":8208,"Ġapplications":8209,"Ġsecret":8210,"ĠBusiness":8211,"Ġav":8212,"Ġadvant":8213,"Ġvert":8214,"uit":8215,"774":8216,"Ġowners":8217,"cs":8218,"ĠWell":8219,"ĠâĢ¦":8220,"Ġowner":8221,"Ġeat":8222,"Ġexpand":8223,"_Count":8224,"499":8225,"ĠEnd":8226,"RO":8227,"/h":8228,"864":8229,"izations":8230,"Ġheat":8231,"NotSupportedException":8232,"FEF":8233,"ĠStart":8234,"-for":8235,"Alloc":8236,"PlayFabRequestEvent":8237,"ĠCalifornia":8238,"-z":8239,"stream":8240,"Ġgas":8241,"DL":8242,"Ġwhose":8243,"è½":8244,"_obj":8245,"only":8246,"Ġproduce":8247,"843":8248,"à³":8249,"ION":8250,"Ġos":8251,"arden":8252,"ĉRuntimeArray":8253,"_pl":8254,"523":8255,"594":8256,"Ġpicture":8257,"Ġ\"@":8258,"Ġlib":8259,"eces":8260,"_par":8261,"iately":8262,"588":8263,"Ġer":8264,"Ġrestaur":8265,"Section":8266,"CFC":8267,"ĠFin":8268,"Ġing":8269,"izontal":8270,"[],":8271,"502":8272,"Contract":8273,"BFD":8274,"FBC":8275,">)Ċ":8276,"Ġrace":8277,"Ġslot":8278,"ĉAction":8279,"Ġbirth":8280,"Ã¼":8281,"ĠMost":8282,"ĠAndroid":8283,"_len":8284,"Ð¹":8285,"477":8286,"ridge":8287,"Ġstack":8288,"Ġaware":8289,"Portfolio":8290,"Build":8291,"Ġtoward":8292,"948":8293,"SH":8294,"917":8295,"uri":8296,"Ġknew":8297,"ĉtry":8298,"Ġconcept":8299,"aper":8300,"ankException":8301,"ç¤":8302,"Ġ*)":8303,"bb":8304,"ressed":8305,"879":8306,"emplate":8307,"othes":8308,"och":8309,"Ġoperations":8310,"bes":8311,"utor":8312,"Ġpartners":8313,"ĠTMPro":8314,"975":8315,"rael":8316,"ĠčĊ":8317,"302":8318,"893":8319,"oving":8320,"Ġgrowing":8321,"Ġ>Ċ":8322,"AFA":8323,"ocr":8324,"ĉPlayFabAuthenticationContext":8325,"Activity":8326,"397":8327,"[{\"":8328,"Ġprotected":8329,"æİ¥":8330,"ĠVec":8331,"940":8332,"aycast":8333,"_cnt":8334,"575":8335,"racking":8336,"None":8337,"za":8338,"ipeline":8339,"rench":8340,"954":8341,"AFF":8342,"_dim":8343,"WebRequest":8344,"markdown":8345,".size":8346,"ä½¿çĶ¨":8347,":\"":8348,"_ref":8349,"AEA":8350,"Ġpy":8351,"ilitary":8352,"PASS":8353,"js":8354,"Bl":8355,"Return":8356,"ĉStyle":8357,"884":8358,"Ñİ":8359,"_block":8360,"focus":8361,"ĠDecember":8362,"988":8363,"Ġexpression":8364,"Member":8365,"ĠNovember":8366,"rage":8367,"507":8368,"Ġdisease":8369,"edit":8370,"/docs":8371,"_at":8372,"Stat":8373,"Ġplus":8374,"ORT":8375,"Ġtemperature":8376,"Ġspent":8377,"Ġarriv":8378,"ADFDB":8379,"Ġfloor":8380,"ĠModel":8381,"ĠMet":8382,"Ġbrought":8383,"ĠWhere":8384,"å¿":8385,"839":8386,"ÏĦ":8387,"Depth":8388,"osite":8389,"_from":8390,"EBA":8391,"560":8392,"(g":8393,"Ġlayout":8394,"/EmptyInternalEnumerator":8395,"gener":8396,"Ġreve":8397,"Ġcertainly":8398,"ĠÑĤ":8399,"FDB":8400,"Ġlargest":8401,"While":8402,"asure":8403,"ĠIndia":8404,")]Ċ":8405,"Left":8406,"Ùģ":8407,"insert":8408,"Ġmar":8409,"382":8410,"---ĊĊ":8411,"Top":8412,"æĢ§":8413,"Ġaf":8414,"ç¼":8415,"DFC":8416,"065":8417,"shop":8418,"ĠSch":8419,"ĠOR":8420,"BEF":8421,"BBF":8422,"796":8423,"req":8424,"ĠWH":8425,"689":8426,"Struct":8427,"Ġsnap":8428,"ĠSunday":8429,"Ġ);ĊĊ":8430,"ĠSaturday":8431,"717":8432,"Ġonto":8433,"Ġroll":8434,"ashington":8435,"Trace":8436,"`.Ċ":8437,".error":8438,"EAB":8439,"Font":8440,"Ø©":8441,"Ġmissing":8442,"zer":8443,"}.":8444,"sych":8445,"Ġwarm":8446,"Ġnamed":8447,"âĢĿĊ":8448,"elete":8449,"sequ":8450,"ĠUI":8451,"346":8452,"ruary":8453,"712":8454,"Ġmeaning":8455,"Ġpi":8456,"Ġpropos":8457,"nap":8458,"Ġplanning":8459,"ashion":8460,"Ġsem":8461,".]Ċ":8462,"ford":8463,"Ġnation":8464,"Ġlinks":8465,"Ġtraditional":8466,"oles":8467,"842":8468,"Ġeconomic":8469,"919":8470,"ald":8471,"Ġrecords":8472,"erry":8473,"ota":8474,"Ġprices":8475,"-text":8476,"lor":8477,"olver":8478,"CCB":8479,"Android":8480,"anaged":8481,".H":8482,"ĠJapan":8483,"Ġnov":8484,"!(\"":8485,"ĠMem":8486,"Ġoffset":8487,"ffect":8488,"Equal":8489,"Del":8490,"El":8491,"Ġexport":8492,"Ġlooked":8493,"Ġruns":8494,"Ġ:=":8495,"can":8496,"968":8497,"ĠFind":8498,"Converter":8499,"False":8500,"=\"@":8501,"Const":8502,"Co":8503,"Ġstories":8504,"ria":8505,"Ġdeveloped":8506,".Add":8507,"ĠLondon":8508,"æĮĩ":8509,"962":8510,"ĠAlso":8511,"Ð±":8512,"Ġculture":8513,"Ġhidden":8514,"_returnValue":8515,"813":8516,"Ġfirm":8517,"ĠPublic":8518,"ĠOption":8519,"-xl":8520,"Ġgold":8521,"Adjustment":8522,"Ġsolutions":8523,"Ġinterested":8524,"_Int":8525,"then":8526,"Ġbasic":8527,"udio":8528,"etic":8529,"Ġhous":8530,"allow":8531,"ervation":8532,"fit":8533,"Ġbelie":8534,"Body":8535,"ications":8536,"ĠPM":8537,"Ġadult":8538,"itchen":8539,"Ġ\\\"<":8540,"Ġdriver":8541,"EBC":8542,"602":8543,"BCB":8544,"ĠEven":8545,"DEE":8546,"èµ":8547,"921":8548,"Îµ":8549,"irror":8550,"Ġdevices":8551,"Ġdownt":8552,"github":8553,"aming":8554,"Ġtorch":8555,"Ġstar":8556,"Location":8557,"Ġteams":8558,"-[":8559,"\\excel":8560,"Ġbey":8561,"_Copy":8562,"Ġdemand":8563,":</":8564,"etime":8565,"Mapper":8566,"ulticastDelegate":8567,"Ġaudio":8568,"+\"":8569,"925":8570,".Serialization":8571,"Ġfeeling":8572,"Ġexcellent":8573,"ĠOF":8574,"Ġinstructions":8575,"Ġult":8576,"Ġconvert":8577,"Ġspend":8578,"equ":8579,"ville":8580,"Ġbeyond":8581,"Bo":8582,"ĉTask":8583,"available":8584,"Ġscope":8585,"Ġinsert":8586,"Ġconsult":8587,"854":8588,"Ġcompleted":8589,"FEC":8590,"Red":8591,"Ġstream":8592,"Tag":8593,"Here":8594,"603":8595,"Ġcollege":8596,"-S":8597,"779":8598,"Kind":8599,"970":8600,"_Cont":8601,".UInt":8602,"Ġpurpose":8603,"orig":8604,"èĩ":8605,"ittee":8606,"Ġbatch":8607,"AM":8608,"Ġinstrument":8609,"EventBase":8610,"Ã§Ã£o":8611,"Use":8612,"-ons":8613,"Params":8614,"chron":8615,"Socket":8616,"arshal":8617,".assert":8618,"Ġfab":8619,"agon":8620,"Each":8621,"FAA":8622,"Ûķ":8623,"EAF":8624,"ĠWed":8625,"Me":8626,"atever":8627,"699":8628,"iced":8629,"Ġimmediately":8630,"move":8631,"ictions":8632,"Ġrows":8633,"Ġfeet":8634,"ĠProject":8635,"rics":8636,"urrency":8637,"))?":8638,"ĉprivate":8639,"ĠGood":8640,"scape":8641,"ĠMake":8642,"break":8643,"Rel":8644,"ĠEach":8645,"åı¯ä»¥":8646,"Ġincreasing":8647,"ĠTrans":8648,"ĠExec":8649,"Ġlicense":8650,"UR":8651,"_inst":8652,"Ġder":8653,"Ġoverall":8654,"Ġbeginning":8655,"private":8656,"orrow":8657,"Newtonsoft":8658,"Ġpaid":8659,"688":8660,"ules":8661,"che":8662,"ĠDavid":8663,"ĠPress":8664,"åīį":8665,"ipp":8666,"ACB":8667,"784":8668,"ĠCor":8669,"Ġunderstanding":8670,"(M":8671,"ulated":8672,"AAD":8673,"\");ĊĊ":8674,"Ġaffect":8675,"Ġsurv":8676,"travel":8677,"å»":8678,"Äį":8679,"orary":8680,"plot":8681,"';ĊĊ":8682,"_ch":8683,"aptivePerformance":8684,"Ġconfirm":8685,"Ġ});ĊĊ":8686,"Session":8687,"æķ°æį®":8688,"Ġstrateg":8689,"Ind":8690,"_Float":8691,"(G":8692,"(Unity":8693,"dated":8694,"OCU":8695,"aughter":8696,"Ġotherwise":8697,"EDB":8698,"arrow":8699,"rip":8700,"ĠCD":8701,"Ġbusinesses":8702,"Ġ},":8703,"ĠJes":8704,"android":8705,"ares":8706,".sc":8707,"Ġtrend":8708,"entry":8709,"Ġbuilder":8710,"ĠAR":8711,"Ġfem":8712,"/re":8713,"Ġauth":8714,"ĠCourt":8715,"Ġdry":8716,"Ð»Ð¸":8717,"Ġrent":8718,"Ġspecified":8719,"Ġtransport":8720,"Ġcommercial":8721,"ĠNumber":8722,"rollers":8723,"ĠDire":8724,"offee":8725,"ĠDevelop":8726,"FAE":8727,"aling":8728,"vement":8729,"\";ĊĊ":8730,"Ġtrail":8731,"Ġtried":8732,"}>Ċ":8733,"Ġconstruction":8734,"Ġuseful":8735,"CppFullySharedGenericAny":8736,"ambda":8737,"meta":8738,"886":8739,"Access":8740,"DFB":8741,"Ġreporting":8742,"Ġtab":8743,"CR":8744,"UM":8745,"Ġinnov":8746,"Ġmoved":8747,"las":8748,"áº":8749,"Ġpen":8750,"Ġnut":8751,"cat":8752,"ĉStringU":8753,"è¿ĩ":8754,"CEC":8755,"870":8756,".KeyValuePair":8757,"Active":8758,"(=":8759,"914":8760,"ĠWrite":8761,"(false":8762,"Ġgoals":8763,"ĠServices":8764,"CFD":8765,"Ġsing":8766,"ĠGold":8767,"ĠGetAddressAt":8768,"ĠDesign":8769,"lines":8770,"Ġthread":8771,"Ġarr":8772,"ampl":8773,"/InternalEnumerator":8774,"ĠCollege":8775,"Ñĸ":8776,"Ġcancer":8777,"ventory":8778,"Ġemb":8779,"åºĶ":8780,"åıĳ":8781,"_keys":8782,"ulator":8783,"-F":8784,"Ġhistor":8785,"à¹":8786,"Ġthreat":8787,"antic":8788,"961":8789,"Ġquarter":8790,"PlayFabResultEvent":8791,"EMA":8792,"etail":8793,"\\addonStore":8794,"\\addonStoreGui":8795,"Ġspect":8796,"Ġserve":8797,"Ġheader":8798,"----------------------------------------------------------------":8799,"Ġnotice":8800,"They":8801,"owned":8802,"Ġassistant":8803,"TY":8804,"ĉJson":8805,"uster":8806,"rome":8807,"ighest":8808,"ĠCom":8809,"ĠGover":8810,"radient":8811,"custom":8812,"Ġmo":8813,"Ġbehavior":8814,"fix":8815,"ativeSlice":8816,"Ġguide":8817,"sum":8818,"Ġstarts":8819,"ĠSub":8820,"Net":8821,"Ġwall":8822,")))))Ċ":8823,"EFF":8824,"Book":8825,"iling":8826,"ĠCOM":8827,"EEC":8828,"Ġmessages":8829,"mediate":8830,"-flex":8831,"536":8832,"à¯ģà®":8833,"ONN":8834,"ĠGetAt":8835,"Ġhealthy":8836,"Ġparticularly":8837,"ĠSetAt":8838,"Ġimpl":8839,"Ġdefined":8840,"Ġsale":8841,"_url":8842,"Ġdemonstr":8843,"atio":8844,"ĠRun":8845,"ĠNO":8846,"Ġring":8847,"Ġincreased":8848,"Ġtransfer":8849,"é¢":8850,"_with":8851,"ĠAnt":8852,"Ġexplicit":8853,"Ġconvers":8854,"ĠDefault":8855,"Flags":8856,"uq":8857,"Ġspot":8858,"Ġshot":8859,"BCD":8860,"Ġteacher":8861,"Ġdirector":8862,"ĠMA":8863,"ĠSize":8864,"ĉtypedef":8865,"ato":8866,"CCA":8867,"=\"./":8868,"Ġcore":8869,"lict":8870,"undred":8871,"ä»£":8872,"Ġpartner":8873,"heet":8874,"Ġsen":8875,"Ġproced":8876,"Models":8877,"ĠBest":8878,"Ġanaly":8879,"router":8880,"Ġí":8881,"Ġmouse":8882,"unit":8883,"}/":8884,"Enabled":8885,"Ġgra":8886,"Ĥ¬":8887,"Ġcharge":8888,"TRICT":8889,"Ġsym":8890,"Ð»Ñı":8891,"Ġnearly":8892,"Debug":8893,"EEB":8894,"Ġaspect":8895,"cket":8896,"Ġspread":8897,"ataset":8898,"auto":8899,"Ġconnected":8900,"Ġlarger":8901,"SV":8902,"register":8903,".Tasks":8904,"logo":8905,"Comparison":8906,"=\"../../":8907,"Serializer":8908,"æĬ":8909,"/commons":8910,"Ġachie":8911,"FEE":8912,"(h":8913,"Ġrates":8914,"OCUMENT":8915,"_mem":8916,"ĠAM":8917,"ĠMulticastDelegate":8918,"bum":8919,"Ġ\"%":8920,"arp":8921,"ampion":8922,",Unity":8923,"Ñį":8924,"ACA":8925,"ÑĪ":8926,"ĉconst":8927,"Ġtrade":8928,"Ġopportunities":8929,"Ġmovement":8930,"627":8931,"fff":8932,"967":8933,"@example":8934,"oman":8935,"Ġfather":8936,"Ġsubst":8937,"dom":8938,"ancing":8939,"Ġthous":8940,"Ġ[\"#":8941,"<think":8942,"ĠGeneral":8943,"term":8944,"blue":8945,"ĉKeyValuePair":8946,"Ġwife":8947,"077":8948,".btn":8949,"ĠPlayFabRequestEvent":8950,"-code":8951,"Ġpair":8952,"Ġfollowed":8953,"Ġoperating":8954,"<center":8955,"çİ°":8956,"refix":8957,"097":8958,"ĠON":8959,"790":8960,"begin":8961,"ACD":8962,"Ġdetail":8963,"hematic":8964,"Ġcamera":8965,"ĠCanada":8966,"781":8967,"Ġreflect":8968,"ĠNeed":8969,"Ġremoved":8970,"note":8971,"predicate":8972,"Ġinternet":8973,"enance":8974,"login":8975,"łģ":8976,"ĠExcel":8977,"_Half":8978,"(|":8979,"Ġspirit":8980,"ĠVer":8981,"FBA":8982,"Ġdra":8983,"Ġalone":8984,"Ġmaximum":8985,"Ġeye":8986,"ĠBuild":8987,"apping":8988,"Ġfamilies":8989,"bf":8990,"ĠCre":8991,"Ġ<!--":8992,"BEA":8993,"ç³":8994,"ĠBro":8995,"awn":8996,"coming":8997,"-primary":8998,"ERE":8999,"Ġ],Ċ":9000,"ĠUSE":9001,"():Ċ":9002,"Mesh":9003,"ilk":9004,"EBD":9005,"imit":9006,"reshold":9007,"æīĢ":9008,"_ac":9009,"Bound":9010,"igger":9011,"\"+":9012,"Ġdamage":9013,"Ġcit":9014,"Ġdirectory":9015,"ĠWashington":9016,"Div":9017,"Ġaccomp":9018,"Ġgenerated":9019,"slv":9020,"how":9021,"above":9022,"æľ¬":9023,"Ġnil":9024,"Ġvision":9025,"Ġgrant":9026,"ĠMod":9027,"uesday":9028,"_thumbs":9029,"Ġvehicle":9030,"UN":9031,"inct":9032,"FDC":9033,"_BA":9034,"ìĹ":9035,"ĠHar":9036,"Ġpd":9037,"Ġscience":9038,"Ġmonitor":9039,"ìŀ":9040,")((((":9041,"ĠMonday":9042,"ĠComparison":9043,"-old":9044,"Ġinstalled":9045,"asy":9046,"Ġglass":9047,"Ġassess":9048,"Don":9049,"ĠAdv":9050,"column":9051,"ulations":9052,"ker":9053,"áĢº":9054,"Ġapplied":9055,"ema":9056,"ĠProgram":9057,"here":9058,"tip":9059,"stract":9060,"Ġrespond":9061,"Ġimplementation":9062,"Project":9063,"Slot":9064,"Show":9065,"ĠGreen":9066,"Ġrank":9067,"Ġbenefit":9068,"/apache":9069,"è·":9070,"ĉthis":9071,"ourney":9072,"ims":9073,"Ġprime":9074,"ursday":9075,"Ġzero":9076,"Ġfat":9077,"âĶĢâĶĢâĶĢâĶĢâĶĢâĶĢâĶĢâĶĢâĶĢâĶĢâĶĢâĶĢâĶĢâĶĢâĶĢâĶĢ":9078,"OnCompleted":9079,"_request":9080,"\":[\"":9081,"FCA":9082,"assets":9083,"ĠOther":9084,"Ġmechan":9085,"Ġfunc":9086,"Ġchem":9087,"åĢ¼":9088,"bing":9089,"artifact":9090,"/WhereSelect":9091,"ç³»":9092,"create":9093,"Current":9094,"CAF":9095,"iveness":9096,"Ġhop":9097,"à¨":9098,"ĠValueTuple":9099,"ora":9100,"rowd":9101,"ĠPlan":9102,"ĠUpdate":9103,"padding":9104,"Ġ---":9105,"linedArray":9106,"-Z":9107,"Ġalthough":9108,"Ġvs":9109,"ffff":9110,"ĠCopy":9111,"users":9112,"_tensor":9113,"Ġdetermine":9114,"ĠLocal":9115,"Ġautomatically":9116,"tls":9117,"-of":9118,"ÐµÐ½Ð¸":9119,"ĠIdentifies":9120,"Ð½Ñĭ":9121,"Ġtips":9122,"cribe":9123,"Ġschools":9124,"Ġcop":9125,"Ġinline":9126,"});Ċ":9127,"ĠSince":9128,"Business":9129,"Ġmatches":9130,"Ġhyp":9131,"Ġnegative":9132,"éľ":9133,"Ġpatient":9134,"Profile":9135,"etween":9136,"\"))":9137,"_tCC":9138,"qrt":9139,"Many":9140,"749":9141,"ĠĠĠĠĠĠĠĠĠĠĠĠĊ":9142,"Ġ]Ċ":9143,"(r":9144,"Ġupper":9145,"Ġinternal":9146,"Ġeasier":9147,"Ġpresident":9148,"ĠRE":9149,"Timeout":9150,"EDA":9151,".Set":9152,"Parent":9153,"IMIT":9154,"AGE":9155,"ä¹ī":9156,"marshaled":9157,"Certificate":9158,"_Default":9159,"Ġreasons":9160,"/page":9161,"BFA":9162,"Ġsmart":9163,"enses":9164,"Ġtalking":9165,"]]":9166,"æĿ¥":9167,"Ġadding":9168,"Ġcast":9169,"_Comp":9170,".model":9171,"ĠIndian":9172,"footer":9173,"ourse":9174,"Ġgrand":9175,"Ġadvert":9176,"inese":9177,"Ġrestr":9178,"å¤§":9179,".contains":9180,"ĠArraySortHelper":9181,"EFE":9182,"Ġphoto":9183,"_train":9184,"Ġworkers":9185,"ĠIsrael":9186,"(R":9187,"ĠHand":9188,"Ġinvol":9189,"boxed":9190,"icted":9191,"Î¹":9192,"Ġdefinitely":9193,"letion":9194,"\\f":9195,"Ġpull":9196,"Ġmock":9197,"Ġsuccessfully":9198,"ĉĠ":9199,"ĠChe":9200,"Ġguarant":9201,"Ġdiction":9202,"dy":9203,"rank":9204,"Ġweekend":9205,"ucation":9206,"ĠBen":9207,"Ø¹":9208,"Ġfans":9209,"Ġscene":9210,"ĠChristmas":9211,"property":9212,"ĠResearch":9213,".next":9214,"åľ°":9215,"ĠFebruary":9216,"ABD":9217,"report":9218,"Phone":9219,"Answer":9220,"EMAIL":9221,"Network":9222,"Constructor":9223,"Ġcash":9224,"illa":9225,"exas":9226,"Ġsyn":9227,"Ġcouldn":9228,"EventHandler":9229,"Ð¸Ñģ":9230,"esult":9231,"ĠCompany":9232,"Ġdescribed":9233,"Before":9234,"ban":9235,"vector":9236,"'),Ċ":9237,"Ġpopulation":9238,"Ġcontinu":9239,"ideos":9240,"Ð¾Ð¼":9241,"Ġremain":9242,"ObjectU":9243,"uting":9244,")/":9245,"ĠProf":9246,"Ġappropriate":9247,"ĠWhite":9248,"ĉNativeArray":9249,"ragment":9250,"cfg":9251,"ĠBoard":9252,"Character":9253,"Ġviews":9254,"anned":9255,"ologies":9256,"ç½®":9257,"FCC":9258,"nesday":9259,"Ġwelcome":9260,"Ġaren":9261,"wait":9262,"éľĢ":9263,"Ġpayment":9264,"ĠSuper":9265,"Ġchannel":9266,"eleg":9267,"ĠÃĹ":9268,"Ġ*/ĊĊ":9269,"Ġopin":9270,"Ġdegree":9271,"CAE":9272,"éĢļ":9273,"eps":9274,"Product":9275,"Ġpoor":9276,"oper":9277,"Ġdiscount":9278,"idential":9279,"_ENABLE":9280,"Ġaward":9281,"ĠBook":9282,"_pr":9283,"Ġprotocol":9284,"Ġcontainer":9285,"Ġsecure":9286,"Ġconv":9287,"Ġpet":9288,"ĠFire":9289,"__(":9290,"ugins":9291,"Ġdoub":9292,"Ġlibrary":9293,"Ġeight":9294,"_Index":9295,"Ġcapacity":9296,"ĠInternet":9297,"ONE":9298,"hens":9299,"Ġtoggle":9300,"Ġadvice":9301,"Ġdoll":9302,"namespace":9303,"Parameters":9304,"ĠPaul":9305,"åĮĸ":9306,"sha":9307,"isl":9308,"087":9309,"address":9310,"ĠFOR":9311,"áĥĶ":9312,"Ġoffic":9313,"Ne":9314,"Ġremote":9315,"ying":9316,"Ġgar":9317,".ts":9318,"FEA":9319,"çŃ":9320,"Ġstudies":9321,"Ġintended":9322,"Ġbillion":9323,"unte":9324,"Ġtoggling":9325,"Ġdelivery":9326,"Regex":9327,"Ġmill":9328,"Ġcompared":9329,"Ġtesting":9330,"-label":9331,"Ġfigure":9332,"Ġchallenge":9333,"Num":9334,"ĠRuntimeType":9335,"which":9336,"Ġbuffer":9337,"qa":9338,"Space":9339,"Ġappears":9340,"ffic":9341,"Ġinvestment":9342,".on":9343,"ja":9344,"Ġhappened":9345,"Ġsaved":9346,"irmed":9347,"Ġsurround":9348,"ĠJournal":9349,"BFF":9350,"Ġcritical":9351,"ĠExpl":9352,"stack":9353,"Ġtruly":9354,"Ġanti":9355,"Ġexternal":9356,"åº¦":9357,"ĠAPI":9358,"ĠSpan":9359,"navbar":9360,"parent":9361,"Param":9362,"Ġ(`":9363,"Ġrounded":9364,"ager":9365,"power":9366,"è°":9367,"Ġ<-":9368,"esc":9369,"Ġradio":9370,"atively":9371,"Ġgraph":9372,"apy":9373,"æľĢ":9374,"Ġoffered":9375,":\"Ċ":9376,"Ġcounter":9377,"grid":9378,"*);Ċ":9379,"Ø¨":9380,"Ġperhaps":9381,"Ġesc":9382,"è®¾":9383,"ando":9384,"Ġerrors":9385,"ĠuseState":9386,"HTML":9387,"agram":9388,"amm":9389,"ĠPython":9390,"ĠDelegate":9391,"Ġbytes":9392,"_GetHashCode":9393,"ĉNot":9394,"BFE":9395,"ĉX":9396,"container":9397,"Ġbrain":9398,"ĵį":9399,"-block":9400,"Ġseven":9401,"category":9402,"ĠTop":9403,"Ġresponsible":9404,"Ġ#[":9405,"Ġincome":9406,"Ġusize":9407,"Padding":9408,"quis":9409,")))(__":9410,"(()":9411,"wd":9412,"Segment":9413,"iber":9414,"853":9415,"Ġ\"/":9416,".txt":9417,"URL":9418,"Ġbatter":9419,"ï¼Ľ":9420,"Ġtwice":9421,"totype":9422,"roke":9423,"ĠRepublic":9424,"Ġalert":9425,"à¤¾":9426,"comparer":9427,"ICollection":9428,"Ġequal":9429,"ĠEuropean":9430,"Ġpriv":9431,"Ġlots":9432,"-col":9433,"Ð¾Ð·":9434,"Ġbasis":9435,"ried":9436,"-by":9437,"asion":9438,"atar":9439,"Ġtheme":9440,"Extensions":9441,"cctor":9442,"__.":9443,"Ð¸ÑĤ":9444,"ĠAut":9445,"udit":9446,"spectrum":9447,"Ġrelig":9448,"////////////////":9449,"ç«":9450,"Ġwed":9451,"Ġpointer":9452,"activ":9453,"ptx":9454,"resolvedVirtual":9455,"Ġmiles":9456,"ĠMiss":9457,"ĠMany":9458,"_multiply":9459,"Weight":9460,"resolvedVirtualCall":9461,"Ġwind":9462,"\"],\"":9463,"Ġopening":9464,"Ġcold":9465,"Ġclasses":9466,"ĠOk":9467,"Total":9468,".Reflection":9469,"FBB":9470,"ĉTMP":9471,"BDF":9472,"Ġslight":9473,"Non":9474,"ĠII":9475,"Ġgate":9476,"icall":9477,"ĠHot":9478,"ĠProduct":9479,"Ġexplain":9480,"ĠAsyncTaskMethodBuilder":9481,"Ġnative":9482,"-slow":9483,"-link":9484,"bg":9485,"atible":9486,"ĠÂ£":9487,"Ġbra":9488,"Ġfarm":9489,"Ġfinished":9490,"]\\":9491,"/com":9492,"*(":9493,"(above":9494,"à¥į":9495,"Ġ$\\":9496,"Ġfederal":9497,"nthes":9498,"éĩı":9499,"ĉVisualElement":9500,"icons":9501,"Ġrule":9502,"ĠAssociation":9503,"Ġcoach":9504,"EDD":9505,"_tFD":9506,"domain":9507,"ĠWhy":9508,"_exception":9509,"æĭ":9510,"ĠJesus":9511,"'.":9512,"Repository":9513,"ona":9514,"Ġappoint":9515,".user":9516,"Ġhighest":9517,"Ġloved":9518,"765":9519,"These":9520,"Ġ\"^":9521,"Ġcontaining":9522,"Ġmail":9523,".read":9524,"{\\\"":9525,"notations":9526,"áĥĺáĥ":9527,"Login":9528,"ÐµÐ´":9529,".OpenId":9530,"Ġshop":9531,"raining":9532,"<TSource":9533,"åĬ¨":9534,"UG":9535,"/T":9536,"wide":9537,"åİ":9538,"FBE":9539,"Design":9540,"ÑĨÐ¸":9541,"Ġahead":9542,"Boolean":9543,"Ġhundred":9544,"Equals":9545,"LO":9546,"-end":9547,"Ø³":9548,"Ġáĥ":9549,"oted":9550,"Ġattract":9551,"Ġborn":9552,"(v":9553,"ãĢĤĊ":9554,"arts":9555,"Rem":9556,"atalog":9557,"_Open":9558,"ĠStore":9559,".)Ċ":9560,"Ġnorm":9561,"location":9562,"Ġfactors":9563,"ĠRel":9564,".Byte":9565,"Ġattend":9566,"pid":9567,"à¥įà¤":9568,"ĉInvalidOperationException":9569,"World":9570,"clk":9571,".Sc":9572,"structure":9573,"Ġstrength":9574,"clusive":9575,"Ġvirtual":9576,"ados":9577,"Ġdeterministic":9578,".type":9579,"å®¹":9580,"temp":9581,"ĠJames":9582,"Icon":9583,"oded":9584,"Ġparams":9585,"ĠĠĠĠĠĠĠĠĠĠĠĠĠĠĠĠĠĠĠĠĠĠĠĠĠĠĠĠĠĠĠĠĠĠĠĠĠĠĠĠĠĠĠ":9586,"uccess":9587,"find":9588,"/ys":9589,"apped":9590,"ìĿ´":9591,"}\",\"":9592,"Spe":9593,"Wait":9594,"utter":9595,"Ġtrou":9596,"ECTED":9597,"/or":9598,"buffer":9599,"Ġoffering":9600,"-style":9601,"Ġassist":9602,"Ġtal":9603,"returns":9604,"Ġgone":9605,"Orig":9606,"Ġjobs":9607,"Ġsust":9608,"Ġâľ":9609,"Î½":9610,"Ġpowerful":9611,"Ġkept":9612,"\");čĊ":9613,"Window":9614,"ĠÐ½Ð°":9615,"ULT":9616,"BEE":9617,"fe":9618,"ValueCollection":9619,"Ġparagraph":9620,"Ġharm":9621,"Ġadvanced":9622,"×ķ":9623,".core":9624,"Ġclin":9625,"ini":9626,"akers":9627,")\"Ċ":9628,"Mod":9629,"ĠMac":9630,"=>":9631,"alar":9632,".\"\"":9633,"Ġdisabled":9634,"addr":9635,"ãĥ¼":9636,"Ġgenerate":9637,"rection":9638,"Users":9639,"×Ļ":9640,"rated":9641,"Ġproduced":9642,"ĉInternalEnumerator":9643,"ickets":9644,"usband":9645,"ĠTMP":9646,"Ġguy":9647,"Ġhelpful":9648,"house":9649,"mod":9650,"ĠCode":9651,"Ġscen":9652,"je":9653,"Ġbaby":9654,"_int":9655,"Ġupdates":9656,"ĠRob":9657,"ĠLong":9658,"Ġundefined":9659,"lies":9660,"åŁ":9661,"\":\"{\\\"":9662,"bel":9663,"prite":9664,"CCF":9665,"Ġsupply":9666,"ellig":9667,"ĠCH":9668,"ERR":9669,"encing":9670,"UnsafeOnCompleted":9671,"hash":9672,"ya":9673,"Ġgift":9674,"Ġforms":9675,"ĉException":9676,"localhost":9677,"Ġfailure":9678,"-T":9679,"ett":9680,"Ġdiet":9681,"_Equality":9682,"click":9683,"Ġmanager":9684,"/<>":9685,"Ïģ":9686,"More":9687,"cgi":9688,"Ġfactor":9689,"Ġseconds":9690,"front":9691,"ulf":9692,"Ġchurch":9693,"/comp":9694,"Ġstress":9695,"brid":9696,"selected":9697,"Ġpieces":9698,"ä½į":9699,"orney":9700,"/nsl":9701,"ĠEr":9702,"-th":9703,"anic":9704,"_att":9705,"romise":9706,"Ġvisual":9707,"gin":9708,"Ġ'./":9709,"Ġdrug":9710,"Lock":9711,"MI":9712,"ĠIS":9713,"ifically":9714,"omic":9715,"errer":9716,"}`":9717,"make":9718,"Ġsplit":9719,"Ġ$(":9720,"rust":9721,"Ġ));Ċ":9722,"UID":9723,"}\"ĊĊ":9724,"ĠVi":9725,"Ġinterview":9726,"ToString":9727,"IsInst":9728,".apache":9729,"Ġbalance":9730,"Ġenabled":9731,"Ġdie":9732,"Details":9733,"hether":9734,"Ġsports":9735,"BABA":9736,"\\t":9737,"çĽ¸":9738,"cludes":9739,"Ġminimum":9740,"ĠĠĠĠĠĠĠĠĠĠĠĠĠĠĠĠĠĠĠĠĠĠĠĠĠĠĠĠĠ":9741,"Ġnotes":9742,".cgi":9743,"=\"../../../":9744,"OB":9745,"Comment":9746,"inue":9747,"Ġ(<":9748,"=\"\"><":9749,"ĠYS":9750,"Ġclip":9751,"irty":9752,"ĠPeople":9753,"_Value":9754,"ĠGreat":9755,"Ġflag":9756,".status":9757,"Ġaudience":9758,"Ġhelped":9759,"Ġtruth":9760,"Ġremaining":9761,"ĠFD":9762,"you":9763,"DDAD":9764,"NOSCRIPT":9765,"Ġprovider":9766,"Ġwonderful":9767,"menu":9768,"pol":9769,"Ġolder":9770,"Ġstyles":9771,"ìł":9772,"_forAlignment":9773,"_forAlignmentOnly":9774,"ĠPlayFabResultEvent":9775,"night":9776,"Ġobvious":9777,"Ġbul":9778,"Ġclub":9779,"[j":9780,"Ġhotel":9781,"_Contains":9782,"filter":9783,"Exp":9784,"Ġmilitary":9785,"Ġinstallation":9786,"ĠTrump":9787,"erest":9788,"AdaptivePerformance":9789,"Ġbecomes":9790,"Ġextremely":9791,"under":9792,"ĉReadOnly":9793,"Ġ+Ċ":9794,"Word":9795,"zen":9796,"Âł":9797,"Ġhappens":9798,"DFBB":9799,"Ġunc":9800,"Ġadvantage":9801,"random":9802,"AdjustmentRecord":9803,"dec":9804,".sub":9805,"IndexOf":9806,"hav":9807,"ICE":9808,"well":9809,"Ġexists":9810,"Ġgenerally":9811,"åħ³":9812,").ĊĊ":9813,"Ġguys":9814,"_config":9815,"Ġwild":9816,"Ġlisten":9817,"atched":9818,"irectory":9819,"å»º":9820,"Ġapprec":9821,"ampling":9822,"Ġefforts":9823,"FL":9824,"avigation":9825,"men":9826,"Why":9827,"Week":9828,"ĉNotSupportedException":9829,"oma":9830,"Ġmanage":9831,"éĶ":9832,"ĠPC":9833,"uler":9834,"actor":9835,".annotation":9836,"Ġang":9837,"iques":9838,"ipl":9839,"abit":9840,"SER":9841,".toString":9842,"BFC":9843,"Make":9844,"GetAddressAt":9845,"ë¡":9846,"åħ¶":9847,"required":9848,"Ġens":9849,"Ġsett":9850,"ĠSur":9851,"ĠSol":9852,"ĠOh":9853,"IX":9854,"assign":9855,"ĠYear":9856,"Ġholid":9857,"Ġjump":9858,"ifications":9859,"Ġdriving":9860,"Zone":9861,"Execute":9862,"ĠLife":9863,"èĬ":9864,"áĥĶáĥ":9865,"ĠOutput":9866,"finally":9867,"InfoU":9868,"Ġhy":9869,"asic":9870,"Ġcarefully":9871,"BBD":9872,"æŀľ":9873,"Spec":9874,"Ġsets":9875,"Ġbill":9876,"Ġkernel":9877,"rackable":9878,"ĠCr":9879,"ester":9880,"Ġmaintain":9881,".referrer":9882,"åĬł":9883,"abilities":9884,"refer":9885,"FEDC":9886,"Ġexperienced":9887,".cl":9888,"Ġkitchen":9889,"ĠPage":9890,"ĠEXAC":9891,"osen":9892,"Ġefficient":9893,"ĠOnce":9894,"å°Ĩ":9895,"controls":9896,"Ġdisapp":9897,"\"}},\"":9898,"è°ĥ":9899,".swing":9900,"/v":9901,"Ġmag":9902,"Cons":9903,"Proxy":9904,"))),":9905,"Ġjourney":9906,"Ġafford":9907,"-child":9908,"FDF":9909,"rev":9910,"ifying":9911,"ĠCong":9912,"ÙĤ":9913,"irus":9914,"ston":9915,".r":9916,"ç¤º":9917,"Ġguid":9918,"/\"><":9919,"æŁ":9920,"Ġmult":9921,"Ġhelping":9922,"apsed":9923,"Ġrepair":9924,"ango":9925,"ĠBritish":9926,">();Ċ":9927,"Ġheavy":9928,"Ġcalling":9929,"ested":9930,"Ġclearly":9931,"ĠLeg":9932,"LW":9933,"ĠTexas":9934,"_Off":9935,"orida":9936,"_q":9937,"-owned":9938,"çłģ":9939,"essions":9940,"Ġcoverage":9941,"Ġdestination":9942,"umbn":9943,"position":9944,"trim":9945,"_TYPE":9946,"++)Ċ":9947,"Init":9948,"ĠAnn":9949,"ĠDisplayed":9950,"Ġmagn":9951,"=\"\"":9952,"Ġfigures":9953,"Ġpictures":9954,"HP":9955,"Ġclaims":9956,"_initobj":9957,"Variable":9958,".from":9959,"Ġprotection":9960,"ĠDet":9961,"Ġemit":9962,"Ġthank":9963,"herit":9964,"/Entry":9965,"ĠNext":9966,"ĠSA":9967,"Man":9968,"Ġchanging":9969,"Card":9970,"_Offset":9971,"Ġinform":9972,"Ġspring":9973,"PlayFabEvents":9974,"åıĸ":9975,"articip":9976,"AEE":9977,"ĠBel":9978,"join":9979,"owLevel":9980,"ĠSign":9981,"Ġelectric":9982,"ĠâĶ":9983,"ĠFore":9984,"unately":9985,"Ġrig":9986,"Ġremains":9987,"Ġthrows":9988,"Scroll":9989,"ç»ĵ":9990,"Ġprompt":9991,"Ġdictionary":9992,"ĠTwitter":9993,"Bytes":9994,"Ġleaders":9995,"imingData":9996,"\"),":9997,"&gt":9998,"Ġwww":9999,"åħĥ":10000,"''":10001,"Ġgirls":10002,"ookie":10003,"Ġeconomy":10004,"Am":10005,"æ¬":10006,"grad":10007,"Ġfinding":10008,"Ġwaiting":10009,"åĽŀ":10010,"Multiplayer":10011,"ublish":10012,"plt":10013,"Ġsample":10014,"Operator":10015,"Local":10016,"Ġ[]Ċ":10017,"emo":10018,"Sm":10019,"Ġfetch":10020,"Ð½Ð¾":10021,"ĠRich":10022,"ç»Ł":10023,"Ġroute":10024,"_dir":10025,"ìĭ":10026,"itness":10027,"<KEY":10028,"Ġdress":10029,"Ġestablish":10030,"ĠUSEMAP":10031,"Home":10032,"Ġpeace":10033,"Ġmb":10034,"ĠĠĠĠĠĠĠĠĠĠĠĠĠĠĠĠĠĠĠĠ":10035,"Ġorganizations":10036,"boot":10037,"}$":10038,"_LIMIT":10039,"/test":10040,"ĠSecurity":10041,"CDE":10042,"(true":10043,"ĠCouncil":10044,"care":10045,"RITE":10046,"Ġshift":10047,"Ġscroll":10048,"icing":10049,"Ġtracking":10050,".TMP":10051,"Ġcrate":10052,"Ġsmaller":10053,"-e":10054,"ECF":10055,"edString":10056,"Ġrecon":10057,"Ġwriter":10058,"Ġsociety":10059,"avour":10060,"Ġplaced":10061,"osis":10062,"Ġdoctor":10063,"aller":10064,"(Il":10065,"Ġdot":10066,"INIT":10067,"Ġcards":10068,"ĠÐ±":10069,".sh":10070,"Ġsources":10071,"-codegen":10072,"<MAP":10073,"Ġbyte":10074,"AnimationDataSet":10075,"isation":10076,"Ġingred":10077,"Ġcars":10078,"TU":10079,"Ġmask":10080,"ĠChurch":10081,"related":10082,"Ġgather":10083,"Ġtherefore":10084,"Ġfant":10085,"ĠMichael":10086,"atin":10087,"Ġexercise":10088,"ĠLear":10089,"Binary":10090,"after":10091,"Ġlearned":10092,"Mapping":10093,"Ġstation":10094,"Enter":10095,"Ġregarding":10096,"device":10097,"ĠTensor":10098,"ĠTuesday":10099,"(\"\\":10100,"away":10101,"ĠComplex":10102,"åĲį":10103,"_tFB":10104,"Ġasking":10105,"Ġpal":10106,"DAB":10107,"ĉDateTime":10108,"è´":10109,"Ġwhatever":10110,"ĠTwo":10111,"ĠBr":10112,"Ġexit":10113,"_define":10114,".E":10115,"Ġguess":10116,"Ãº":10117,"[]Ċ":10118,"icious":10119,"Ġhaven":10120,"Ġwear":10121,"dictionary":10122,"components":10123,"CNmParameterFloat":10124,"EW":10125,"Ġachieve":10126,"ĠFrench":10127,"_tDA":10128,"Ġplot":10129,"Ġtend":10130,"Ġleader":10131,"avbar":10132,"Ġarm":10133,"Ġarchitect":10134,"(in":10135,"Ġbag":10136,"module":10137,"ĠPay":10138,"Ġworkspace":10139,"ĠOnly":10140,"Ġrich":10141,"\":Ċ":10142,"Ġserved":10143,"Ġadvent":10144,"æłĩ":10145,">k":10146,"Ġrob":10147,"Ġstreet":10148,"åĪ¶":10149,"amer":10150,")<":10151,"ĠIll":10152,"ĠÙħ":10153,"_RE":10154,"åŀ":10155,"_date":10156,"_user":10157,"ìļ":10158,"ĠAustralia":10159,"Ġestablished":10160,"cos":10161,"Ġtermin":10162,"esome":10163,"Ġagree":10164,"ĠGlobal":10165,"disabled":10166,"Ġcovered":10167,".Sql":10168,"standing":10169,"Double":10170,"å¹¶":10171,"imated":10172,"*)(&__":10173,"sync":10174,"Ġcomfortable":10175,"ĠLo":10176,"context":10177,"CppMethodPointer":10178,"Ġpul":10179,"seek":10180,"doc":10181,"\";":10182,"Ġclosed":10183,"Rad":10184,"_ID":10185,"ĠResult":10186,"Binding":10187,"Ð½Ð°":10188,"Ġtensor":10189,"ĠJew":10190,"ĠEconom":10191,"ossible":10192,"\"}]<|":10193,"orted":10194,"ransition":10195,"ogg":10196,"|>[{\"":10197,"Ú©":10198,"Foundation":10199,"FDD":10200,"Ïĥ":10201,"Ġpow":10202,"asp":10203,"Ġraw":10204,"Ġlic":10205,"Ġbow":10206,"LASS":10207,"PL":10208,"ils":10209,"mode":10210,"typeof":10211,"ashboard":10212,"Ġrelevant":10213,"Ġcy":10214,"Ġverify":10215,"aid":10216,"ĠCare":10217,"æĪĸ":10218,"Ġhusband":10219,"ĠUN":10220,"ãģ®":10221,"Ġfaith":10222,")`":10223,"ĉcatch":10224,"ky":10225,"what":10226,"Cloud":10227,"{}":10228,"Ġincred":10229,".StyleProperty":10230,".parse":10231,"ĠOrder":10232,"ĠCross":10233,"Review":10234,"ollect":10235,"write":10236,"agazine":10237,"DAE":10238,"èĬĤ":10239,"firm":10240,"ĠJer":10241,"Ġreprodu":10242,"_carry":10243,"ĠThursday":10244,"rations":10245,"/jav":10246,"Ġcentral":10247,"ĠÐ½Ðµ":10248,"umbnail":10249,"ipes":10250,"_ext":10251,"ĠðŁ":10252,"INT":10253,"\\\"}\",\"":10254,"going":10255,"-white":10256,"apers":10257,"Ġaudited":10258,"Col":10259,"Ġcallback":10260,"TLY":10261,"(\\\"":10262,"Ġwouldn":10263,"Ġchallenges":10264,"ordinates":10265,"password":10266,"uling":10267,"Ġapprox":10268,"iller":10269,"Ġseeing":10270,"Ġparse":10271,"ê³":10272,"Ġmist":10273,"Ġknows":10274,"Ġtranslate":10275,"Ġsweet":10276,"ĠManagement":10277,"Ġhighlight":10278,"Ġschedule":10279,"ĠChild":10280,"Ġmathematic":10281,"ĠApple":10282,".$":10283,"metric":10284,"ONNECTED":10285,"icine":10286,"Ġvisible":10287,"_default":10288,"Cre":10289,"ander":10290,"Ġtemplate":10291,"-P":10292,"RS":10293,"webpack":10294,"_per":10295,"aked":10296,"\"čĊ":10297,"ĠIT":10298,"Ġcontinued":10299,"Ġbiggest":10300,"Ġreality":10301,"-types":10302,"ĠPhil":10303,"apes":10304,".prototype":10305,"respond":10306,"Ġsea":10307,"unn":10308,"ĠPath":10309,"çº¿":10310,"ĠEXACTLY":10311,"ĠTeam":10312,"essor":10313,"Ġspan":10314,"Ġexperiences":10315,".z":10316,"icode":10317,"odo":10318,"HashSet":10319,"gr":10320,"force":10321,".IEnumerable":10322,"ç®Ĺ":10323,"argo":10324,"bling":10325,"sey":10326,"æ¨":10327,".path":10328,"CL":10329,"Ġna":10330,"atters":10331,"ĉJ":10332,"(U":10333,"Imp":10334,"hl":10335,"Ġinteger":10336,"SM":10337,"enger":10338,">@":10339,"\\controls":10340,".Char":10341,"uter":10342,"Ġcycle":10343,"_BAR":10344,"ĠRoad":10345,"/app":10346,"_-":10347,"wers":10348,"Ġforeign":10349,"Loading":10350,"Ġcat":10351,"Ġforget":10352,".write":10353,"StateMachine":10354,"Ġentertain":10355,"Labels":10356,"('/":10357,"ç»Ħ":10358,"Ġinner":10359,"ady":10360,"_field":10361,"ĠMain":10362,"ĠCap":10363,"ĠWeek":10364,"ĠUnder":10365,"company":10366,":focus":10367,"utely":10368,"Ġ(((":10369,"Has":10370,"_UNC":10371,"Ġfan":10372,"Driver":10373,"Ġ(-":10374,")}":10375,"onep":10376,"ĠDisc":10377,"Ġvolunte":10378,"æĸĩä»¶":10379,"ElementType":10380,"Report":10381,"hidden":10382,"Ġphotograph":10383,"Note":10384,"Connect":10385,"å°ı":10386,"children":10387,"_UNCONNECTED":10388,"_[":10389,".Inter":10390,"Ġcart":10391,"rehens":10392,"isting":10393,"æĸ°":10394,"Ġsquare":10395,"Ġdanger":10396,"culate":10397,"Nullable":10398,"Ġunless":10399,"Ġhtml":10400,"')\\":10401,"ê°Ģ":10402,"@\"":10403,"ĠSte":10404,"Ġemer":10405,"Ġcert":10406,"Ġcoffee":10407,"Unknown":10408,"Ġcaused":10409,"models":10410,"Ġepis":10411,"finallyBlock":10412,"ien":10413,"ĠBecause":10414,".show":10415,"-pro":10416,"support":10417,"âĢľI":10418,"Ġlose":10419,"Ġprocessing":10420,"Ġvac":10421,"Ġopened":10422,"ĉP":10423,"åŀĭ":10424,"ishes":10425,"ĠçļĦ":10426,"Long":10427,"ĠMor":10428,"jected":10429,"-the":10430,"Ġcorner":10431,"-index":10432,"ĠUs":10433,"ĠLight":10434,"_Try":10435,"ĠDistr":10436,"Ġburn":10437,"moves":10438,"Ġbright":10439,"Selection":10440,"allery":10441,"Ġconference":10442,"Ġidentity":10443,"Ġcommunication":10444,"()->":10445,"fd":10446,"Ġprim":10447,"Ġkeeping":10448,"letters":10449,"onepx":10450,"Look":10451,"Ġbath":10452,"ĠWednesday":10453,"-and":10454,"Ġsegment":10455,"Ġtechnical":10456,"ĠLou":10457,"Ġelection":10458,"_Con":10459,"ĠChinese":10460,"-key":10461,"_ToString":10462,"uty":10463,"Ġmeant":10464,"Ġcloud":10465,"osh":10466,"Ġguard":10467,"Ġmission":10468,"Feature":10469,"Ġok":10470,"Ġquant":10471,"Ġhomes":10472,"Ġdraft":10473,"that":10474,"ĠComparer":10475,"Ġfol":10476,"ĠByte":10477,"Ġbeat":10478,"ĠÂ§":10479,"Ġvariables":10480,"-line":10481,"Ġfocused":10482,"Ġoutcome":10483,"ĠLord":10484,"Ġcreative":10485,"/**":10486,"anta":10487,"Ġtransparent":10488,"-button":10489,"artifactId":10490,"iated":10491,"ĠRiver":10492,"okens":10493,"annels":10494,".IO":10495,"Ġsugar":10496,"\\__":10497,"ĉčĊ":10498,"Counter":10499,"):čĊ":10500,"ĠChristian":10501,"ĠInv":10502,"Ġdied":10503,".view":10504,"ĠJud":10505,"Ð°ÐµÐ¼":10506,"Ġcompl":10507,"Ġextract":10508,"useum":10509,"ĉEntryU":10510,"Ġopacity":10511,"Ġcentury":10512,"ĠStar":10513,"ndef":10514,"Ġcolumns":10515,"_icall":10516,".current":10517,".dart":10518,"_offset":10519,"depend":10520,"/n":10521,"ĠReal":10522,"×ķ×":10523,";i":10524,"arian":10525,"echo":10526,"ools":10527,"ĠFROM":10528,"Ġeditor":10529,"ĠArch":10530,"Ġoverflow":10531,"Ġthanks":10532,"Ġpreviously":10533,"Ġwarning":10534,"ĠBill":10535,"estroy":10536,"TENT":10537,"Ġideal":10538,"æĪĳ":10539,"Ġmatching":10540,"Ġcompetition":10541,"ĠEmp":10542,"Ġmaintenance":10543,"groupId":10544,"Save":10545,"Ġgovern":10546,"serve":10547,"-title":10548,"ohol":10549,"}//":10550,"Ġbur":10551,"Tra":10552,"UD":10553,"Modal":10554,"ĠSupport":10555,"_max":10556,")\"ĊĊ":10557,"Ġplants":10558,"Ġtraffic":10559,"Ġdecor":10560,"Ġlua":10561,"orizontal":10562,"ĠRock":10563,"':Ċ":10564,"Ġchain":10565,"interface":10566,"_func":10567,"ĠValid":10568,"lower":10569,"edom":10570,"Ġstick":10571,"Ġtom":10572,"Ġmodules":10573,"ĠRober":10574,"uated":10575,"ĠIts":10576,"Ġgain":10577,"Ġemotion":10578,"Ġdistrict":10579,"igital":10580,"Ġdepth":10581,"(id":10582,"ĠMart":10583,"ĠDirector":10584,"Ġshowed":10585,"ĠFlorida":10586,"oices":10587,"ä»¬":10588,"Ġalbum":10589,"Pe":10590,"Ġice":10591,"ĠInvest":10592,"Ġagent":10593,"Ġflat":10594,")-":10595,"Ġappe":10596,"ĠUnresolvedVirtualCall":10597,"ĠEngland":10598,"Ġvideos":10599,"Ġearth":10600,"Ġretail":10601,"mag":10602,"ä¸»":10603,"goal":10604,"Ġconven":10605,"Ġprote":10606,"ĠJava":10607,"stmt":10608,"_idx":10609,"SEL":10610,"ĠRad":10611,"estival":10612,"ĠInformation":10613,".remove":10614,"_en":10615,"Mouse":10616,"fin":10617,"_tED":10618,"Ġshowing":10619,"ĠPR":10620,"aler":10621,"Ġhospital":10622,"ione":10623,"amin":10624,"_WRITE":10625,"BDB":10626,",ĊĊ":10627,"å°±":10628,"//Ċ":10629,"Hit":10630,"ads":10631,"Failed":10632,"avigator":10633,"?\"":10634,"ĠMary":10635,".Log":10636,"docs":10637,"Ġdaughter":10638,"Ġmentioned":10639,"POST":10640,"bc":10641,"eff":10642,"ĠNor":10643,"-family":10644,"Ġfear":10645,"Ġdf":10646,"ĠTO":10647,"Ġenable":10648,"_TisRuntimeObject":10649,"mazon":10650,"Ġmusc":10651,"Ġminute":10652,"plic":10653,"Plan":10654,"ÑĢÐ°Ð²":10655,"ĠÐ¼":10656,"-zA":10657,"ira":10658,"ĠHttp":10659,".api":10660,"kind":10661,"ProviderBase":10662,"ĠFDRE":10663,"Ġ*((":10664,"Ġstandards":10665,"ĠRemote":10666,"Names":10667,"Ver":10668,"cohol":10669,"ircle":10670,"Ġtail":10671,"Ġboy":10672,"(str":10673,"æµ":10674,"ĠSmith":10675,"@media":10676,"Ãª":10677,"CppException":10678,"CppExceptionWrapper":10679,"_image":10680,"\")ĊĊ":10681,"(N":10682,"Ġacadem":10683,"Contact":10684,"Ġcra":10685,"âĢ¦Ċ":10686,"Ġ('":10687,"-term":10688,"alysis":10689,"ĠTH":10690,"ĠSocial":10691,"Ġsigned":10692,"CDD":10693,".In":10694,".last":10695,"ĠAbout":10696,"final":10697,"ĉGet":10698,"High":10699,"Ġelim":10700,"Ġspecies":10701,".world":10702,"Ġreader":10703,"Ġparameters":10704,"/F":10705,"Ġdeveloping":10706,"Category":10707,"xis":10708,"ApiSettings":10709,"Ġda":10710,"ĠField":10711,"Ġcommunities":10712,"home":10713,"ĠConst":10714,"Ġdecisions":10715,"success":10716,".Job":10717,"-bl":10718,"Ġhang":10719,"Ġpsych":10720,"ĠPet":10721,"Auth":10722,"Ġcompute":10723,"Vertex":10724,"ĠSun":10725,"Ġluck":10726,"Ġwine":10727,"ĠTheir":10728,"å½ĵ":10729,"cut":10730,"plicit":10731,"iform":10732,"Ġdecades":10733,"Ġcontinues":10734,".\"\"\"Ċ":10735,"Day":10736,"icies":10737,"%%":10738,"spacing":10739,"lets":10740,"ĠUSA":10741,"Trail":10742,"ĠMax":10743,"aped":10744,"async":10745,"ĠAuthor":10746,"ĠClub":10747,"phas":10748,"ĠØ¨":10749,"ä¹ĭ":10750,"Headers":10751,"ola":10752,"Ġimpress":10753,"ĠEducation":10754,"ä¿¡":10755,"ĠCentral":10756,"func":10757,"urer":10758,"ÑĢÐ¸":10759,"ĠNS":10760,"Ġdecide":10761,"ĠDi":10762,"username":10763,"ĠCall":10764,"ĠCorp":10765,"Ġparties":10766,"Background":10767,"erializationInfo":10768,"JobFunction":10769,"ÐºÐ°":10770,"retch":10771,"******":10772,"æĵį":10773,"ensity":10774,"ĠOnline":10775,":before":10776,"Ġdepartment":10777,"ĠSelect":10778,"ĠEnc":10779,"-L":10780,"but":10781,"roud":10782,"tocol":10783,"Ġswe":10784,"stringLiteralE":10785,"fast":10786,"Ð¾ÑĤ":10787,")+":10788,"WORD":10789,"_buffer":10790,"Ġdestroy":10791,"bd":10792,"Ġseg":10793,"=center":10794,"_Write":10795,"stic":10796,"-app":10797,"arc":10798,"handle":10799,"ĠProperty":10800,"ynchron":10801,"Ġlau":10802,"ĠDE":10803,"ĠSoft":10804,"\\config":10805,"Ġ\",":10806,"Price":10807,"éĿ¢":10808,"ktop":10809,"ĠCamp":10810,"Ġgeneration":10811,"oses":10812,"(function":10813,"ĠStand":10814,"Ġfootball":10815,"Ġfashion":10816,"ĠBay":10817,"ĠVALIGN":10818,"GU":10819,"Ġcivil":10820,"(w":10821,",,":10822,"ê¸":10823,"Ġexhib":10824,"(\"/":10825,"æĵįä½ľ":10826,"Down":10827,"Ġheading":10828,"ë¡ľ":10829,"itionally":10830,"Ġsurvey":10831,"<int":10832,"Ġhel":10833,"Document":10834,"Î·":10835,"iciency":10836,"_on":10837,"ĠPerson":10838,"stateMachine":10839,"(context":10840,"ita":10841,"TICS":10842,".TextCore":10843,"Ġleaving":10844,"BL":10845,"icken":10846,"ĠCard":10847,"Ġyes":10848,"execute":10849,"Yes":10850,"Ġpray":10851,"Ġleaves":10852,"âĢĿ,":10853,"Ġpositions":10854,"_TextProcessingStack":10855,"ĠFoundation":10856,".len":10857,"ĠLine":10858,"Ġdynamic":10859,"'],":10860,"part":10861,"ĠWater":10862,"berg":10863,"oyal":10864,"Ġslide":10865,"Deployment":10866,"ç´ł":10867,"rey":10868,")).":10869,"_remove":10870,"timestamp":10871,".map":10872,"Ġprincipal":10873,"Ġrelationships":10874,"bers":10875,"token":10876,"æŃ¤":10877,"FT":10878,"ĠConvert":10879,"ette":10880,"Ġreplace":10881,"Ġresource":10882,"(result":10883,"ITE":10884,"sql":10885,"ĠPoint":10886,"Helpers":10887,"Full":10888,"{//":10889,"_input":10890,"Ġrid":10891,"Ġrelax":10892,"/problem":10893,"Ġbon":10894,"ĉColor":10895,"Ġ++":10896,"Ġdelay":10897,"_usd":10898,"lie":10899,"Ġdistribution":10900,"chor":10901,"æĽ":10902,"imp":10903,"Ġperformed":10904,"Â®":10905,"Ġtit":10906,"BO":10907,"Ġcraft":10908,"ano":10909,"ĠContent":10910,"ĠPal":10911,"_out":10912,"ascript":10913,"Ġrare":10914,"Widget":10915,"DOCUMENT":10916,"âķ":10917,"istent":10918,"(){Ċ":10919,"ĠInstitute":10920,"áĢºáĢ":10921,"{\\":10922,"Ġsounds":10923,"FO":10924,"icip":10925,"rot":10926,"apse":10927,"uracy":10928,"crates":10929,"Ġprepared":10930,"Ġodd":10931,"omas":10932,"Ġvill":10933,"Ġthousands":10934,"ĠTher":10935,"_tDB":10936,"Ġ{'":10937,"-direction":10938,"ĠMal":10939,"ĠControl":10940,"ä¾ĭ":10941,"LP":10942,"_Start":10943,"SZ":10944,"Single":10945,"Ġsmooth":10946,"Ġnavigator":10947,"_pct":10948,"Ġwedding":10949,"ĠLicense":10950,"ye":10951,"ĠMap":10952,"===":10953,"Ñī":10954,"Ġnom":10955,"ga":10956,"va":10957,"Ġegg":10958,"Press":10959,"emit":10960,"ĠonClick":10961,"uzz":10962,"ODO":10963,"RETRY":10964,"å¤ļ":10965,"PI":10966,"|--------":10967,"Ġcorrection":10968,"emy":10969,"-step":10970,"Ġscientific":10971,"AnimationSystem":10972,"ido":10973,"Since":10974,".ValueTuple":10975,"/ĊĊ":10976,"Ġpassion":10977,"Ġcombination":10978,"GB":10979,"erce":10980,"ddl":10981,"about":10982,"Ġraised":10983,"Ġexperts":10984,"Å¡":10985,"ĠSam":10986,"Ġprocesses":10987,".list":10988,"Ġconflict":10989,"Ġdecre":10990,"ĠLook":10991,"PlayFabSettings":10992,"plates":10993,"properties":10994,"Ġpresence":10995,"Tracking":10996,"ifts":10997,"ĠBra":10998,"ĠAng":10999,"Ġcasino":11000,"mar":11001,"liance":11002,".color":11003,"Rece":11004,"Ġexchange":11005,"Ġgro":11006,"remoteClient":11007,"icago":11008,"Ġembed":11009,"FormatInfo":11010,"Ġthus":11011,"_require":11012,"Ġ&[":11013,"Ġeth":11014,"ĠSal":11015,"Ġencourag":11016,"posable":11017,"æ¬¡":11018,"Ġ^":11019,"ĠExp":11020,"-pl":11021,"kt":11022,".min":11023,"Ġweap":11024,"ĠBlue":11025,"RAP":11026,"ĠÑģÑĤ":11027,"_BARRI":11028,"oose":11029,"Ġreached":11030,"ĠFood":11031,"TimeSpan":11032,"/css":11033,"oor":11034,"pc":11035,"Finally":11036,".index":11037,"Ġrepe":11038,"odies":11039,"Month":11040,"Ġfurn":11041,"oga":11042,":**Ċ":11043,"isible":11044,"Ġserial":11045,"ador":11046,"Ġship":11047,"Ġintermediate":11048,"Scale":11049,"ĠScience":11050,"del":11051,"gers":11052,"Ġplenty":11053,"byte":11054,"ĠEarth":11055,"ransport":11056,"ĠSQL":11057,"Ġlegisl":11058,"Ġmajority":11059,"Ġstores":11060,"Ġkid":11061,"Ġprepar":11062,".Services":11063,"<IMG":11064,"wire":11065,"ĠDevelopment":11066,"éľĢè¦ģ":11067,"Notification":11068,"ilters":11069,"Ġ[[":11070,">,Ċ":11071,"ç¡":11072,"modal":11073,"itors":11074,"Ġtypically":11075,"Ð¾Ð³":11076,"Border":11077,"Ġ'@":11078,"Ġbecoming":11079,"Ġfunds":11080,"çĶŁ":11081,"Ġpaths":11082,"\\\">":11083,"Ġestate":11084,"=true":11085,"stone":11086,"-full":11087,"Ġadj":11088,"Ġallowing":11089,"(input":11090,"ĠSil":11091,"_res":11092,"ĠIns":11093,"ç¬¦":11094,"-str":11095,"ĠPA":11096,"CppGenericClass":11097,"Ġseemed":11098,".ARFoundation":11099,"Ġmarkets":11100,"SZArray":11101,"éģ":11102,"Ġteaching":11103,"Ġartist":11104,"acle":11105,"/base":11106,"(define":11107,"_STRICT":11108,"ĠMedia":11109,")&":11110,"_BARRIERS":11111,"/index":11112,"Â°":11113,"Ġ'<":11114,"Ġevening":11115,"Transition":11116,"_OffsetPadding":11117,"#ifndef":11118,"ĠImage":11119,"rastructure":11120,"ĠMus":11121,"asket":11122,"aims":11123,".pddl":11124,"Ġfabric":11125,"Ġduration":11126,"Ġphase":11127,"Ġwatching":11128,"lice":11129,"ĠFund":11130,"Loop":11131,"iences":11132,"ima":11133,"ĠAdmin":11134,"Ġsetup":11135,"åĲĳ":11136,"åĪĹ":11137,"Ġpatch":11138,"ĠMatt":11139,"Role":11140,"ashed":11141,"Ġmedium":11142,"Ġanimals":11143,"Ġsnow":11144,"_.":11145,"'h":11146,"(X":11147,"ĠCarol":11148,"DFFC":11149,"_of":11150,"Ġ>>":11151,"Ġexplicitly":11152,"MethodInfo":11153,"ElementTypeCheck":11154,"*)___":11155,"ĠWho":11156,"ĠClick":11157,"Ġimg":11158,"SZArrayNew":11159,".Global":11160,"Ġdedicated":11161,"grees":11162,"TLS":11163,"ĉArrayElementTypeCheck":11164,"Ġ#(Ċ":11165,"Ġemployee":11166,"_GET":11167,"xl":11168,"Ġadapt":11169,"Compare":11170,"ofspectrum":11171,"åĩ½":11172,".worldofspectrum":11173,"-ex":11174,"Ġslave":11175,"èĩª":11176,"sv":11177,"iance":11178,"cean":11179,"Ġours":11180,"ĠGovernment":11181,"_base":11182,"Ġmanaged":11183,"Free":11184,"<DD":11185,"ĉD":11186,"Ġposts":11187,"Ġparam":11188,"iture":11189,"è¾ĵ":11190,"aks":11191,"Under":11192,"ented":11193,"Ġdespite":11194,"ĉText":11195,"Eb":11196,"Ġsalt":11197,"_tDF":11198,"ĠCA":11199,"Channel":11200,"Ġrepl":11201,"Ġpurs":11202,"Ġshopping":11203,"_NAME":11204,"site":11205,"ĠDemocr":11206,"Ġ}čĊčĊ":11207,"ĠAlthough":11208,"ISTICS":11209,"Ġmach":11210,"ĠEngine":11211,"(problem":11212,"Ġdream":11213,"udent":11214,"Ġclassic":11215,"ĠAfrica":11216,"Ġsouth":11217,"_Key":11218,"Well":11219,"istan":11220,"Ġreportable":11221,"Ġwinter":11222,"ĠMex":11223,"_X":11224,"Ġdesc":11225,"-level":11226,"ArrayIterator":11227,"Ġwest":11228,"ĉĉĉĉĉĉĉĉĉ":11229,"CastclassClass":11230,"Ġnorth":11231,"[Your":11232,"Ġorders":11233,"ĠNode":11234,"FI":11235,"ÐµÐ»":11236,"Ġbackward":11237,"_LOGISTICS":11238,"Ġoperator":11239,"Ġvector":11240,"locked":11241,"ÏĢ":11242,"ĠLike":11243,"ĠCEO":11244,"Effect":11245,"ntax":11246,"Ġdownto":11247,"=white":11248,"Ġbuying":11249,"Ġspending":11250,"ĠObama":11251,"NVDA":11252,"Ġsector":11253,"access":11254,"opped":11255,"aciÃ³n":11256,"Identity":11257,"Ġtrial":11258,"OCK":11259,"riven":11260,"Ġrecover":11261,"Ġsch":11262,"ivo":11263,"-mail":11264,"iliar":11265,"Ġsympt":11266,"Ġbott":11267,"cf":11268,"ĠBigDecimal":11269,"Ġton":11270,"ä¸İ":11271,".active":11272,"ĠBre":11273,"arnings":11274,".Internal":11275,"(object":11276,"ju":11277,"Ġtip":11278,"omatic":11279,"abin":11280,"ĠkeyLabels":11281,"Ġchoices":11282,"å¼Ģ":11283,"Ġworry":11284,"åĩ½æķ°":11285,"lot":11286,"ĠKeep":11287,"ĠOutlook":11288,"Tensor":11289,"Ġreset":11290,"Rule":11291,"Ġspecifically":11292,"Ġlinear":11293,"nable":11294,"Ġhonest":11295,"eln":11296,"Ġslightly":11297,"Ġpractices":11298,"uminate":11299,"Ġpresentation":11300,"Ġgarden":11301,"ĠFre":11302,"Another":11303,"ITY":11304,"Ġarran":11305,"_Read":11306,"ixel":11307,"irgin":11308,"Ġlat":11309,"å¸¸":11310,"element":11311,"Ġaccur":11312,"Ag":11313,"Ġwilling":11314,"otic":11315,"Ġended":11316,"Ġce":11317,"mul":11318,"Ġfamous":11319,"CO":11320,"åı·":11321,".Action":11322,"ì§":11323,"Ġtight":11324,"Ġfee":11325,"ĠSearch":11326,"Route":11327,"math":11328,"Ġ[]},":11329,"Ġalternative":11330,"ĠGeorge":11331,"æ±":11332,"Ġagreement":11333,"van":11334,"Ġchat":11335,"Ġapplicable":11336,"Ġbird":11337,"Dispatch":11338,"azy":11339,"Ġrecommended":11340,"May":11341,"invoker":11342,"Ġsenior":11343,"Jackson":11344,"Ġdat":11345,"Ġincorrect":11346,"aching":11347,".title":11348,"emon":11349,"zo":11350,".IntPtr":11351,"ĠGr":11352,".info":11353,"cre":11354,"ĠTom":11355,"riev":11356,"loor":11357,"å¼ķ":11358,"<li":11359,"<dd":11360,"=False":11361,"uries":11362,"]ĊĊ":11363,"Ġrecipe":11364,"hr":11365,"ELD":11366,"/article":11367,"ĠTake":11368,"ĠBO":11369,"Ġanimation":11370,"Ġtrigger":11371,"ç¬¬":11372,"Ġsexual":11373,"Ġconclusion":11374,"anda":11375,"slot":11376,"rance":11377,".StylePropertyAnimationSystem":11378,".put":11379,"Ġlisted":11380,"Ġcalendar":11381,"Ġdegrees":11382,"Ġchemical":11383,"UP":11384,"_head":11385,".Xml":11386,"Ġcitiz":11387,"imb":11388,"Insert":11389,"Ġsorted":11390,"loader":11391,"ĠElect":11392,"\\d":11393,"Ġmeal":11394,"ovie":11395,"MethodBuilderCore":11396,"éĹ®":11397,"è±":11398,".iter":11399,"Ġpin":11400,"Ġcombined":11401,"ĠYes":11402,"Ġcandidate":11403,"âĢĿ.":11404,"rivers":11405,"Ġmotor":11406,"_sp":11407,"Letters":11408,"Ġneighbor":11409,"ĠSolve":11410,"Ġoccurre":11411,"ernedString":11412,"unched":11413,"xx":11414,"Ġpor":11415,"Ġrevision":11416,"Ġconstruct":11417,"Ġunknown":11418,"Ġ..":11419,"ĠToday":11420,"EAR":11421,"Ġcreation":11422,"Ġjournal":11423,"Ġloan":11424,"door":11425,"Ġrestaurant":11426,".*":11427,"Ġsequence":11428,"week":11429,"Author":11430,"pop":11431,"ometry":11432,"ç³»ç»Ł":11433,"<dt":11434,"preter":11435,"ĠMusic":11436,"amed":11437,"VAL":11438,"Ġproceed":11439,"Year":11440,"rackableId":11441,"Just":11442,"Ġsusp":11443,"Remove":11444,".cpp":11445,"Ġauthors":11446,"$s":11447,"Ġcris":11448,"BS":11449,"Ġwebsites":11450,"undle":11451,"Ġsect":11452,"Ġ----------------------------------------------------------------":11453,"ĠAdvanced":11454,".close":11455,".LowLevel":11456,"ĠFranc":11457,"âķĲ":11458,"Ġlogin":11459,"Ġlab":11460,"loop":11461,"Ġproperly":11462,"reek":11463,"rene":11464,"çĽ®":11465,"æ¨¡":11466,"_source":11467,"(j":11468,"ena":11469,"Trackable":11470,"Ġfilled":11471,"Ġveget":11472,"iration":11473,"ĠCommission":11474,"ĠTre":11475,"cluding":11476,"åŃĲ":11477,"æ¯ı":11478,"ste":11479,"Ġbought":11480,"ĠTable":11481,"Ġdict":11482,"legal":11483,"Ġimportance":11484,"Ġsustain":11485,"NG":11486,"_TO":11487,"/************************************************************************/Ċ":11488,"jango":11489,"aters":11490,"Ġtopic":11491,"Ġpod":11492,"ëĬ":11493,"Ġctx":11494,"ĠAlex":11495,"placement":11496,".has":11497,"Ġelif":11498,">\\;Ċ":11499,"MoveNext":11500,"ki":11501,"ĉArgumentNullException":11502,"ĠUnion":11503,"ĠArrayList":11504,")(___":11505,"})Ċ":11506,"require":11507,"Ġconcent":11508,".User":11509,"ermission":11510,"Ġsides":11511,"ĠAS":11512,"è±¡":11513,"Drag":11514,"_min":11515,"\">ĊĊ":11516,"submit":11517,"kin":11518,"OUR":11519,"_fl":11520,"cb":11521,"Ġcontrols":11522,"ushed":11523,"åħĥç´ł":11524,"Ġposted":11525,"Ġparser":11526,"deg":11527,"dropdown":11528,"olute":11529,"Īĺ":11530,"ĠGen":11531,"ĠMass":11532,"Ġlaws":11533,"Ġenvironmental":11534,"throw":11535,"-day":11536,"-chart":11537,"_mask":11538,">{":11539,"Ġwalking":11540,"_tEF":11541,"Ġperspect":11542,"Ġ=Ċ":11543,"izable":11544,"Ġdetailed":11545,"Ġcorrespond":11546,"âĢĺ":11547,"Ġdispatch":11548,"Ġmig":11549,"ĠLin":11550,"}ĊĊĊ":11551,"Bag":11552,"ĠHall":11553,"ĠStream":11554,"Ġfle":11555,"Fin":11556,"distance":11557,"ĠTer":11558,"Ġreaders":11559,"Ġstrict":11560,"ART":11561,"inated":11562,"SELECT":11563,"DR":11564,"Ġchecked":11565,"ĠCommunity":11566,"ĠSpring":11567,",'":11568,"rading":11569,"Ġcrime":11570,"-free":11571,"got":11572,"Ġvan":11573,"virt":11574,"Ġregistered":11575,"ĠLast":11576,"ĠMer":11577,"inkoff":11578,"Ġglad":11579,"Ġsuc":11580,"fortunately":11581,"ĠBoth":11582,"Storage":11583,"_Await":11584,"Ġamb":11585,"Instant":11586,"Ġmental":11587,"ĠDA":11588,"About":11589,"JSON":11590,"ĠSpecial":11591,"Ġpolicies":11592,"-se":11593,"EFAULT":11594,"Ġabsolutely":11595,"Ġalle":11596,"uations":11597,"ĠPlayer":11598,"Ġmetr":11599,"OUNT":11600,"Ġasks":11601,"_un":11602,"_AwaitUnsafeOnCompleted":11603,"Ġtruck":11604,")?":11605,"Ġofficials":11606,"cm":11607,"win":11608,"rgan":11609,"Ġchair":11610,"Ġcoup":11611,"ecurity":11612,"Ġsurg":11613,"Ġ''":11614,"Ġdetect":11615,"uable":11616,"iour":11617,"ç©":11618,"ounce":11619,"ĠHill":11620,"()\\":11621,"ibration":11622,"AsyncResult":11623,"faces":11624,"Ġfacilities":11625,"æĸ¹æ³ķ":11626,"Ġmetal":11627,"Ġnovel":11628,"uous":11629,"Ġrooms":11630,"Ġsud":11631,"ĠPen":11632,"erval":11633,"Ġoccasion":11634,"Ġdiscussion":11635,"Ġexcited":11636,"Ġ'/":11637,"Ġoccur":11638,"Ġhyd":11639,"queue":11640,"_DE":11641,"Ġlas":11642,"GO":11643,"Ġhar":11644,".db":11645,"=\"../../../../../":11646,".div":11647,"ĠĠĠĠĠĠĠĠĠĠĠĠĠĠĠĠĠĠ":11648,"Car":11649,"Find":11650,"Ġscr":11651,".time":11652,"åĪĻ":11653,"æŃ¥":11654,"/components":11655,"\\boxed":11656,"()`":11657,".test":11658,"_score":11659,")),Ċ":11660,"Ġsharing":11661,"âķĲâķĲ":11662,"Ġ'\\":11663,"Ġgest":11664,"Ġ\"$":11665,"Ġcommands":11666,"Ġsongs":11667,"Ġinjury":11668,"orry":11669,"Ġfemale":11670,"ĠMount":11671,"Ġentries":11672,"roadcast":11673,"×Ļ×":11674,"_version":11675,"ĠHave":11676,"ħį":11677,"delete":11678,"rical":11679,"Ġcrowd":11680,"ĠstrategyId":11681,"olic":11682,"Ġnumerous":11683,"ĠMo":11684,"Most":11685,"ĠFont":11686,"Ġrain":11687,"éĩį":11688,"æľº":11689,"ÐºÐ¸":11690,"/B":11691,"~~":11692,"éĥ":11693,"TypeU":11694,"Ġleadership":11695,"Ġvict":11696,"Ġinvoke":11697,"ras":11698,"isters":11699,"ommand":11700,"ĠHTML":11701,".'":11702,"Fallback":11703,"ĠMad":11704,"oned":11705,"elines":11706,"ĠExpression":11707,"Ġmostly":11708,"Ġthoughts":11709,"Ġ.Ċ":11710,"Ġtechniques":11711,"<CENTER":11712,"west":11713,"Ġproud":11714,"ĠThink":11715,"parameters":11716,"Assembly":11717,"Every":11718,"Graph":11719,"éĺ":11720,"ĠTR":11721,"Ġvote":11722,"@end":11723,"iden":11724,"Ġdinner":11725,"game":11726,"ĉun":11727,"Ġhash":11728,"ATCH":11729,"_Make":11730,"quare":11731,".base":11732,"odd":11733,"Ġshadow":11734,"toString":11735,"tv":11736,"æ²":11737,"Ġtough":11738,"Ġcircum":11739,"tics":11740,"Ġstated":11741,"Ġjoint":11742,"/info":11743,"DAFA":11744,"rast":11745,"urb":11746,"ĠCup":11747,"Ġeating":11748,"Ġeventually":11749,"æĹ¶éĹ´":11750,"(Exception":11751,"Download":11752,"MO":11753,"Ġengineer":11754,"missions":11755,"Ġexamples":11756,"Ġunavailable":11757,"ategor":11758,"Ġopinion":11759,"Batch":11760,"áĦ":11761,"poses":11762,"ĠIndustr":11763,"Host":11764,"áħ":11765,"Ġcities":11766,"ials":11767,"Ġminor":11768,"pass":11769,"ĠSecret":11770,"okes":11771,"Tech":11772,"itics":11773,"Ġmoves":11774,"ĠNOW":11775,"Ġheaders":11776,"Ġconcerns":11777,"NI":11778,"Ġconversation":11779,"ĠAmazon":11780,"ĠIsland":11781,"\"I":11782,"ĉmethod":11783,"lik":11784,"Ġwindows":11785,"yan":11786,"Ġride":11787,"ommod":11788,"\")]Ċ":11789,"Ġresidents":11790,".Content":11791,"}:":11792,"Coll":11793,"åĲĪ":11794,"ĠTimes":11795,"_aclk":11796,"Ġmath":11797,"Ġrequests":11798,"ĠLUT":11799,"irms":11800,"ĠMember":11801,"Ġmatrix":11802,"Ġfunding":11803,"abet":11804,"Ġputting":11805,"Ġboost":11806,"æĪ·":11807,"<img":11808,"Raycast":11809,"ĠMemory":11810,"ingly":11811,"Ġaria":11812,"Ġletters":11813,"Ġinstant":11814,"Ġconcise":11815,"Ġsucceed":11816,"-D":11817,"rypto":11818,"ĠGrand":11819,"ervlet":11820,"Ġmarked":11821,"ounded":11822,"Ġcle":11823,"Files":11824,"ensed":11825,"Ġreduced":11826,"%(":11827,"Ġwhom":11828,".Tensor":11829,"èĢĮ":11830,"additional":11831,"à¤¾à¤":11832,"Ġfuel":11833,"Ġforces":11834,"ĠRo":11835,"ĠHead":11836,"TS":11837,"Ġdrag":11838,"Ġagency":11839,"attr":11840,"ĊĊĊĊ":11841,"{ĊĊ":11842,"ĠNote":11843,"Ġsentence":11844,"mean":11845,"Ġcfg":11846,"Ġtasks":11847,"íķĺ":11848,"ë¥":11849,"**)&((":11850,"ĠRight":11851,"éĥ¨":11852,"Ġment":11853,"Ġbattle":11854,"ĠSou":11855,"ĠTitle":11856,"BEED":11857,"orders":11858,"Ġ{{":11859,"Ġbrings":11860,"ĉPlayFabApiSettings":11861,"Ġfriendly":11862,"lands":11863,"ĉAsync":11864,"Ġtaste":11865,"Parallel":11866,"Ġexpensive":11867,"Ġtrading":11868,"Ġessay":11869,"_or":11870,"alert":11871,".cfg":11872,"çŁ":11873,"++;Ċ":11874,"Ġselling":11875,"Ġprofessionals":11876,"Ġ=================================":11877,"Ġtables":11878,"Ġcauses":11879,"dk":11880,"losed":11881,"StackTrace":11882,"uard":11883,"Ġsupplied":11884,"ValueImpl":11885,"/Available":11886,"Ġapart":11887,"[:":11888,"aitable":11889,"Activities":11890,"ĠCopyright":11891,"Ġfaster":11892,"Ġaccum":11893,"Then":11894,"awaiter":11895,".office":11896,"Ġcomprehens":11897,"Ġassum":11898,"Ġbrowser":11899,"prog":11900,"emic":11901,"ĠVis":11902,"_context":11903,"à¯Ī":11904,"Ġaccounts":11905,"ĠComplexity":11906,"Å¾":11907,"Ġleads":11908,"reams":11909,"bycompany":11910,"Progress":11911,"-Ċ":11912,".un":11913,".aw":11914,"free":11915,"Ġwinning":11916,"leton":11917,"ĠImp":11918,"?\"Ċ":11919,"ĠBuy":11920,"Ġshel":11921,"Ġteachers":11922,"Ġguests":11923,"Ġdomain":11924,"ĠEnvironment":11925,"/*-":11926,"ommon":11927,"Ġconfirmed":11928,"ĠChicago":11929,"åıĺ":11930,"ĠCongress":11931,"ĠTri":11932,"ĠTree":11933,"Ġtrees":11934,"Ġkilled":11935,"Ġexercises":11936,"zone":11937,"éħį":11938,"ella":11939,"Ġsuit":11940,"otten":11941,"(y":11942,"ĠJack":11943,"reatest":11944,"-menu":11945,"(model":11946,"TCH":11947,"æī§":11948,"åĮº":11949,".call":11950,"prise":11951,"Ġinfluence":11952,"ĠBi":11953,"Ġblocks":11954,"_all":11955,"HA":11956,"uts":11957,"bi":11958,"_tAB":11959,"HEAD":11960,"SK":11961,"aph":11962,"Ġcourses":11963,"Ġfeels":11964,".event":11965,"ĠFA":11966,"-transform":11967,"è®¡":11968,"Ġbold":11969,"ĠBet":11970,"Ġingredients":11971,"NY":11972,"Ġ}}Ċ":11973,"ĠChange":11974,"Ġvalidation":11975,"IV":11976,"plicate":11977,"Ġcalc":11978,"Ġbattery":11979,".now":11980,"________":11981,"Ġsupports":11982,"ĉThe":11983,"omy":11984,"Typ":11985,"ĠCond":11986,"Ġlabor":11987,"ĠSE":11988,"/lib":11989,"sim":11990,"Ġtok":11991,"ĠMont":11992,"ells":11993,"EFEE":11994,"redict":11995,".getElement":11996,"Ġcream":11997,"Ġjoined":11998,"Ġexplore":11999,"resources":12000,"Ġfeedback":12001,"ĠNever":12002,"ocks":12003,"secondary":12004,"IELD":12005,"words":12006,"ĠNet":12007,"/sp":12008,".tinkoff":12009,"Ġdistinct":12010,"EFBE":12011,"Ġspeaking":12012,"-list":12013,"-ch":12014,"ĠFort":12015,"batch":12016,"Ġanimal":12017,"shots":12018,"plays":12019,"rooms":12020,"Ġmarried":12021,"æıĲ":12022,"Move":12023,"ĠST":12024,"Obj":12025,"Ġrise":12026,"Ġholiday":12027,"Pop":12028,"ummy":12029,"Ġcache":12030,"Exchange":12031,"Ġrecovery":12032,"redit":12033,"riting":12034,"Ġentered":12035,"Ġdoubt":12036,"(items":12037,"**)(&((":12038,"git":12039,"Ġmort":12040,"Ġattribute":12041,"Ġusage":12042,"ĠBegin":12043,"However":12044,"ĠTechnology":12045,"iger":12046,"ĠWood":12047,"acked":12048,"ĠUsing":12049,"agement":12050,"Ġplays":12051,"iors":12052,"Ġhandling":12053,"Ġcommitted":12054,"Ġcomplexity":12055,"ĠFull":12056,"ĠFunction":12057,"Ġlocations":12058,"ĠScott":12059,"isco":12060,"-dec":12061,"Ġmovies":12062,"Ġkick":12063,"_SIZE":12064,".insert":12065,".method":12066,"Ġeast":12067,"ĠBer":12068,"Prof":12069,"ĠThanks":12070,"GenericValueImpl":12071,"Ġpure":12072,"icians":12073,"Ð¾Ð±":12074,"DS":12075,"Thumbnail":12076,"Ġbrother":12077,"ĠRobert":12078,"ocity":12079,"Ġusername":12080,"(string":12081,"Ġconsumers":12082,"Ġwaste":12083,"Ġadopt":12084,"Ġassistance":12085,"æī§è¡Į":12086,"dep":12087,"ĠAmericans":12088,"Ġobtain":12089,"cies":12090,".Globalization":12091,":text":12092,"_KEY":12093,"application":12094,"å§":12095,"(null":12096,"-form":12097,"Ġmale":12098,"Ġends":12099,"Ġsport":12100,"ĠLove":12101,"ĠWomen":12102,"Ġdebt":12103,"ifest":12104,"ĠVar":12105,"ĠResponse":12106,"ĠKore":12107,"Two":12108,"udd":12109,"encode":12110,"keywords":12111,"ĠPresent":12112,"Ġreserved":12113,"ĠGl":12114,"Ð°Ð»":12115,"%Ċ":12116,".ReadOnly":12117,"grade":12118,"uled":12119,"Ġsin":12120,"æģ":12121,"ĠWall":12122,"Ġdefine":12123,"_empty":12124,".target":12125,"ĠPlayFabEvents":12126,"Ġupload":12127,"Ġ}ĊĊĊ":12128,"rink":12129,"Ġresponsibility":12130,"-container":12131,"UInt":12132,"params":12133,"ëĭ¤":12134,"&)Ċ":12135,"GA":12136,"Ġmeasures":12137,"ĠRest":12138,"Template":12139,"Ġruntime":12140,".W":12141,"Ġbinary":12142,"ORE":12143,"BTree":12144,"ĠSecond":12145,"Doc":12146,"Ġpun":12147,"Ġholding":12148,"ĠassertThat":12149,"Ġconfidence":12150,"Ġbusy":12151,">\",":12152,"Ġinvalid":12153,"Ġsav":12154,"ĠEns":12155,"ĠGPU":12156,"ĠFrank":12157,"Ġwa":12158,"usal":12159,"Ġchosen":12160,"ĠMono":12161,"sqrt":12162,"Ġcompile":12163,"ArraySortHelper":12164,"Ġarrest":12165,"Ġemphas":12166,"yg":12167,"Ġrom":12168,"_Generic":12169,"ìĬ":12170,".ch":12171,"Go":12172,"IdSlave":12173,"Ġcontents":12174,"Ġbegins":12175,"Bean":12176,"navigator":12177,"Ġstrings":12178,"å®ĥ":12179,"Ġanywhere":12180,"Ġattorney":12181,"Ġprepare":12182,"Ġsymptoms":12183,"draw":12184,"å¤Ħ":12185,"ĠGuide":12186,"long":12187,"Ø§ÙĨ":12188,")$":12189,"Books":12190,"angular":12191,"ĉStringBuilder":12192,"_tCF":12193,"Ð¾Ðº":12194,"high":12195,"ancement":12196,"Ġdefense":12197,"iest":12198,"ala":12199,"ĉValueTuple":12200,"Ġweak":12201,"Ġbeauty":12202,"_tFF":12203,"Ġartists":12204,"Ġexciting":12205,"eper":12206,"Ġnodes":12207,"Ġfollows":12208,"Ġconsumer":12209,"Ġsuitable":12210,"_token":12211,"ĠTor":12212,"ho":12213,"Ġquantity":12214,"ĉPlayFabEvents":12215,")\"]},":12216,"izz":12217,"ï¼ļĊ":12218,"strap":12219,"Ġmilk":12220,"Ġparticipants":12221,"Ġmouth":12222,"Ġhover":12223,"Ġencount":12224,"_j":12225,"Rest":12226,"Ġlogical":12227,"ĠÐ¿Ð¾":12228,"Ġbriefly":12229,"ĠLake":12230,"DataItem":12231,"Ġbroken":12232,"æĥ":12233,"Ġnormally":12234,"Ġoccup":12235,"uz":12236,"Layer":12237,"Ġcopyright":12238,"Ġresolve":12239,"_mBC":12240,"igan":12241,"Ġbelong":12242,"TF":12243,"car":12244,"Ġcultural":12245,"Ġclimate":12246,"umed":12247,"Ġlogger":12248,"Ġtells":12249,"aimed":12250,"Ġgun":12251,"ĠStatus":12252,"Ġappeared":12253,"bin":12254,"Ġapps":12255,"emporary":12256,"Ġappearance":12257,"Ġmt":12258,"Ġkill":12259,"Ġha":12260,"FFED":12261,"sets":12262,"Ġbreath":12263,"uditTrail":12264,"ez":12265,".ID":12266,"Ġroof":12267,"Ò¯":12268,"Ġobl":12269,"ĠCommittee":12270,"hs":12271,"into":12272,"ĠOld":12273,"Ġfif":12274,"Environment":12275,"Ġproviders":12276,"Ġnic":12277,"ĠPeter":12278,"Ġseat":12279,"ikes":12280,"_tEB":12281,"ĠDistrict":12282,"userId":12283,"Ġreplacement":12284,"Global":12285,"ë¦":12286,"ternoon":12287,"Ġtile":12288,"Ġdescribe":12289,"esterday":12290,"\\Cont":12291,"ĠVisualElement":12292,"(!":12293,"Ġhunt":12294,"Ġaccident":12295,"sect":12296,"Ġadvance":12297,"record":12298,"Ġsupporting":12299,"Ġmur":12300,"Ġgam":12301,"ĠNullable":12302,"Ġaffected":12303,"ucket":12304,"ç©º":12305,"Ġgender":12306,"Ġalcohol":12307,"rian":12308,"))));Ċ":12309,"gregate":12310,"ĠDuring":12311,"_and":12312,"Ġsitting":12313,"eler":12314,"Ġtotally":12315,"ilation":12316,"ĠRect":12317,"USH":12318,"ruit":12319,"Ġreconc":12320,"ĠSingle":12321,"ĠĠĠĠĠĠĠĠĠĠĠĠĠĠĠĠĠĠĠĠĠĠĠĠ":12322,"Main":12323,"Ġrub":12324,"Ġseq":12325,".\"]</":12326,"_group":12327,"rants":12328,"Ġsumm":12329,"ĠGerman":12330,"entials":12331,"loss":12332,"ĠFrance":12333,"ĠSing":12334,"PASSWORD":12335,"si":12336,"ØŃ":12337,"Actions":12338,".sun":12339,"Ge":12340,"Ġconstructor":12341,"Ġexceed":12342,".Event":12343,"));ĊĊ":12344,"_ids":12345,"Ġdepending":12346,"åĬ¡":12347,"ìĦľ":12348,"Statement":12349,".update":12350,"/st":12351,"Ġwrap":12352,"ĠLos":12353,"ĉEqualityComparer":12354,"Ġpurposes":12355,"(UnityEngine":12356,"Ġcompare":12357,"acher":12358,"Ġsigns":12359,"åĲ«":12360,"Ġabsence":12361,"ĠVol":12362,"_hi":12363,"ĠÄ":12364,"Ġfold":12365,"/Invoke":12366,"aret":12367,"Ġflight":12368,"han":12369,"ĠMa":12370,"Ġfacility":12371,"ĠSizeOf":12372,"ublished":12373,"ÐŁ":12374,"æ¯Ķ":12375,"collect":12376,"Ġstored":12377,"Ġquiet":12378,"RequestCommon":12379,"Ġtypename":12380,"Ġourselves":12381,"ĠLand":12382,"Ġshipping":12383,"Ð¸Ð¼":12384,"HTTP":12385,"help":12386,"Ġnuc":12387,"Ġreverse":12388,"ĠNon":12389,"loyee":12390,"Î¼":12391,"(pop":12392,"MD":12393,"]}<|":12394,"Ġsynthes":12395,")ĊĊĊ":12396,"ĠHas":12397,"åıª":12398,"emble":12399,"Ġintellig":12400,"Ġtargeted":12401,"issue":12402,"ariant":12403,"\\\",\\\"":12404,"Ġ<?":12405,"Ġlit":12406,"eller":12407,"Ġapproved":12408,"FBCB":12409,"Area":12410,"expect":12411,"Once":12412,"Ġpossibly":12413,"adian":12414,"Ġfees":12415,",\\":12416,"ĉvar":12417,"ĠParty":12418,"æŀĦ":12419,"entation":12420,"Ġhypothes":12421,"Ġcorporate":12422,"Ġpatterns":12423,".Name":12424,".google":12425,"gencies":12426,"Ġliqu":12427,".qa":12428,"ĠPass":12429,">čĊčĊ":12430,"ĠFamily":12431,"Ġcleaning":12432,"since":12433,"conf":12434,".input":12435,"alian":12436,"Ġunable":12437,".for":12438,"dev":12439,"ĠHistory":12440,"Ġshut":12441,"Ġstrugg":12442,"Ġvertical":12443,"Ġstrategies":12444,"bal":12445,".Value":12446,":(":12447,"-border":12448,"Ġforced":12449,"é¢ĺ":12450,"ĉArgumentException":12451,"Ġapproximately":12452,"(key":12453,"Ġturns":12454,".config":12455,".global":12456,"Ġmirror":12457,"Ġvariant":12458,"erialize":12459,".message":12460,">\\\"":12461,"hint":12462,"zero":12463,"Ø´":12464,"ĠMaybe":12465,"scale":12466,"/ProviderBase":12467,"pet":12468,"Ġlists":12469,"Ġvisitors":12470,"UIA":12471,"Ġentirely":12472,"Ġtypeof":12473,"Ġrapid":12474,"Ġinterests":12475,"samp":12476,"Ġyouth":12477,"ĠMaster":12478,"outs":12479,">The":12480,"Oh":12481,"Ġnine":12482,"Ġconnections":12483,"odings":12484,"acks":12485,"scious":12486,"ÐµÐ³":12487,"DATE":12488,".Component":12489,"(item":12490,"wap":12491,"uality":12492,".getElementById":12493,"Ġwid":12494,"Ġ}}":12495,"Pad":12496,"uing":12497,"ĠSpec":12498,"ancer":12499,"ĠInteger":12500,"Ġfourth":12501,"Ġfails":12502,"PC":12503,"ocolate":12504,"Ġaspects":12505,"uilt":12506,"ĉEmptyInternalEnumerator":12507,"ĠWal":12508,".position":12509,"azz":12510,"iat":12511,"Ġvent":12512,"ĠHam":12513,"dc":12514,"_table":12515,"Ġlin":12516,"ousel":12517,"Ident":12518,"ĠCost":12519,"resents":12520,"Dr":12521,"ĠContact":12522,"README":12523,"æŁ¥":12524,".query":12525,"vec":12526,"Ġsteel":12527,"_dev":12528,"ĠWatch":12529,"\"))Ċ":12530,"Ġcategories":12531,"Ġspons":12532,"JavaScript":12533,"_Internal":12534,"Ġath":12535,"ĠSaf":12536,"rowser":12537,"Ġmotiv":12538,"oked":12539,"Ġiniti":12540,"éĽ":12541,"original":12542,"Ġpregn":12543,"æĪĳä»¬":12544,"FOR":12545,"Ġqueue":12546,"__;Ċ":12547,"Ġmsg":12548,"EDBE":12549,"Completion":12550,"una":12551,"ĠMel":12552,"Ġowned":12553,"Ġapparent":12554,"Ġcombo":12555,"åįķ":12556,"_backward":12557,"Direction":12558,"ĠManager":12559,"Ġmanner":12560,"andy":12561,"andex":12562,"Ġevaluate":12563,"META":12564,"_ft":12565,"ati":12566,"(push":12567,"reprene":12568,"ailability":12569,"erves":12570,"Ġ_.":12571,"Ġoutline":12572,"Ġappeal":12573,"---Ċ":12574,"Ġsummary":12575,"-auto":12576,"Addr":12577,"Ġcalculations":12578,"\\Http":12579,"jo":12580,"Instruction":12581,".context":12582,"è§£":12583,"<Enumerator":12584,"operation":12585,"cluded":12586,"Ġhousing":12587,"yer":12588,"Ġsty":12589,"ĉInput":12590,"ĠAv":12591,"æĢģ":12592,"IList":12593,"VID":12594,"ĉbreak":12595,"arty":12596,"Ġcolour":12597,"Ġillustr":12598,"ĠAfrican":12599,"è·¯":12600,"ĠBoolean":12601,"nsel":12602,"ugglers":12603,"ĠValley":12604,"ishing":12605,"ĠUnit":12606,"Ġcaught":12607,"Ġ({":12608,"Ġju":12609,"JobHelper":12610,"Ġrigor":12611,"embed":12612,"ĠTur":12613,"Ġserving":12614,"LS":12615,"Ġpitch":12616,"Ġenv":12617,"Convertible":12618,"adge":12619,"Ġnoted":12620,"Ġpromote":12621,"_uri":12622,"sb":12623,"Ġunsafe":12624,"ea":12625,"ĠSort":12626,"ç¼ĸ":12627,"pa":12628,"Ġfamiliar":12629,"Ġrefresh":12630,"prot":12631,"ranslate":12632,"Ġaccommod":12633,"ummer":12634,"Ġworst":12635,"Ġsubscription":12636,"ĠCONTENT":12637,"(java":12638,"Ġfellow":12639,"ĠRequest":12640,"æ®":12641,"allenge":12642,"Ġfruit":12643,"printf":12644,"åĽł":12645,"nergy":12646,"è¯į":12647,"Endpoint":12648,"rav":12649,"_Clear":12650,"_Arg":12651,"åħ¨":12652,"ĠAccount":12653,"ows":12654,"-header":12655,"ĠĠĠĠĠĠĠĠĠĠĠĠĠĠĠĠĠĠĠĠĠĠ":12656,"ographic":12657,"RankException":12658,"éĥ½":12659,"Ġhearing":12660,"_INT":12661,"Ids":12662,"Ġseeking":12663,"Ġbutter":12664,"Ġremind":12665,"Ġgoods":12666,"ĠLeague":12667,"MT":12668,"_label":12669,"Ġmarriage":12670,"Ġtrouble":12671,"Ġconn":12672,"geles":12673,"ĠJo":12674,"ÐµÐ½ÑĤ":12675,"åĿĢ":12676,"Ġpan":12677,"anation":12678,"_direct":12679,"ĉRankException":12680,"Ġrevenue":12681,"_tAC":12682,"oggles":12683,"atable":12684,"-R":12685,"LC":12686,"'].":12687,">>::":12688,"ĠSP":12689,"_memory":12690,"xa":12691,"ician":12692,"ä¿Ŀ":12693,"Ġneighb":12694,"Ġ|ĊĊ":12695,"Ġintroduced":12696,"Meta":12697,"Ġsnapshot":12698,"_free":12699,"Ġimproved":12700,"-run":12701,"Ġconsistent":12702,"atest":12703,"Ġpm":12704,"Ġprev":12705,"Ġcareful":12706,"Ġcriter":12707,"anguages":12708,"XX":12709,"Focus":12710,"ĠMS":12711,"Ġiter":12712,"Ġcancel":12713,"]:":12714,"kg":12715,"encodings":12716,"æį¢":12717,"sclk":12718,"Ġgraphics":12719,"ĠFe":12720,"Ġheads":12721,"?âĢĿ":12722,"Ġhom":12723,"ĠDen":12724,"Ġtreated":12725,"Ġsubmit":12726,"Ġcheap":12727,"ĠAccording":12728,"Ġdiscovered":12729,"-H":12730,"Material":12731,"_types":12732,"(re":12733,"ĠÐ¿ÑĢ":12734,"TC":12735,"outube":12736,"Ġplt":12737,"_raw":12738,"ClassName":12739,"contact":12740,"IDs":12741,"è¢":12742,"ä»İ":12743,"Props":12744,"VisualElement":12745,"Ġspaces":12746,"ĠRussia":12747,"Ġcrim":12748,"Ø¬":12749,"alpha":12750,"drop":12751,"_event":12752,":n":12753,"life":12754,"Ġpasses":12755,"ĠaddonStore":12756,"Ġdogs":12757,"Ġvisited":12758,"hashCode":12759,".string":12760,"ĠIr":12761,"ulo":12762,"Ġvm":12763,"Ġdigit":12764,"Ġcos":12765,".Security":12766,"å®ŀçİ°":12767,"çŃī":12768,"»¿":12769,"ĠBlock":12770,"-toggle":12771,"Ġprison":12772,"Ġreduction":12773,"letter":12774,"Ġscan":12775,"Ġholds":12776,"articipant":12777,"_Re":12778,"Ġtransaction":12779,"Middle":12780,"Ġgranted":12781,"upp":12782,"ups":12783,"ĠGermany":12784,"margin":12785,"Ġelem":12786,"ĠLouis":12787,"Ġsolve":12788,"ĠDescription":12789,"Calendar":12790,"å§ĭ":12791,"Ġenjoyed":12792,"igit":12793,"andle":12794,"_FIELD":12795,"Ġauthority":12796,".Http":12797,"@c":12798,"Ġbreast":12799,"Calc":12800,"ĠJapanese":12801,"CharU":12802,"ĠÐ·Ð°Ð":12803,"ional":12804,"ĠLibrary":12805,"Ġlived":12806,"ifiers":12807,"_status":12808,".xml":12809,"ĠEv":12810,"Ġbrown":12811,"Ġacademic":12812,"Ġdome":12813,"Ġlos":12814,"ĠGal":12815,"Ġstars":12816,"Ġentity":12817,"Without":12818,"Ġunivers":12819,"Ġextend":12820,".Is":12821,"ĠInstead":12822,"ĠAcadem":12823,".max":12824,"_attention":12825,"Ġsau":12826,"Ġdetermined":12827,"itative":12828,"ĠCPU":12829,"Ġplastic":12830,".Thumbnail":12831,"ï»¿":12832,"ĉComparison":12833,"ĠExample":12834,"ĠRussian":12835,"(.":12836,"ìĹĲ":12837,".load":12838,"Ġstopped":12839,"ĠQue":12840,"ĠINT":12841,"large":12842,"Ġtast":12843,"ovid":12844,"Ġinspect":12845,"Ġthr":12846,"è¢«":12847,"ĠWay":12848,".âĢĻ":12849,"Ġresolution":12850,"OUT":12851,"ĠTrack":12852,"Hello":12853,"Ġadults":12854,"Ġdollars":12855,"colab":12856,"Ġfinger":12857,"ĠIndex":12858,"Ġpx":12859,"Ġgreatest":12860,"ĠĠĠĠĠĠĠĠĠĠĠĠĠĠĠĠĠĠĠĠĠĠĠĠĠĠĠĠĠĠĠĠĠĠĠĠĠĠĠĠĠĠĠĠĠĠĠ":12861,"ĠEst":12862,"REE":12863,"ĉt":12864,"Ġsequ":12865,"arks":12866,"ĠAngeles":12867,"craft":12868,"ĠSeries":12869,"ordinate":12870,"ĠConnect":12871,"opp":12872,"learn":12873,"Ġchunk":12874,"Profiles":12875,"_Im":12876,"/js":12877,"Ġagreed":12878,"osc":12879,"Ġidentified":12880,"PO":12881,"\"]Ċ":12882,"ĠLib":12883,"Ø§Ø±":12884,".start":12885,"(get":12886,"Axis":12887,"owner":12888,"eval":12889,"_map":12890,"ĠWhether":12891,"price":12892,"Upload":12893,"<wire":12894,"Ġalpha":12895,"lementation":12896,".se":12897,".content":12898,"_df":12899,"Ġzone":12900,"Ġadministration":12901,"Ġhook":12902,"erman":12903,"TLE":12904,"parse":12905,"ĠWHERE":12906,".join":12907,"Ġvalidate":12908,"rn":12909,"aml":12910,"Ġban":12911,"ĠSO":12912,"Ġcharges":12913,"(*":12914,"ê¸°":12915,"oking":12916,"ValueU":12917,"Ġregistration":12918,"_kv":12919,"SQL":12920,"ĠLead":12921,"çķ":12922,"Ġalgorithm":12923,"ĠShare":12924,"ĠSoftware":12925,"ç¨ĭåºı":12926,"ERROR":12927,"Ġkeeps":12928,"Subs":12929,"_width":12930,"Ġstanding":12931,"Ġwitness":12932,".form":12933,"Bool":12934,"ded":12935,"_pred":12936,"_task":12937,"ĠÐ°":12938,"(st":12939,"VA":12940,"ĠItem":12941,"issing":12942,"onym":12943,"-related":12944,".Model":12945,"ĠLu":12946,"Uri":12947,"çľ":12948,"ĠWhereSelect":12949,"ĠColumn":12950,"Ġignore":12951,"ĠBeach":12952,"According":12953,"Ġspectrum":12954,"Ð¶":12955,"ĠStat":12956,"ĠQuest":12957,"Ġdesire":12958,"çĦ":12959,"ĠBrown":12960,"Ġtherapy":12961,"Success":12962,"ĉGetGenericValueImpl":12963,"ĠChief":12964,"Ġaccepted":12965,"/config":12966,":\"ĊĊ":12967,"Ġfly":12968,"Ġafternoon":12969,"Ġprotein":12970,"utable":12971,"ĉĉĉĊ":12972,"ĠAgain":12973,"Ġsudden":12974,".Expression":12975,"Ġlunch":12976,"DataU":12977,"äºº":12978,"-icon":12979,"Ġspl":12980,"Ġunderst":12981,"idgets":12982,"ĠLAN":12983,"estination":12984,"Ġapi":12985,"Ġinputs":12986,"ĠMedical":12987,"/data":12988,"InputBase":12989,"Ġphil":12990,"Econom":12991,"fc":12992,"Ġmanual":12993,"ĠNativeSlice":12994,"ĠHuman":12995,"Ġperspective":12996,"ni":12997,"/************************************************************************/ĊĊ":12998,"Ġfavour":12999,"ĠSer":13000,"Ġswim":13001,"']Ċ":13002,"Ã¥":13003,"});ĊĊ":13004,"Ġfell":13005,"ĠâĢ¢":13006,"gage":13007,"mosp":13008,"Ġmine":13009,"WriteMemResource":13010,"Ġ\"./":13011,".pr":13012,"ĠJim":13013,"Ġarrived":13014,"Ġthick":13015,"ibilities":13016,"Ġloads":13017,"Ġepisode":13018,"))->____":13019,"Ġdiagn":13020,"ean":13021,"atural":13022,"LowerBound":13023,"hew":13024,"napshot":13025,"Ã¢":13026,"Ġpartial":13027,"Ġcreates":13028,"ali":13029,"umps":13030,"Tags":13031,"Ġinvent":13032,"CEDF":13033,"Ġinterpret":13034,"Ġvehicles":13035,"ëĬĶ":13036,"edge":13037,"Ġcomparison":13038,")]":13039,"uma":13040,"/Crash":13041,"Ġadministr":13042,"Holder":13043,"Vm":13044,"ĠToken":13045,"ECBD":13046,"ĠPrice":13047,"ĠWestern":13048,"è¿Ķ":13049,"effect":13050,"-between":13051,".state":13052,"BEDTLS":13053,"eah":13054,"Ġinn":13055,"aws":13056,"_dec":13057,"Ġlabels":13058,"thread":13059,"ĠRev":13060,"egative":13061,"vertical":13062,"æĽ´":13063,"yes":13064,"Ġincorp":13065,"Registration":13066,"Ġrenew":13067,"-comp":13068,"ĠìĿ":13069,"Ġinflation":13070,"=\"{{":13071,"Rate":13072,"Created":13073,"ĉj":13074,"itutions":13075,"ĠAuto":13076,"Like":13077,"isms":13078,"ĠAnimation":13079,"Ġsupposed":13080,"medium":13081,"_inv":13082,"âĢľWe":13083,"Ġaid":13084,"Ġmyst":13085,"<DT":13086,"osi":13087,"*/ĊĊ":13088,"earing":13089,"Ġpractical":13090,"Ġmeasurement":13091,".table":13092,"################################":13093,"pnt":13094,"Ġbringing":13095,"raise":13096,".width":13097,"appy":13098,"Ġblank":13099,"TaskAwaitable":13100,"ĠSupp":13101,"Ġdelivered":13102,"');ĊĊ":13103,"_color":13104,"ilename":13105,"\">&":13106,"Ġfixture":13107,"UTF":13108,"ĠNY":13109,"txt":13110,"dependency":13111,"&,":13112,"Ġdrugs":13113,"ĠSociety":13114,"Ġrealize":13115,"tab":13116,"-info":13117,"(count":13118,"enumerator":13119,"Ġcited":13120,"Ġdance":13121,"ĠElement":13122,"ValueType":13123,"/Sinclair":13124,"Ġemergency":13125,"ultural":13126,".UIR":13127,"Ġorigin":13128,"Ġexecution":13129,"ĠCollection":13130,"ĠEnergy":13131,"Ġinteraction":13132,"organ":13133,".shape":13134,"oral":13135,"Ġ{}Ċ":13136,"(`":13137,"Ġsignificantly":13138,"Ġcandidates":13139,"_ftn":13140,"=$":13141,"Ġdates":13142,"Ġanswers":13143,"ĠEdge":13144,"ĠMike":13145,"Ġworse":13146,"elegates":13147,"Ġfi":13148,"Ġhers":13149,"Ġrect":13150,"Ġmonitoring":13151,"\\power":13152,".Render":13153,"WEB":13154,"real":13155,"atern":13156,"Ġstretch":13157,"los":13158,"Ġparticipant":13159,"\\powerpnt":13160,"`)":13161,"è¯Ń":13162,"eta":13163,"ĠExplain":13164,"/(":13165,"igation":13166,"vm":13167,"Best":13168,"Ġbranch":13169,"imension":13170,"ĠGir":13171,"Available":13172,"Ġbits":13173,"VG":13174,"ECTION":13175,"recated":13176,"Ġrotate":13177,".\",Ċ":13178,"SD":13179,"_GetLowerBound":13180,"UnBox":13181,"ĉĉĠĠĠ":13182,"ĠProcess":13183,">>Ċ":13184,"Ġhundreds":13185,"-off":13186,"ocab":13187,"Ms":13188,"inations":13189,"Ġrecorded":13190,"Ġvary":13191,"()čĊ":13192,"Ġcarried":13193,"SET":13194,"Face":13195,"non":13196,"ĠAward":13197,"Ġwash":13198,"Ġprocedure":13199,"Adapter":13200,"$$ĊĊ":13201,"?ĊĊ":13202,"_assign":13203,"Ġconsent":13204,"Close":13205,"Serialization":13206,"Ġcitation":13207,"ombine":13208,"/WhereSelectEnumerableIterator":13209,"(request":13210,"Ġratio":13211,"Ġdocumented":13212,"-check":13213,"sort":13214,"Ġencourage":13215,"bert":13216,"vements":13217,"ĠCas":13218,"variant":13219,"âĢľThe":13220,"ç§į":13221,"Ang":13222,"Ġprintf":13223,"é¡µ":13224,"ĠExper":13225,"ĠDoes":13226,"ĠFed":13227,"boolean":13228,"orough":13229,"<h":13230,"QU":13231,"Ġsan":13232,"å¯¹è±¡":13233,"IB":13234,"(res":13235,".\",\"":13236,"_format":13237,"ockets":13238,"Ġtechnologies":13239,"Ġeffectively":13240,"ĠMinister":13241,"Google":13242,"Ġinches":13243,"è¯¥":13244,"ITH":13245,"ĉALIGN":13246,"ĠGetAddressAtUnchecked":13247,"Ġproposed":13248,"ocker":13249,"Ġoccurs":13250,"Cancel":13251,"cpy":13252,"Ġteen":13253,"Ġbigger":13254,".connect":13255,"Ġmatters":13256,"iki":13257,"Ġeducational":13258,"Ġfantastic":13259,"\\\":\\\"/":13260,"bash":13261,"Ġmile":13262,"Ġlon":13263,"ĠServer":13264,"Ġuniversity":13265,"external":13266,"agger":13267,"å¦Ĥæŀľ":13268,"ems":13269,"ĠWil":13270,"Ġunf":13271,"ä½ĵ":13272,"Ġpressed":13273,"_IndexOf":13274,"Ġviolence":13275,"Loader":13276,"itar":13277,"_tDD":13278,"Ġglob":13279,"ç±»åŀĭ":13280,"Ġven":13281,"ĠUsed":13282,"DEX":13283,"Ġìŀ":13284,"/r":13285,"Other":13286,"security":13287,"Ġadjusted":13288,"lat":13289,"Enable":13290,"Ġlaunched":13291,"ĠPowerPoint":13292,"ĠâĶĤ":13293,"Ġadds":13294,"Ġcorrectly":13295,"<font":13296,"Ġroles":13297,"Ġcalculate":13298,"Ġcomprehensive":13299,"-cl":13300,"ÅŁ":13301,"Ġextension":13302,"Ġskip":13303,"uckets":13304,"ĠConfiguredTaskAwaiter":13305,"[-":13306,"ĠRemove":13307,"Hobby":13308,"Ġparallel":13309,"Ġbeach":13310,".Exception":13311,"URI":13312,"ĠDownload":13313,"defaultComparer":13314,"Ġfro":13315,"ĠVirgin":13316,"lar":13317,"onth":13318,"ĉNullable":13319,"Short":13320,"ìĿĦ":13321,"Ġticket":13322,"Ġ$_":13323,"'],Ċ":13324,"(document":13325,"Ġschol":13326,"ĠMot":13327,"ĠMaterial":13328,"Loc":13329,"reens":13330,"Ġ}),Ċ":13331,"Editor":13332,"Ġforeach":13333,"Ġ...Ċ":13334,"Ġaccurate":13335,"urally":13336,"ApiCall":13337,"Ġcommitment":13338,"_sh":13339,"ĠAC":13340,"Ġfreedom":13341,"(contract":13342,"_ad":13343,"ĠNOWRAP":13344,"Ġ)ĊĊ":13345,"Ġconsidering":13346,"ĠGetAtUnchecked":13347,"ĠSetAtUnchecked":13348,"è¿ĶåĽŀ":13349,"ĉAsyncTaskMethodBuilder":13350,"dp":13351,"apper":13352,"Ġdisp":13353,"works":13354,"/cgi":13355,"Ġdepart":13356,"ĠIEnumerator":13357,"EFT":13358,"Ġkinds":13359,"Ġtracks":13360,"Ġtape":13361,"Visible":13362,"Ġchampion":13363,"Ġexcess":13364,"_Buffer":13365,"çĶ¨æĪ·":13366,"gnore":13367,"Ġselector":13368,"ĠSpace":13369,"Ġexplained":13370,"Ġreligious":13371,"Toggles":13372,"_IEnumerable":13373,"Ð°Ð½Ð¸":13374,"ĠHard":13375,"ìĿĺ":13376,"Send":13377,"Ġtheory":13378,"ĠDev":13379,"Ġsole":13380,"gl":13381,"Ġpaying":13382,"erged":13383,"ĠPlus":13384,"ameObject":13385,"ĠBur":13386,"oster":13387,"riendly":13388,".object":13389,"ayment":13390,"Ġtelling":13391,"åľ°åĿĢ":13392,"ĠXR":13393,"[^":13394,"åıĤ":13395,">(((":13396,"olt":13397,"ĠHelp":13398,"een":13399,"Ġscheme":13400,"tures":13401,"Ĥ¨":13402,"ĠiPhone":13403,"Ġstroke":13404,"Ġuna":13405,"Ġnamespace":13406,"ĠÑĥ":13407,"Ġindicate":13408,"Ãł":13409,"Ġcarbon":13410,"ĠBefore":13411,"ĠThomas":13412,"Ġfactory":13413,"Ġreliable":13414,"tvprog":13415,"Ġhabit":13416,");čĊčĊ":13417,">\\\"\\":13418,"imize":13419,"osoph":13420,"_MakeApiCall":13421,"Health":13422,"ãĤ¹":13423,"Ġclock":13424,"Ġê":13425,"Ġconvention":13426,"Ġtea":13427,"\"\\":13428,"Ġvirt":13429,"ontAsset":13430,"/H":13431,"Ã±":13432,"het":13433,"Äĥ":13434,"cks":13435,"PRE":13436,"entries":13437,"Ġminimal":13438,"fill":13439,"æĦ":13440,"ĠMag":13441,"ĠConsole":13442,"è¿Ĳ":13443,"Ġbuildings":13444,"/SinclairUser":13445,"Ġrating":13446,"Ġpand":13447,"Ġtested":13448,"rete":13449,"_CON":13450,"Ġadvertising":13451,"Ġbug":13452,"umin":13453,"agnostics":13454,"ä¸ŃçļĦ":13455,"Ġconcerned":13456,"udo":13457,"ĉWeb":13458,"Ġ\"@/":13459,"Js":13460,"Ġrepresents":13461,"Safe":13462,"Ġwearing":13463,"Ġmagazine":13464,"(path":13465,"Ġfoods":13466,"ĠTODO":13467,"Ġdebug":13468,"Ġreq":13469,"ĠPack":13470,"Ġefficiency":13471,"Ġpredict":13472,"expand":13473,"urers":13474,"éļ":13475,"unning":13476,"-input":13477,"ĠComponent":13478,"åŁº":13479,"ĠSettings":13480,"_we":13481,"(config":13482,"water":13483,"-light":13484,"Ġrough":13485,"Ġterror":13486,"ila":13487,"Ġje":13488,"-image":13489,"kins":13490,"Dict":13491,"Ġcomplic":13492,"rase":13493,"task":13494,"Ġreb":13495,"Cor":13496,"watch":13497,"ĠSelf":13498,"Ġperman":13499,"rolling":13500,"Ġmixed":13501,"------------":13502,"Politics":13503,"aniel":13504,"Ġparking":13505,"Ġclinical":13506,"HS":13507,"ĠMU":13508,"(file":13509,"Ġlux":13510,"ĠTry":13511,"Ġanx":13512,"Ġissued":13513,"Selected":13514,"åĽ¾":13515,"Mask":13516,"ÏĤ":13517,"_tBC":13518,"Ġchief":13519,"DEEA":13520,"axis":13521,"Ġexecutive":13522,".body":13523,".Nullable":13524,"ĠApplication":13525,"ĉJob":13526,"ä¹Ł":13527,"<<":13528,"Ġchecking":13529,"tag":13530,".csv":13531,"];":13532,"Ġperfectly":13533,"iams":13534,"Ð¾Ð½":13535,"ãĥĪ":13536,"tle":13537,"Ġrail":13538,"Ġsoc":13539,"Ġsister":13540,"ierarch":13541,".AdaptivePerformance":13542,"Ġrecognized":13543,"Ġbike":13544,"Ġcloser":13545,"Ġpicked":13546,"æ±Ĥ":13547,"AG":13548,"_dict":13549,"ĠOptional":13550,".height":13551,"ĠByteU":13552,"Media":13553,"Ġpoll":13554,"ĠThread":13555,"Ġforest":13556,"FEBDF":13557,"MB":13558,"Ġsad":13559,"Limit":13560,"ono":13561,"Ġyield":13562,"icroHobby":13563,"utf":13564,"-danger":13565,"ĉdouble":13566,"TITLE":13567,"ãĤĴ":13568,"GUAGE":13569,"Ġlov":13570,"ĠDeb":13571,"Ġprospect":13572,"))\\":13573,"oston":13574,"_AW":13575,"<META":13576,"ĠÑĢ":13577,"å¤į":13578,"_loss":13579,"éĻ¤":13580,"ĠFederal":13581,"Ġreput":13582,"Keys":13583,"-decoration":13584,"Ill":13585,"Ġsessions":13586,"Ġdifferences":13587,"Ġ=================================================================":13588,"spec":13589,"Ġspacing":13590,"ãĥ³":13591,"()).":13592,"ĠRichard":13593,"-min":13594,"_startIndex":13595,"ĠAtl":13596,"å¾Ĺ":13597,"iser":13598,"Ġmotion":13599,"ÐµÐº":13600,"Ġmassive":13601,"Break":13602,"Ġcout":13603,"Ġyellow":13604,"_NO":13605,"å¿ħ":13606,"_mCA":13607,"Ġveter":13608,"Grid":13609,"arity":13610,"Ġemotional":13611,"Ġsignature":13612,"stances":13613,"_TisT":13614,"Ġlinked":13615,"Ġscores":13616,"ansion":13617,"Ġawesome":13618,"Ġpassing":13619,"atings":13620,"ading":13621,"ĠDouble":13622,"Ġcompar":13623,"XML":13624,"igible":13625,".fa":13626,"é«":13627,"_tEC":13628,"Ġisland":13629,"Ġpriority":13630,"Tab":13631,"_read":13632,"ĠCL":13633,"Ġmarker":13634,"Ġtargets":13635,"Ġhue":13636,"oly":13637,"ĠButton":13638,"atforms":13639,"match":13640,"otions":13641,"Symbol":13642,"Money":13643,"fb":13644,"Ð¸ÑĢ":13645,"_PUSH":13646,"EFAD":13647,"Ġdisk":13648,".sf":13649,"Ġnetworks":13650,"Ġpad":13651,"Ġmagazines":13652,"ĠTE":13653,"ivalent":13654,"\"-":13655,"Ġpercentage":13656,"Ġcovers":13657,"ĠGames":13658,"Person":13659,"elly":13660,"Ġformula":13661,"Ġnegot":13662,"Ġmissed":13663,"Ġpump":13664,"Ġrelatively":13665,"Ġexpend":13666,"ÙĲ":13667,"Ġtou":13668,"Ùĥ":13669,"Ġmd":13670,"ĠStrategy":13671,"wner":13672,"urable":13673,"Usage":13674,";}Ċ":13675,"Ġbelief":13676,"review":13677,"Ġcrew":13678,",&":13679,"Ġtro":13680,"ExecuteJobFunction":13681,"Ġfake":13682,"cha":13683,"Ġmoments":13684,"iants":13685,"Ġstructures":13686,"Ġmal":13687,"ĠDown":13688,"Ġrunnable":13689,".Config":13690,"\\state":13691,"Ġsizes":13692,"ĠChris":13693,"Ġtelevision":13694,"à¤¿":13695,"æĹł":13696,"ĠMAX":13697,"Ã½":13698,"ilm":13699,"Ġelev":13700,"-start":13701,"Ġcontrast":13702,"delegates":13703,"Ġfilms":13704,"La":13705,"'ĊĊ":13706,"')ĊĊ":13707,"ulous":13708,"ĠEp":13709,"è°ĥçĶ¨":13710,"ingAccount":13711,"Ġped":13712,"_temp":13713,"Ð¾Ð¹":13714,"heading":13715,"Ġindustrial":13716,"){":13717,"iso":13718,"asters":13719,"riends":13720,"Ġimpossible":13721,"Ġportion":13722,"DECB":13723,"ĠThank":13724,"Ġprefix":13725,"Ġmonthly":13726,"See":13727,"Ġtmp":13728,"ãģĹ":13729,"Ġneighborhood":13730,"æĮģ":13731,"Ġrestrictions":13732,"Med":13733,"escription":13734,"):\\":13735,"Utilities":13736,"Ġcompetitive":13737,"Ġcapture":13738,"_plural":13739,"atile":13740,"Ġmetrics":13741,"Ġlayers":13742,"æ®µ":13743,"Ġcm":13744,"ĠPhase":13745,"Ġsynth":13746,"rick":13747,"ECTOR":13748,"ulty":13749,"Ġincreases":13750,"IME":13751,"_tEE":13752,"Managed":13753,"Ġprops":13754,"ĠOrgan":13755,"ViewController":13756,"Ġcutting":13757,"Ġrecurs":13758,"ĠPrint":13759,"Ġguarantee":13760,"_Ex":13761,"Ġusual":13762,"apply":13763,"ingu":13764,"ĠRa":13765,"acion":13766,"ticle":13767,"Ġatmosp":13768,"ĠStringBuilder":13769,"Ġversions":13770,"Ġâľĵ":13771,"Ġdesigns":13772,"rigger":13773,"èĬĤçĤ¹":13774,"Directory":13775,"dl":13776,"Methods":13777,"ĠGeorg":13778,"Ġking":13779,"atre":13780,"Ġtow":13781,"_PAR":13782,"Expr":13783,"ĠAnother":13784,"Ġcollabor":13785,"ĠWilliam":13786,"_Compare":13787,"sely":13788,"Ġassets":13789,"Ġreject":13790,"imental":13791,"_Al":13792,"Ġskill":13793,"ĠCommun":13794,"append":13795,"_tAF":13796,"Ġshoes":13797,"Ġnoise":13798,"Ġloaded":13799,"Html":13800,"big":13801,"Ġchicken":13802,"Ã¨":13803,"ĠDebug":13804,"rup":13805,"ĠTown":13806,"Ġdefend":13807,"-table":13808,"ensors":13809,"Ġacid":13810,"Ġplate":13811,"Ġcontrolled":13812,"_TR":13813,"hell":13814,"ĠMat":13815,"è¿Ľè¡Į":13816,"Ġimagine":13817,"\\inst":13818,"inning":13819,"aze":13820,"Ġreasonable":13821,"Quantity":13822,"Ġchannels":13823,"cknow":13824,"Ġturning":13825,"Ġdropped":13826,"_log":13827,"ctions":13828,"Ġsurgery":13829,"è¨":13830,"Ġcaret":13831,"Ġfeatured":13832,"quir":13833,"GER":13834,"amber":13835,"Ġattempts":13836,"Follow":13837,"ito":13838,"raine":13839,"ĉd":13840,"Ġassume":13841,"çĶ±":13842,"Ġcrisis":13843,"ĠBraille":13844,"Ġ*/čĊ":13845,".commons":13846,"Ġbrands":13847,"Ġaxis":13848,"generated":13849,"æĶ¹":13850,"Ġofficer":13851,"Ġtur":13852,"enum":13853,"ĠGuid":13854,"-body":13855,"Ġchecks":13856,"Ġarms":13857,"Ġtopics":13858,"Ġhur":13859,"ĠCATCH":13860,"Ġloading":13861,"Ġexecute":13862,"\"].":13863,"-only":13864,".awt":13865,"Ġtokens":13866,"ĠPhys":13867,".Color":13868,"ãģ¾":13869,"ĠFoot":13870,"hus":13871,"ĠAff":13872,"\\Content":13873,"ĠAp":13874,"Ġhappening":13875,"Ġinfrastructure":13876,"ĠEnsure":13877,"Ġcrack":13878,"Ġslots":13879,"Ġdomin":13880,"Ġattributes":13881,"/db":13882,"John":13883,"elocity":13884,"Ġworldwide":13885,"equals":13886,"ĠCase":13887,"ĠJohnson":13888,"ĠMiddle":13889,"Ġdiff":13890,".Store":13891,"some":13892,"ĠRegister":13893,"æº":13894,"_tBA":13895,"Encoder":13896,"Ġbonus":13897,"_assignable":13898,"Sw":13899,"Ġknowing":13900,"region":13901,"lang":13902,"mail":13903,"ulk":13904,"ĠFour":13905,"Ġ{\\":13906,"_DIR":13907,"Pane":13908,"Ð°ÑĢ":13909,"^{":13910,"utors":13911,"åĮħ":13912,"Origin":13913,"Ġlift":13914,"oval":13915,"Ġhardware":13916,"Ġexpertise":13917,"_args":13918,"friend":13919,"Ġtickets":13920,"/Values":13921,"parser":13922,"Ġartifact":13923,"Ġsearching":13924,"ĠKnow":13925,"Plane":13926,"Ġrevealed":13927,"Nav":13928,"derr":13929,"Ġcentre":13930,"Validation":13931,"di":13932,"uv":13933,"iking":13934,"Ġaccessible":13935,"_mode":13936,"CATCH":13937,"Ġinvestors":13938,"åĽ½":13939,".DateTime":13940,"\\\")\\":13941,"Ġ})":13942,"/k":13943,"Ġmeat":13944,".the":13945,"((&___":13946,"ĠObjectU":13947,"Ġdrivers":13948,".clone":13949,"-G":13950,"-ser":13951,"conn":13952,"Ġdocumentation":13953,"Dto":13954,"FIN":13955,"_K":13956,"Ø·":13957,"ëĵ":13958,"igo":13959,"]:Ċ":13960,"iffer":13961,"ĠRender":13962,"ĠMexico":13963,"Ġbread":13964,"metic":13965,"NotFound":13966,"Ġshooting":13967,"edy":13968,"Ġinspired":13969,"Ġsle":13970,"ĠBY":13971,"Ġfacts":13972,"Ġnewsp":13973,"åı£":13974,"erving":13975,"Ġcommission":13976,".Jobs":13977,"-like":13978,"<string":13979,"ĠÑĢÐ°Ð²":13980,".random":13981,"ĠProt":13982,"Ġdepends":13983,"rained":13984,"_RDATA":13985,"ipt":13986,"Ø®":13987,"âĦ":13988,"(ex":13989,"ĠMen":13990,"atted":13991,"Ġsurprise":13992,"(array":13993,"Ġcer":13994,"ĠVideo":13995,"Ġcooking":13996,"Ġclipboard":13997,"Ġiron":13998,"Ġdisplays":13999,".JToken":14000,"ds":14001,"ĠWild":14002,"Ġ((*(":14003,"ĠPolice":14004,"Ġsac":14005,"Ġshock":14006,"Ġsolar":14007,"ĠJon":14008,"_rdata":14009,",PS":14010,"_message":14011,"fall":14012,"è¶":14013,"-ba":14014,"Ġfeat":14015,"))ĊĊ":14016,"ĠAI":14017,"points":14018,"(max":14019,"ĠCam":14020,"Ġvaluable":14021,"Ġdivision":14022,"eto":14023,"Ġneck":14024,"Ġreceiving":14025,"Ġherself":14026,"\";čĊ":14027,"ĠPac":14028,"Ġjoy":14029,"Ã©s":14030,"relation":14031,"Ġfrequently":14032,"_query":14033,"spring":14034,"Public":14035,"Ġul":14036,"ĠTurn":14037,"DataRef":14038,"<i":14039,"Ġ[],Ċ":14040,"Ġengineering":14041,"Ġagencies":14042,"indices":14043,"Ġinternally":14044,"Ġ[];Ċ":14045,"Need":14046,"ĉVirtual":14047,"Ġplanned":14048,"ĠJoe":14049,"-gradient":14050,"UB":14051,"ĠJose":14052,"-nav":14053,"Ġtypical":14054,"-E":14055,"berry":14056,"achment":14057,"Ġwinner":14058,"Ġoccurred":14059,"Ġinference":14060,"ãģĻ":14061,"Ġcheese":14062,"-action":14063,"_tDC":14064,"uggle":14065,"Ġaffordable":14066,"Ġextended":14067,"éĢļè¿ĩ":14068,"anti":14069,"Slider":14070,"Ã¡s":14071,")))?":14072,"-btn":14073,"Ġattacks":14074,",TR":14075,"Tool":14076,"Ġdataset":14077,"figure":14078,"Ġwer":14079,"Submit":14080,"ruptcy":14081,"Commentary":14082,"Economy":14083,"\\models":14084,".image":14085,"ggo":14086,"Ġvictory":14087,"(o":14088,"Draw":14089,"ssl":14090,"AFDED":14091,"Ġorganic":14092,"Ġfulf":14093,"ĠShould":14094,"theme":14095,"identity":14096,"AttributeDescription":14097,"Ġhistorical":14098,"_api":14099,"Ġwalls":14100,"èĢħ":14101,"FN":14102,"ĠCurrent":14103,"IdMaster":14104,"Ġ/>":14105,"Ġboat":14106,"Ġhandler":14107,"Light":14108,"xAA":14109,"_TisConfiguredTaskAwaiter":14110,"Extension":14111,"Ġbasket":14112,"Scope":14113,"Cnt":14114,"aaa":14115,"Big":14116,"yyc":14117,"Ġreturning":14118,"ĠClaims":14119,"Ġmeetings":14120,"STR":14121,"Inventory":14122,"istence":14123,"PropertyName":14124,"rition":14125,"ĠTarget":14126,"uredTaskAwaitable":14127,"-ind":14128,"Ġbes":14129,"ĠMuseum":14130,"åºĶçĶ¨":14131,"Dir":14132,"kip":14133,"ĠTim":14134,"Ġadventure":14135,"-red":14136,"áĥĿ":14137,"follow":14138,"ods":14139,"Ġsoil":14140,"(arr":14141,"Ġ'#":14142,"Ġrac":14143,"atient":14144,"RRY":14145,"ĠThrough":14146,"{[":14147,"Ġyesterday":14148,"losure":14149,"Ġmathematician":14150,"ĠinvokeData":14151,"Ġcircumstances":14152,".key":14153,".res":14154,"åģ":14155,"Ġri":14156,"itz":14157,"///Ċ":14158,"keep":14159,"Ġsaving":14160,"ĠVersion":14161,"upload":14162,"Scheme":14163,"ĠConference":14164,"åĪĽ":14165,"Ð½ÑĭÐµ":14166,"Ac":14167,"_valid":14168,"Ġresulting":14169,"Ġprinted":14170,"ĠMarketing":14171,"Quest":14172,"-back":14173,"enda":14174,"socket":14175,"Ġspoken":14176,"Join":14177,"ritten":14178,"CBCBD":14179,"inks":14180,"Ġcro":14181,"layers":14182,"Ġprofit":14183,"yytable":14184,"Ġdangerous":14185,"-wrap":14186,"Ġdom":14187,"/pl":14188,"sters":14189,"hab":14190,"Ġtxt":14191,"onic":14192,"amental":14193,"Ġsubstant":14194,"yycheck":14195,"Ġparticipate":14196,"normal":14197,"CDFF":14198,"&lt":14199,"\\message":14200,"dict":14201,"Ġmigration":14202,".setText":14203,"Ð°Ð²":14204,"è½¬":14205,"gar":14206,"comment":14207,".open":14208,"attribute":14209,".InputControl":14210,"Ġdeals":14211,"ĠArts":14212,"Ġstim":14213,"_num":14214,"ĠClient":14215,"Ġoutdoor":14216,"Ġcoast":14217,"Matcher":14218,"_device":14219,"forward":14220,"Ġriver":14221,"ĉthrow":14222,"âĢĮ":14223,"/json":14224,"Ġwra":14225,"Ġol":14226,"Ġgrab":14227,"Ġangle":14228,"ermal":14229,"Ġps":14230,"Ġstatements":14231,"ĠNLW":14232,"Ġpremium":14233,"=/":14234,"Ġwealth":14235,".style":14236,"ë¥¼":14237,"etary":14238,"Ġcv":14239,"Ġforg":14240,"outputId":14241,".\");Ċ":14242,"Example":14243,"generate":14244,"console":14245,"-class":14246,"è¿Ľç¨ĭ":14247,"Ġpil":14248,"Ġ(#":14249,"Will":14250,"orce":14251,"Ġcu":14252,"à¤°":14253,"_values":14254,"ĠÐ´Ð»Ñı":14255,"Ġsuggested":14256,"-op":14257,"Ġdoors":14258,"*((":14259,"Touch":14260,".addthis":14261,"Ġfrequency":14262,"ĠCarolina":14263,"æģ¯":14264,"\"{":14265,"Database":14266,"[str":14267,"Ġmachines":14268,"=xa":14269,"(node":14270,"_CopyTo":14271,".or":14272,"addthis":14273,"forc":14274,"Ġdump":14275,"à¥ĩ":14276,"é«ĺ":14277,"Eval":14278,"(RuntimeObject":14279,"Ġcruc":14280,"TT":14281,"wm":14282,"Ġsurrounding":14283,"Ġfs":14284,"Ġintent":14285,"ĠAsia":14286,"Ġinvestigation":14287,"BM":14288,"_custom":14289,".pop":14290,"Policy":14291,"ĠTax":14292,"Ġ'{":14293,".delete":14294,"Ġelectronic":14295,"Det":14296,"Mar":14297,"ĠJackson":14298,"Ġrowspan":14299,"/R":14300,"Ġlights":14301,"inda":14302,"Ġmanufacturing":14303,"Ġcru":14304,"ĠLP":14305,"China":14306,"Ġ------------------------------------------------------------------------":14307,"ĠTotal":14308,"ĠGraph":14309,"ì§Ģ":14310,"eting":14311,"));":14312,"Ġindeed":14313,"EY":14314,"ĠLive":14315,"ĠCR":14316,">)":14317,"reach":14318,"ĠJeff":14319,"ĠOffset":14320,"/.":14321,"Ġprove":14322,"_Ch":14323,"countR":14324,"_Type":14325,"window":14326,"Ġquote":14327,"gu":14328,"urface":14329,"Ġprecise":14330,"Traits":14331,"Ġfurniture":14332,"Ġwhenever":14333,".save":14334,"_cl":14335,"ournament":14336,"Ġrecommends":14337,"Ġmerge":14338,"_json":14339,"Ð¾Ð·Ð´":14340,"-secondary":14341,"Ġboxes":14342,"Te":14343,"Import":14344,"Ġintegration":14345,"Ġdish":14346,"abling":14347,"idebar":14348,"aboration":14349,"/cont":14350,"ĠCoast":14351,"allerGui":14352,"\\installerGui":14353,"âĦ¢":14354,"ĠBal":14355,"Ġadvoc":14356,"åĳĺ":14357,"Ġrepeated":14358,"_tCA":14359,"ĠHaw":14360,"ĠChildren":14361,"&&":14362,"?,":14363,"Ġnurs":14364,"ĠLoad":14365,".Interpreter":14366,"IE":14367,"core":14368,".send":14369,"ĠAttribute":14370,"(k":14371,"ĠParis":14372,"ĠPolicy":14373,".component":14374,"Ġvit":14375,"ĠThose":14376,"Ġassigned":14377,"prev":14378,"illy":14379,"Fn":14380,"Ġ```":14381,"Ġweekly":14382,"Ġregardless":14383,"Ġappointment":14384,"Ġbind":14385,"raq":14386,"Ġanyway":14387,"ĠArgs":14388,"Ġrestaurants":14389,"ĠCast":14390,"Ġcollected":14391,"Ġsensor":14392,"Ġfort":14393,".mmm":14394,"Ġcounty":14395,"å½¢":14396,"Ġfused":14397,"ĠUk":14398,"ĠJOB":14399,"issions":14400,"å®¹åĻ¨":14401,".env":14402,"ĠHunt":14403,"Ġbuf":14404,"ĠCommon":14405,"LY":14406,"Ġinstitutions":14407,"nic":14408,"editor":14409,"Ġstands":14410,"ĉmargin":14411,"-quality":14412,"Cur":14413,"memory":14414,"uper":14415,"oun":14416,"Ġbear":14417,"à®Ł":14418,"Regular":14419,"ĠTherefore":14420,"(user":14421,"Even":14422,"Mess":14423,"ĉf":14424,"Ġorient":14425,"Ġrepeat":14426,"ĠEmail":14427,"Ġcritic":14428,"\"\"\"Ċ":14429,"ĠMid":14430,"pense":14431,"ĠMartin":14432,"Ġcompens":14433,"aud":14434,"ĉauto":14435,"Heard":14436,"olec":14437,"Ġimprovement":14438,"sign":14439,"arse":14440,"uffers":14441,"Ġresearchers":14442,"ĠTrust":14443,"Ġ-=":14444,"Ġtiny":14445,"Ġrecognition":14446,"po":14447,"ĠDigital":14448,"Generator":14449,"KeyCollection":14450,".ext":14451,"ĠSection":14452,"Ġdisappoint":14453,"\".Ċ":14454,"<FONT":14455,"Execution":14456,"Fixed":14457,"pace":14458,"Ġprotest":14459,"Ġpayments":14460,"Ġtranslation":14461,"Ġcharged":14462,".K":14463,".Admin":14464,"Ġaim":14465,"ĠMobile":14466,"åĨĻ":14467,"Ġinnovative":14468,"ĠSales":14469,"wp":14470,"Own":14471,"iations":14472,"Ġstone":14473,"ä¸¤":14474,"Ġìł":14475,"aternion":14476,"Today":14477,"_files":14478,"Ġformed":14479,"ĠKn":14480,"ĠLANGUAGE":14481,"split":14482,"Ġfra":14483,"/core":14484,"çº¿ç¨ĭ":14485,"lywood":14486,"Ġsubsequ":14487,"Capt":14488,"Second":14489,"\\Admin":14490,"ĠWeight":14491,"à¯įà®ķ":14492,"(D":14493,"_tFE":14494,"Ġpurchased":14495,".On":14496,"ĠDark":14497,"Ġintegr":14498,"Ġsending":14499,"ĠSite":14500,"lymp":14501,"ĠArea":14502,"ĠCLASS":14503,"istema":14504,"Star":14505,"Ġsimpl":14506,"ĠDO":14507,"-dark":14508,"Ġverb":14509,"ĠCou":14510,"umpy":14511,"ĠFinal":14512,"Ġchapter":14513,"character":14514,"Ġperforming":14515,"Ġliquid":14516,"ican":14517,"Ġrear":14518,"ĠStock":14519,"...\"Ċ":14520,"Ġextensive":14521,"ĠPlace":14522,"ĠCanadian":14523,"Ġflowers":14524,"Ġscheduled":14525,"Sync":14526,"Ġlovely":14527,"-k":14528,"Allow":14529,"ClearingAccount":14530,"quant":14531,"prop":14532,"ç¡®":14533,"ĠArab":14534,"Ġaccuracy":14535,"Ġ::":14536,"Ġacknow":14537,"Ġretire":14538,"<B":14539,"ĠCy":14540,"Ġconstantly":14541,"æīĢæľī":14542,"Ġmurder":14543,"Ġabuse":14544,"Ġflavor":14545,"Ġpermission":14546,"Ġtrick":14547,"Ġ??":14548,"ĠBow":14549,"Ġbreakfast":14550,"Ġordered":14551,"Ġgrew":14552,"Ġnoticed":14553,"Ġoverw":14554,"æĺİ":14555,"ĠHotel":14556,"Matrix":14557,"Ġintention":14558,"ennis":14559,"Ġsilver":14560,"Ġregularly":14561,"Ġfacing":14562,"ëł":14563,"ĠĠĠĠĠĠĠĠĠĠĠĠĠĠĠĠĠĠĠĠĠĠĠĠĠĠĠĠĠĠĠĠĠ":14564,"è¡¨ç¤º":14565,"ĠOperating":14566,"Ġsituations":14567,"Ġtyping":14568,".replace":14569,"Ġthreshold":14570,"Ġanc":14571,"Pres":14572,"ĠColl":14573,"Ġboys":14574,"Ġexpos":14575,".of":14576,"_Array":14577,"uan":14578,"ulner":14579,"ignore":14580,"Edge":14581,"Ġentertainment":14582,"_iter":14583,".col":14584,"<TResult":14585,".split":14586,"ĠFrancisco":14587,"Ġshares":14588,"panel":14589,"Ġentreprene":14590,"unsigned":14591,"*Ċ":14592,"ĠClean":14593,"Ġdiss":14594,"Who":14595,".ui":14596,"Ġblow":14597,"ĠPop":14598,"Arm":14599,"Ġgrown":14600,"Art":14601,"_tFC":14602,"ĠSimple":14603,"Center":14604,"ĠMur":14605,"itutional":14606,"ä»£çłģ":14607,"HR":14608,"Ġfo":14609,"}}Ċ":14610,"Ġregions":14611,"Consider":14612,"Distance":14613,"Ġbodies":14614,"Ġunmarshaled":14615,"Ġproof":14616,"shire":14617,"MEM":14618,"Ġlosing":14619,"å®Į":14620,"Ġvisiting":14621,"pecific":14622,"å¢":14623,".Web":14624,"Ġwarn":14625,"tery":14626,"ĠHospital":14627,"ODY":14628,"ĠLevel":14629,".a":14630,"IBU":14631,"ĠAW":14632,"={{":14633,"gypt":14634,"Ġsoul":14635,"=t":14636,"endo":14637,"ĠYoung":14638,"Ġregional":14639,"Ġ:Ċ":14640,"_PA":14641,"ä»»":14642,"ĠPrem":14643,"ODU":14644,"IND":14645,"Await":14646,":||":14647,"ĠJun":14648,"gressive":14649,"Ġprocedures":14650,"ĠNight":14651,"Configur":14652,"ĠPhot":14653,"Ġsick":14654,"Ġlanguages":14655,"PlayFabHttp":14656,"Raw":14657,"isma":14658,"ĠHen":14659,"Ġforth":14660,"ilog":14661,"ĠSports":14662,"iverse":14663,"Ġnearby":14664,"_shape":14665,"_level":14666,"ĠLee":14667,"ĠALL":14668,"],\"":14669,"Ġofficers":14670,"å¤ĦçĲĨ":14671,"IAL":14672,"ela":14673,"Ġmel":14674,"Ġflash":14675,"acket":14676,"Ġincredible":14677,"Bro":14678,"Jan":14679,"ATE":14680,"arantee":14681,"/ch":14682,"Cls":14683,"TYPE":14684,"_line":14685,"Ġawareness":14686,"NativeSlice":14687,"Ġexpectations":14688,"Ġconducted":14689,"Ġarrang":14690,"amount":14691,"ĠUInt":14692,"Ġteeth":14693,"Ġmedicine":14694,"Ġ\".":14695,"Ġhouses":14696,"Human":14697,"cribes":14698,"Ġreaction":14699,"_frame":14700,"\"}},":14701,"Ġsync":14702,"_node":14703,"æĿ¡":14704,"Ġearned":14705,"Ġfolks":14706,".en":14707,"Ġsme":14708,"errors":14709,"Ġgrounded":14710,"<SCRIPT":14711,"Ġsandbox":14712,"ĉVirtualActionInvoker":14713,"ĠLow":14714,"ĠJones":14715,"TITY":14716,"essional":14717,"CRead":14718,"âĸ":14719,"Ġconsequ":14720,"Ġemployment":14721,"ĠStudent":14722,"Ġmand":14723,"abc":14724,"Ġappreciate":14725,"-j":14726,"ĉJobHandle":14727,"estyle":14728,"NU":14729,"umeric":14730,"ä»¤":14731,"Ġlistening":14732,"=[":14733,"Ġ\"+":14734,"ĠDan":14735,"Ġleague":14736,"Ġcontest":14737,"Ġstudio":14738,"Ġdram":14739,"Ġvast":14740,"ĠShort":14741,"Ġportable":14742,"Ġenhance":14743,"ĠIran":14744,"outes":14745,"Ġhousehold":14746,"FR":14747,"ĠStill":14748,"Ġplain":14749,"$,":14750,"Ġserves":14751,":not":14752,"ipshop":14753,"ä¼ł":14754,"Braille":14755,"IST":14756,"ĠDu":14757,"_POP":14758,"Vertical":14759,"èİ":14760,"Ġfairly":14761,"Ġsauce":14762,"Ġwalked":14763,"Ġimmediate":14764,"_IConvertible":14765,"çº§":14766,".getString":14767,".Layout":14768,"_BU":14769,"Ġrisks":14770,"<NOSCRIPT":14771,"ìķ":14772,"çī¹":14773,"Ġdtype":14774,"ĠBoston":14775,".Un":14776,"Ġedition":14777,"åĪĿ":14778,"_Has":14779,"Ġfacilit":14780,".AsyncTaskMethodBuilder":14781,".execute":14782,"Er":14783,"inating":14784,"ĠAdditionally":14785,"Ġlaugh":14786,"Cond":14787,"nam":14788,"Ïħ":14789,"CBBFFA":14790,"IDE":14791,"Ġchocolate":14792,"Uxml":14793,"Ġtaught":14794,"!)":14795,"Ġãģ":14796,"ĠCome":14797,"spi":14798,"Ġupcoming":14799,"ĠCentre":14800,"å¥":14801,"Â·":14802,"_capacity":14803,"_App":14804,"Ð°Ñģ":14805,"Ġdesired":14806,"helf":14807,"_Input":14808,"(((&":14809,"Ġhealthcare":14810,"ospit":14811,".O":14812,"AW":14813,";ĊĊĊ":14814,"ĠJul":14815,"|>{\"":14816,"ycles":14817,"EXT":14818,"Patch":14819,"builder":14820,"Ġbias":14821,"Ġmodes":14822,"Ġcorpus":14823,"Ġchallenging":14824,"Ġjustice":14825,"Ð½Ð¸":14826,"Ġmi":14827,"_marshal":14828,"Ġproduces":14829,"ĠWilliams":14830,".lastname":14831,"Ġcriminal":14832,"ĠTem":14833,"ĠEqu":14834,"share":14835,"Ġcapable":14836,"ĠReadOnlySpan":14837,"typen":14838,"iana":14839,"/class":14840,"Ġdefe":14841,".Binary":14842,"íĺ":14843,"ĠBob":14844,"Ġregul":14845,
[...]
