{"version":"1.0","truncation":null,"padding":null,"added_tokens":[],"normalizer":null,"pre_tokenizer":{"type":"Sequence","pretokenizers":[{"type":"Split","pattern":{"Regex":"[^\\r\\n]*[\\r\\n]*"},"behavior":"Isolated","invert":false},{"type":"ByteLevel","add_prefix_space":false,"trim_offsets":true,"use_regex":false}]},"post_processor":null,"decoder":{"type":"ByteLevel","add_prefix_space":true,"trim_offsets":true,"use_regex":true},"model":{"type":"BPE","dropout":null,"unk_token":null,"continuing_subword_prefix":null,"end_of_word_suffix":null,"fuse_unk":false,"byte_fallback":false,"ignore_merges":false,"vocab":{"!":0,"\"":1,"#":2,"$":3,"%":4,"&":5,"'":6,"(":7,")":8,"*":9,"+":10,",":11,"-":12,".":13,"/":14,"0":15,"1":16,"2":17,"3":18,"4":19,"5":20,"6":21,"7":22,"8":23,"9":24,":":25,";":26,"<":27,"=":28,">":29,"?":30,"@":31,"A":32,"B":33,"C":34,"D":35,"E":36,"F":37,"G":38,"H":39,"I":40,"J":41,"K":42,"L":43,"M":44,"N":45,"O":46,"P":47,"Q":48,"R":49,"S":50,"T":51,"U":52,"V":53,"W":54,"X":55,"Y":56,"Z":57,"[":58,"\\":59,"]":60,"^":61,"_":62,"`":63,"a":64,"b":65,"c":66,"d":67,"e":68,"f":69,"g":70,"h":71,"i":72,"j":73,"k":74,"l":75,"m":76,"n":77,"o":78,"p":79,"q":80,"r":81,"s":82,"t":83,"u":84,"v":85,"w":86,"x":87,"y":88,"z":89,"{":90,"|":91,"}":92,"~":93,"¡":94,"¢":95,"£":96,"¤":97,"¥":98,"¦":99,"§":100,"¨":101,"©":102,"ª":103,"«":104,"¬":105,"®":106,"¯":107,"°":108,"±":109,"²":110,"³":111,"´":112,"µ":113,"¶":114,"·":115,"¸":116,"¹":117,"º":118,"»":119,"¼":120,"½":121,"¾":122,"¿":123,"À":124,"Á":125,"Â":126,"Ã":127,"Ä":128,"Å":129,"Æ":130,"Ç":131,"È":132,"É":133,"Ê":134,"Ë":135,"Ì":136,"Í":137,"Î":138,"Ï":139,"Ð":140,"Ñ":141,"Ò":142,"Ó":143,"Ô":144,"Õ":145,"Ö":146,"×":147,"Ø":148,"Ù":149,"Ú":150,"Û":151,"Ü":152,"Ý":153,"Þ":154,"ß":155,"à":156,"á":157,"â":158,"ã":159,"ä":160,"å":161,"æ":162,"ç":163,"è":164,"é":165,"ê":166,"ë":167,"ì":168,"í":169,"î":170,"ï":171,"ð":172,"ñ":173,"ò":174,"ó":175,"ô":176,"õ":177,"ö":178,"÷":179,"ø":180,"ù":181,"ú":182,"û":183,"ü":184,"ý":185,"þ":186,"ÿ":187,"Ā":188,"ā":189,"Ă":190,"ă":191,"Ą":192,"ą":193,"Ć":194,"ć":195,"Ĉ":196,"ĉ":197,"Ċ":198,"ċ":199,"Č":200,"č":201,"Ď":202,"ď":203,"Đ":204,"đ":205,"Ē":206,"ē":207,"Ĕ":208,"ĕ":209,"Ė":210,"ė":211,"Ę":212,"ę":213,"Ě":214,"ě":215,"Ĝ":216,"ĝ":217,"Ğ":218,"ğ":219,"Ġ":220,"ġ":221,"Ģ":222,"ģ":223,"Ĥ":224,"ĥ":225,"Ħ":226,"ħ":227,"Ĩ":228,"ĩ":229,"Ī":230,"ī":231,"Ĭ":232,"ĭ":233,"Į":234,"į":235,"İ":236,"ı":237,"Ĳ":238,"ĳ":239,"Ĵ":240,"ĵ":241,"Ķ":242,"ķ":243,"ĸ":244,"Ĺ":245,"ĺ":246,"Ļ":247,"ļ":248,"Ľ":249,"ľ":250,"Ŀ":251,"ŀ":252,"Ł":253,"ł":254,"Ń":255,"ĠĠ":256,"ĠĠĠĠ":257,"ĠĠĠ":258,"ĠĠĠĠĠĠĠĠ":259,"er":260,"in":261,"on":262,"--":263,"st":264,"at":265,"re":266,"ĠĠĠĠĠĠĠ":267,"en":268,"or":269,"Ġt":270,";Ċ":271,"le":272,"//":273,"Ġa":274,"se":275,"Ġ=":276,"ar":277,"Ġc":278,"al":279,"it":280,"he":281,"Ġf":282,"de":283,"ĠĠĠĠĠĠĠĠĠĠĠ":284,"Ġp":285,");Ċ":286,"an":287,"----":288,"ion":289,",Ċ":290,"Ġs":291,"Ġ{":292,"me":293,"ut":294,"ct":295,"Ġb":296,"ro":297,"ĊĊ":298,"ing":299,"lo":300,"es":301,"ed":302,"::":303,"ent":304,"Ġ(":305,"Ġi":306,"un":307,"Ġn":308,"Ġ{Ċ":309,"ck":310,"Ġ//":311,"Ġre":312,"ad":313,"Ġ}":314,"Ġthe":315,"Ġm":316,"()":317,"ic":318,"ss":319,"la":320,"pe":321,"Ġw":322,"Ġin":323,"let":324,"Ġ`":325,"Ġ\"":326,"ul":327,"Ġe":328,"te":329,"mp":330,"ĠĠĠĠĠĠĠĠĠĠĠĠĠĠĠ":331,"Ġlet":332,"ur":333,"Ġd":334,"ra":335,"id":336,"et":337,"--------":338,"ate":339,"ig":340,"Ġst":341,"Ġo":342,"âĶ":343,"==":344,"co":345,"sh":346,"ch":347,"âĶĢ":348,"Ġv":349,"is":350,"el":351,")Ċ":352,"ĠS":353,"âĶĢâĶĢ":354,"ce":355,"ame":356,".Ċ":357,"il":358,"_p":359,"_t":360,"32":361,"tr":362,"iz":363,"ol":364,"_b":365,"Ġ*":366,"iv":367,"ter":368,"Ġse":369,"(\"":370,"ot":371,"ĠT":372,"ag":373,"ation":374,"im":375,"um":376,"Ġcon":377,"ert":378,"us":379,"Ġfor":380,"64":381,"sl":382,"ub":383,"am":384,"ĠC":385,"ap":386,"ue":387,"as":388,"ile":389,"Ġ&":390,"Ġg":391,"_s":392,"Ġ-":393,"ction":394,"Ġto":395,"_f":396,"Ġif":397,"ack":398,"Ġ}Ċ":399,"Ġ|":400,"str":401,"con":402,"ode":403,"ens":404,"ex":405,"///":406,"Ġl":407,"Ġde":408,"ĠĠĠĠĠĠĠĠĠĠĠĠĠĠĠĠĠĠĠ":409,"Ġ.":410,"urn":411,"Ġan":412,"ver":413,"all":414,"use":415,"ize":416,"ab":417,"Ġ<":418,"Ġis":419,"Ġ%":420,"Ġh":421,"Ġr":422,"der":423,"----------------":424,"**":425,"ĠN":426,"turn":427,"ĠP":428,"Ġâ":429,"pt":430,"ff":431,"ort":432,"_m":433,"Ġth":434,"ard":435,"int":436,"ist":437,"ase":438,"lf":439,"ype":440,"Ġ+":441,"lock":442,"In":443,").":444,"Ġass":445,"Ġco":446,"!(":447,"lay":448,"one":449,"();Ċ":450,"Ġas":451,"ew":452,"``":453,"and":454,"ensor":455,"Ġ[":456,"od":457,"ult":458,"_d":459,"Ġassert":460,".p":461,"ĠĠĠĠĠĠĠĠĠĠĠĠĠĠĠĠ":462,"====":463,"ĠA":464,"th":465,"est":466,"\",":467,"âĶĢâĶĢâĶĢâĶĢ":468,"ith":469,"ment":470,"ĠR":471,"Ġreturn":472,"ec":473,"ow":474,"Ġex":475,"ĠĠĠĠĠ":476,"if":477,"up":478,"arg":479,"ht":480,">Ċ":481,"li":482,"_c":483,"ĠF":484,"op":485,"rom":486,":Ċ":487,"ine":488,"]Ċ":489,"ly":490,"ure":491,"ive":492,"(&":493,"atch":494,"ect":495,"ĠâĢ":496,"em":497,"ĠâĢĶ":498,"put":499,"Ġand":500,"end":501,"out":502,"orm":503,"ath":504,"}ĊĊ":505,"ight":506,"ĠM":507,"age":508,"Ġon":509,"ĠE":510,"ir":511,"ind":512,"_n":513,"\");Ċ":514,"ror":515,"\")":516,"Ġ=>":517,"ant":518,"ma":519,"ull":520,"test":521,"to":522,"Ġk":523,"Ġ}ĊĊ":524,"00":525,"ity":526,"nsl":527,"ward":528,"che":529,"Ġ///":530,"16":531,"Con":532,"able":533,"ef":534,"Ġ'":535,"ĠD":536,"unt":537,"ata":538,"ime":539,"Ġlo":540,"ĠB":541,"qu":542,"ri":543,"ush":544,"Ġself":545,"ers":546,";ĊĊ":547,"ĠV":548,"par":549,"pr":550,"res":551,"xt":552,"Ġ#":553,"),":554,"ve":555,"fig":556,"red":557,"uil":558,"ok":559,"tx":560,"lic":561,"_v":562,"ust":563,"oc":564,"Ġ->":565,"ran":566,"),Ċ":567,"os":568,"_str":569,"Ġtest":570,"//!":571,"ĠO":572,"odel":573,"Id":574,"ess":575,"head":576,"pp":577,"rad":578,"Ste":579,"_e":580,"Ġal":581,"Ġwith":582,"cc":583,"St":584,"Ġsh":585,"art":586,"Ġun":587,"Ġconst":588,"sp":589,"Ġpub":590,"_id":591,"ta":592,"ign":593,"set":594,"ary":595,"om":596,"Ġpro":597,"alue":598,"Ġu":599,"ĠG":600,"Ġby":601,"Ġstr":602,"Ġout":603,"ep":604,"ca":605,"ĠL":606,"sha":607,"ren":608,"row":609,"mit":610,"Ġof":611,"rit":612,".push":613,"().":614,"Ġme":615,"dd":616,"_w":617,"..":618,"\"Ċ":619,"tes":620,"\",Ċ":621,"nel":622,"yn":623,"eight":624,"ĠW":625,"layer":626,"_re":627,"ial":628,"_ptr":629,"Ġ**":630,"gen":631,"und":632,"_l":633,"Ġit":634,"Ġnsl":635,"ay":636,"ib":637,"ge":638,"rc":639,"Ġfn":640,"ins":641,"act":642,"Ġ/":643,"code":644,"-b":645,"ip":646,"_st":647,");ĊĊ":648,"Ġ_":649,"```":650,"Ġso":651,".r":652,"ost":653,"tern":654,"ĠĠĠĠĠĠĠĠĠĠĠĠĠĠĠĠĠĠĠĠĠĠĠ":655,"(Ċ":656,"tent":657,"ork":658,"##":659,"fa":660,"ates":661,"Ġ==":662,".ĊĊ":663,"Ġat":664,"Ġfrom":665,"_de":666,"12":667,"ition":668,"Ġwh":669,"arget":670,"Ġptx":671,"========":672,"ext":673,"mut":674,"rap":675,"ĠI":676,"()Ċ":677,"pub":678,"Ġcomp":679,"cl":680,"={":681,"_g":682,"new":683,"used":684,".f":685,"Ġbe":686,"pect":687,"--------------------------------":688,"ke":689,"âĶĢâĶĢâĶĢâĶĢâĶĢâĶĢâĶĢâĶĢ":690,"'s":691,"ated":692,"ackward":693,"Ġnot":694,"rd":695,"lass":696,"ud":697,"ption":698,"line":699,"ool":700,"\\Ċ":701,"ome":702,"Ġus":703,"self":704,"mport":705,"Name":706,"_a":707,"alse":708,"10":709,"px":710,"Ġmut":711,"lan":712,"ask":713,"comp":714,"ore":715,"error":716,"own":717,"les":718,"col":719,"yp":720,"Ġ!":721,"Ġres":722,"}Ċ":723,"type":724,";\\":725,"ug":726,"ernel":727,"-s":728,"loc":729,"tring":730,"ua":731,"ree":732,"ĠH":733,"ire":734,".rs":735,"Steam":736,"name":737,"_by":738,"port":739,"Ġper":740,"form":741,"Ġor":742,"Ġstd":743,"aram":744,"oid":745,"ĠU":746,"add":747,"ier":748,").Ċ":749,"Ġblock":750,"ator":751,"oint":752,"ax":753,"Ġch":754,".u":755,"Ġvar":756,"text":757,"atic":758,"ice":759,"ĠNone":760,"));Ċ":761,"_k":762,"eld":763,"ield":764,"ject":765,"ory":766,"_in":767,".s":768,"mb":769,"Ġname":770,"\"\"":771,".g":772,"ide":773,"Ġnull":774,"Ġthis":775,"iter":776,"wrap":777,"fg":778,"rent":779,")ĊĊ":780,"fn":781,"_eq":782,"rain":783,"cr":784,"heck":785,"Ġbuil":786,"Re":787,"/s":788,"Ġtr":789,"Ġuse":790,"Ġx":791,"pec":792,"unwrap":793,"Ġset":794,"!(Ċ":795,"Ġ--":796,"Ġel":797,"uct":798,"_h":799,"fer":800,"lab":801,"av":802,"work":803,"low":804,"ĠSome":805,"_o":806,"ĠThe":807,".m":808,"codegen":809,"unction":810,"rg":811,"#[":812,"para":813,"_name":814,"tention":815,"ule":816,"Ġthat":817,"read":818,"Ġ);Ċ":819,"Ġpre":820,"(p":821,"urce":822,".c":823,");":824,"ass":825,"ft":826,"ded":827,"Ġ>":828,"_bytes":829,"Ġadd":830,"pu":831,"ence":832,".l":833,"cor":834,"</":835,"erver":836,"fe":837,"ĠK":838,"ync":839,"Ġstring":840,"rror":841,"ix":842,"Type":843,"vent":844,"ance":845,"Ġ]":846,"lient":847,"Ġid":848,".b":849,"ection":850,".d":851,"Ġop":852,"Ġint":853,"ĠĠĠĠĠĠĠĠĠ":854,"eng":855,"Ġelse":856,"=\"":857,"Ġ||":858,"IN":859,"mo":860,"lect":861,"(),Ċ":862,"Ġro":863,"its":864,"(|":865,"sum":866,"que":867,"],":868,"`,":869,"Ġcr":870,"Co":871,"Ġcall":872,"Ġhead":873,"uld":874,"Ġno":875,"isp":876,"back":877,"ypes":878,"(),":879,"rack":880,"dex":881,"Ġemit":882,"ĠVec":883,"load":884,"lement":885,"ton":886,"ST":887,"radi":888,"Ġnew":889,"Ex":890,"the":891,"mem":892,"Ġmust":893,"!(\"":894,"pro":895,"alid":896,"const":897,"etwork":898,"ĠIn":899,"Ġare":900,"utton":901,"Ġpr":902,"Ġfalse":903,"ape":904,"ser":905,"osition":906,"_tensor":907,"Ġ};Ċ":908,"Ġpath":909,"ssion":910,"![":911,"ast":912,"ould":913,"log":914,"ach":915,".con":916,"zer":917,"var":918,"---":919,"ĉĉ":920,"ry":921,"Ġclass":922,"fault":923,"max":924,"urrent":925,"_dim":926,"PU":927,"Op":928,"20":929,"))":930,"ER":931,"Pro":932,"(L":933,"Ġpublic":934,"uth":935,"Ġvec":936,"from":937,"(--":938,"ash":939,"cale":940,"ill":941,"Error":942,"25":943,"rite":944,"(b":945,"_at":946,"Ġy":947,"mary":948,"pd":949,"Ġreg":950,"uff":951,"ody":952,"Ġcol":953,"shape":954,"ĠĠĠĠĠĠĠĠĠĠĠĠĠĠĠĠĠĠĠĠĠĠĠĠĠĠĠ":955,"cal":956,"-t":957,"spa":958,"\":":959,"/nsl":960,"ĨĴ":961,"wn":962,"_co":963,"_size":964,"uda":965,"Ġ#[":966,"Ġ</":967,"Kind":968,"untime":969,"vice":970,"ound":971,"ute":972,"Ġstatic":973,"100":974,"Ġdef":975,"du":976,"(self":977,"pected":978,"):":979,"sc":980,"Ġrun":981,"ak":982,"Ġtensor":983,"odule":984,"Ġ&[":985,"ey":986,"],Ċ":987,"ON":988,"js":989,"loat":990,"```ĊĊ":991,"atus":992,"Ġpar":993,"Res":994,"wa":995,"Ġmatch":996,"mpt":997,"oin":998,"idth":999,"tains":1000,"mt":1001,"(s":1002,")]Ċ":1003,"Ġbool":1004,"ative":1005,"ature":1006,"Ġne":1007,"Ġnum":1008,"reate":1009,"_to":1010,"gg":1011,"ain":1012,"ssage":1013,"_ex":1014,"ail":1015,".n":1016,"{}":1017,"Ġusize":1018,"Ġcheck":1019,"-codegen":1020,"bject":1021,"-p":1022,"hase":1023,"Lo":1024,"En":1025,"Ġdi":1026,"Ġ:":1027,"Ġconfig":1028,"ify":1029,"ps":1030,".t":1031,"Ġ&&":1032,"file":1033,"Ġ{}":1034,"Ġen":1035,"_pro":1036,"mm":1037,"ange":1038,"rid":1039,".w":1040,"min":1041,"map":1042,"RE":1043,"ang":1044,"================":1045,"ches":1046,"ĠâĨĴ":1047,"amp":1048,"gment":1049,"Ġtrue":1050,"order":1051,"lash":1052,"State":1053,"(t":1054,"_block":1055,"ĠRe":1056,"vel":1057,"vi":1058,"Ġtarget":1059,"mat":1060,"Config":1061,"Ġmodel":1062,"andle":1063,"Ġlua":1064,"Ġresult":1065,"Step":1066,"Ġcrate":1067,"div":1068,"Ġread":1069,"ave":1070,"ical":1071,"Ġup":1072,"summary":1073,"ffset":1074,".is":1075,"Ġerror":1076,"_con":1077,"rans":1078,"):Ċ":1079,":**":1080,"Ġstate":1081,"entry":1082,"ink":1083,"oken":1084,"Ġvoid":1085,"ere":1086,"ude":1087,"raw":1088,"ll":1089,"ision":1090,"Ġinput":1091,"Ġtype":1092,"String":1093,"ise":1094,"ixt":1095,"ixture":1096,"Ġle":1097,"pert":1098,"Ġ@":1099,"ies":1100,"orch":1101,".st":1102,"otal":1103,"Ġkernel":1104,"crates":1105,"print":1106,"Ġ},Ċ":1107,"/src":1108,"Ġrow":1109,"Â§":1110,"ber":1111,"Ġdata":1112,"nap":1113,"return":1114,"_S":1115,"ont":1116,"zero":1117,"ray":1118,"quest":1119,"string":1120,"ector":1121,"([":1122,"ĠString":1123,"Ġover":1124,"Ġmax":1125,"Ġall":1126,"entity":1127,"**ĊĊ":1128,"Ġ?":1129,"Ġcan":1130,"quant":1131,".len":1132,"Ġact":1133,"ces":1134,"import":1135,"format":1136,"Ġ|Ċ":1137,"-f":1138,"radient":1139,"MA":1140,"uild":1141,"pre":1142,"Ġdo":1143,"_model":1144,"ally":1145,"ms":1146,"lob":1147,"bug":1148,"_q":1149,"_se":1150,"(f":1151,"iles":1152,"ME":1153,"bo":1154,"ations":1155,"\")Ċ":1156,"ite":1157,"ister":1158,"ia":1159,"Get":1160,".contains":1161,"round":1162,"Ġmat":1163,"Ġsp":1164,"yles":1165,"label":1166,"ource":1167,"Ġvalue":1168,"fo":1169,"public":1170,"];Ċ":1171,"Ġweight":1172,".get":1173,"ĠÂ§":1174,"reg":1175,"Ġbuilder":1176,"ized":1177,"ual":1178,"Ġwrit":1179,"Ġlayer":1180,"null":1181,"Ġonly":1182,"lace":1183,"âĶĢâĶĢâĶĢâĶĢâĶĢâĶĢâĶĢâĶĢâĶĢâĶĢâĶĢâĶĢâĶĢâĶĢâĶĢâĶĢ":1184,"old":1185,"ĠĠĠĠĠĠĠĠĠĠĠĠĠ":1186,"roup":1187,"Ġwhen":1188,"med":1189,"Ġla":1190,"uto":1191,"value":1192,"alu":1193,"Ġ!=":1194,"ener":1195,"Ġhe":1196,"ref":1197,"De":1198,"ccess":1199,"ride":1200,"oth":1201,"agn":1202,"iant":1203,"DE":1204,"afe":1205,"sed":1206,"ark":1207,"json":1208,"Tensor":1209,"ration":1210,")?":1211,"Ġad":1212,"fter":1213,"());Ċ":1214,"Ġone":1215,"ĠclassName":1216,"',Ċ":1217,"Ġbase":1218,"mpl":1219,"Ġspec":1220,"very":1221,"_r":1222,"ac":1223,"`Ċ":1224,"get":1225,"Ġbackward":1226,"ched":1227,"Ġq":1228,"shot":1229,"PI":1230,"mpty":1231,"Ġtok":1232,"Ġinst":1233,"ias":1234,"Ġstruct":1235,"Ġimport":1236,"mul":1237,"Ġj":1238,"Ġref":1239,"Ġtests":1240,"per":1241,"_len":1242,"###":1243,"ĉpublic":1244,"ner":1245,"Ġoutput":1246,"cfg":1247,"iler":1248,"\").":1249,"Ġdisp":1250,"ong":1251,"))Ċ":1252,"ipe":1253,"(d":1254,"Ġcode":1255,"Client":1256,"app":1257,"_head":1258,"qui":1259,"allback":1260,"emit":1261,"Ġshape":1262,"128":1263,"irst":1264,"-g":1265,"].":1266,"_lo":1267,"Ġback":1268,"__":1269,"cord":1270,"Ġtorch":1271,"Se":1272,"_backward":1273,"uffer":1274,"efore":1275,"io":1276,"ĠEx":1277,"SL":1278,"no":1279,"wait":1280,"inal":1281,"orward":1282,"ther":1283,"Ġarg":1284,"iled":1285,"erial":1286,"ccum":1287,"izer":1288,"terner":1289,"Un":1290,".ins":1291,"Ġforward":1292,"Ch":1293,"ĠTensor":1294,"ference":1295,"lot":1296,"styles":1297,"arn":1298,"_path":1299,"-d":1300,"of":1301,"._":1302,"AL":1303,"lag":1304,"->":1305,"Ġplan":1306,"ptim":1307,"ctions":1308,"\"),Ċ":1309,"Ġar":1310,"ses":1311,"napshot":1312,"_T":1313,"ĠSt":1314,"Ġget":1315,"Ġhas":1316,"At":1317,"Ġcont":1318,"_kv":1319,"ĠTh":1320,"Ġbytes":1321,"nection":1322,"ines":1323,"Ġinto":1324,"abled":1325,"',":1326,"lobal":1327,"-c":1328,"Ġfield":1329,"Ġparam":1330,"try":1331,"ract":1332,"point":1333,"_string":1334,"abs":1335,"Ġmo":1336,"Ġfunction":1337,"cision":1338,"_C":1339,"ID":1340,"unk":1341,"OR":1342,"TX":1343,"Ġbuild":1344,"_B":1345,"((":1346,"ream":1347,"ĠTask":1348,")`":1349,"-m":1350,"Ġfloat":1351,"ym":1352,"AS":1353,"Ġwe":1354,"To":1355,"bs":1356,"err":1357,"_attention":1358,"40":1359,"Server":1360,"ead":1361,"lex":1362,"yst":1363,"ument":1364,"Value":1365,"Network":1366,"Ġtime":1367,"pon":1368,"ptx":1369,"Ġ\\Ċ":1370,"not":1371,"_out":1372,"----------------------------------------------------------------":1373,"15":1374,"\\n":1375,"(e":1376,"anag":1377,"ied":1378,"Input":1379,"ĠOn":1380,"space":1381,"ystem":1382,"\".":1383,"view":1384,"\"));Ċ":1385,"LO":1386,"Ġshould":1387,"run":1388,"Ġlist":1389,"---ĊĊ":1390,".iter":1391,"('":1392,"rame":1393,"def":1394,"Ġ(!":1395,"ox":1396,"ord":1397,"ĠQ":1398,"Ġuns":1399,"Ġ===":1400,"Ġcfg":1401,"ics":1402,"vers":1403,"${":1404,"Comp":1405,"Ġsource":1406,"agnost":1407,"CE":1408,"ings":1409,"Ġformat":1410,"Ġstep":1411,"Int":1412,"Ġexist":1413,"ific":1414,".as":1415,"ross":1416,"Data":1417,"_base":1418,"param":1419,"usal":1420,"Ġ});Ċ":1421,"Com":1422,"ba":1423,"Ġseq":1424,"ffect":1425,"compile":1426,"////":1427,"-st":1428,"item":1429,"Ġfile":1430,"olve":1431,"check":1432,"py":1433,"ole":1434,">,Ċ":1435,"Ġ(`":1436,"Ġ\"\"\"":1437,"-w":1438,"Ġcom":1439,"Ġapp":1440,"TE":1441,"inear":1442,"Map":1443,"ingle":1444,"ggo":1445,".to":1446,"ugh":1447,"(c":1448,"_count":1449,"ateg":1450,"thod":1451,"ĠĠĠĠĠĠĠĠĠĠĠĠĠĠĠĠĠĠĠĠĠĠĠĠĠĠĠĠĠĠĠ":1452,"ĠCon":1453,"ilter":1454,"_with":1455,"ake":1456,":ĊĊ":1457,"Ġbut":1458,"kip":1459,"unch":1460,"ccl":1461,"Ġsame":1462,"ĠCo":1463,"ĠGPU":1464,"ank":1465,"Ġpass":1466,"_idx":1467,"Ġmessage":1468,"Ġext":1469,"tests":1470,"imal":1471,"key":1472,"user":1473,"_val":1474,"model":1475,"Ġ----------------------------------------------------------------":1476,"'t":1477,"cess":1478,"alues":1479,"App":1480,"LE":1481,"PE":1482,"jection":1483,"Ġscale":1484,"Ġvia":1485,"into":1486,"ĠEn":1487,"annel":1488,"indow":1489,"Ġac":1490,"Ptr":1491,"Ġdim":1492,"face":1493,"Ġeach":1494,"alib":1495,"Ġrg":1496,"cond":1497,"itor":1498,"(x":1499,"Add":1500,"lable":1501,"ose":1502,"ible":1503,"Set":1504,"ld":1505,"lib":1506,"ai":1507,"Ġca":1508,"_or":1509,"raft":1510,"result":1511,"uf":1512,"ptions":1513,"action":1514,"Ġlog":1515,"default":1516,"ormal":1517,"Ġrgba":1518,"mi":1519,"13":1520,"color":1521,"ymb":1522,"ymbol":1523,"Ġprodu":1524,"Ġunsafe":1525,"///Ċ":1526,"argo":1527,"_var":1528,"class":1529,"block":1530,")?;Ċ":1531,"Ġwork":1532,"ild":1533,"led":1534,"Ġfused":1535,"Ġdoc":1536,"attern":1537,"clude":1538,"input":1539,"alloc":1540,"Ġsrc":1541,"Mess":1542,"Ġvalid":1543,"Ġsub":1544,"Ref":1545,"Ġver":1546,"ress":1547,"wd":1548,"ground":1549,"Ġkey":1550,"ick":1551,"Ġbatch":1552,".h":1553,"Ġdis":1554,"HA":1555,"layers":1556,"(n":1557,"FI":1558,"Ġ)Ċ":1559,"_P":1560,"Ġmin":1561,"Ġcor":1562,"_data":1563,"collect":1564,"Ġbody":1565,"Ġposition":1566,"Time":1567,".re":1568,"_type":1569,"istr":1570,"lua":1571,"Ġsize":1572,"Ġany":1573,"Ġ+=":1574,"nect":1575,"size":1576,"11":1577,"Def":1578,"ans":1579,"ķĲ":1580,"ength":1581,"ift":1582,"expect":1583,"ys":1584,"Ġsc":1585,"IT":1586,"ipeline":1587,"_D":1588,"âķĲ":1589,"config":1590,"by":1591,"uilder":1592,"Ġdefault":1593,"Ġexp":1594,"();ĊĊ":1595,"ages":1596,"Ġgate":1597,"layout":1598,"ivate":1599,"nown":1600,"Ġtotal":1601,"we":1602,"Ġruntime":1603,"`.":1604,"Ġfail":1605,"âķĲâķĲ":1606,"ie":1607,"ĠSte":1608,"ization":1609,"rough":1610,"UI":1611,"255":1612,"_E":1613,"wo":1614,"Ġ------------------------------------------------------------------------":1615,"Ġevery":1616,"}.":1617,"active":1618,"ook":1619,"for":1620,"14":1621,"Token":1622,"Ġload":1623,"****":1624,"ignal":1625,"ĠĠĠĠĠĠ":1626,"span":1627,"Ġsup":1628,"using":1629,"Ġown":1630,"_add":1631,"Ġag":1632,"Met":1633,"_free":1634,"ointer":1635,"ich":1636,"Ġother":1637,"List":1638,"Ġinter":1639,"Ġuser":1640,"cla":1641,"be":1642,"main":1643,"_ptx":1644,"ĠUn":1645,"Ġentry":1646,"clone":1647,"_dev":1648,"AD":1649,"(C":1650,"Button":1651,"ict":1652,"Ġbefore":1653,"Result":1654,"User":1655,"Ġtrain":1656,"_ref":1657,"ript":1658,"cope":1659,"ĠOption":1660,"rga":1661,"OT":1662,"Ġauto":1663,"NT":1664,"vention":1665,"mplement":1666,"Ġsm":1667,"only":1668,"eln":1669,"Ġgrad":1670,"ced":1671,"cle":1672,"Ġwriteln":1673,"cy":1674,"engert":1675,"Ġ(Ċ":1676,"\")]Ċ":1677,"ĠDe":1678,"API":1679,"ailable":1680,"Lay":1681,"Ġcurrent":1682,"?.":1683,"rust":1684,"struct":1685,"Ġsim":1686,"_ids":1687,"ĠPTX":1688,"//!Ċ":1689,"unc":1690,"lat":1691,"Ġdevice":1692,"_tile":1693,"val":1694,".name":1695,"count":1696,"Game":1697,"ynthe":1698,"_start":1699,"pa":1700,"Block":1701,"Ġtrans":1702,"cept":1703,"Ġdtype":1704,"ĠTier":1705,"MEM":1706,"onent":1707,"Ġnon":1708,"ameter":1709,"ved":1710,"])Ċ":1711,"Expr":1712,"tok":1713,"anel":1714,"]);Ċ":1715,"ln":1716,"},":1717,"ility":1718,"apter":1719,"resh":1720,"ccumul":1721,"rr":1722,"Ġfirst":1723,"Ġawait":1724,"message":1725,"Ġupd":1726,"Context":1727,"Ġafter":1728,"Ġbyte":1729,".de":1730,"Ġ)":1731,"ĠThis":1732,"ats":1733,"Ġtile":1734,">(":1735,"Ġte":1736,"ĠOk":1737,"ponse":1738,"_x":1739,"_heads":1740,"18":1741,"ransp":1742,"Ġstart":1743,"50":1744,"ices":1745,"::{":1746,"Ġ>=":1747,"emo":1748,"ND":1749,"ous":1750,"Col":1751,"tn":1752,"ĠCall":1753,":\"":1754,"ĠĠĠĠĠĠĠĠĠĠĠĠĠĠĠĠĠ":1755,"over":1756,"_test":1757,"cuda":1758,"CK":1759,"vailable":1760,"_mask":1761,"Ġfixture":1762,"Ġcolor":1763,"_row":1764,"fs":1765,"_F":1766,"ocab":1767,"Ġ));Ċ":1768,"ĠJ":1769,".k":1770,"Ġmode":1771,"join":1772,"UD":1773,"Mode":1774,"`.Ċ":1775,"ailed":1776,"ified":1777,"tain":1778,"mmand":1779,"data":1780,".clone":1781,"_ro":1782,"Message":1783,"mand":1784,"[i":1785,"Ġclient":1786,"Ġ..":1787,"Ġfull":1788,"ĠComp":1789,"Ġalloc":1790,"Auth":1791,"enter":1792,"urface":1793,"Ġcount":1794,"_i":1795,"acked":1796,".co":1797,".\"\"":1798,"-in":1799,"istry":1800,"_expr":1801,"parse":1802,".id":1803,"AT":1804,"Ġwould":1805,"way":1806,"anager":1807,"ĠNetwork":1808,"Ġdoes":1809,"_shape":1810,"usion":1811,"irect":1812,"_config":1813,".T":1814,"Ġnccl":1815,"Ġmodule":1816,"/f":1817,"ample":1818,"hod":1819,"Ġextern":1820,"Ġtrack":1821,"teg":1822,"Ġloop":1823,"umber":1824,"yle":1825,"md":1826,"Ġrep":1827,"Ġlines":1828,"_raw":1829,"true":1830,"-de":1831,"Ġ};ĊĊ":1832,"eds":1833,"iable":1834,"Ġborder":1835,"000":1836,"Ġcommit":1837,"_weight":1838,"Ġtext":1839,"RA":1840,"}>Ċ":1841,"ider":1842,"cargo":1843,"my":1844,"ĠSe":1845,"On":1846,"Ġlow":1847,"Ġend":1848,":\\":1849,"202":1850,"_for":1851,"pdt":1852,"Ġsingle":1853,"adding":1854,"Count":1855,"Ġtable":1856,".md":1857,"ĠRes":1858,"arch":1859,"idd":1860,"ery":1861,"ĠCom":1862,"rect":1863,"Ġcompile":1864,"are":1865,"ustom":1866,"Ite":1867,"ĠPhase":1868,"_codegen":1869,"git":1870,"Handle":1871,"iss":1872,"Var":1873,"level":1874,"dim":1875,"Attention":1876,"Ġdisplay":1877,"kv":1878,"eturn":1879,"_per":1880,"\");ĊĊ":1881,"Ġits":1882,"Object":1883,"lp":1884,"Ġgradient":1885,"_op":1886,"Ġindex":1887,"valid":1888,"Ġcons":1889,"_kernel":1890,"Ġzero":1891,"Ġprint":1892,"_param":1893,".I":1894,"erialize":1895,"Ġrequi":1896,"_list":1897,"Key":1898,"};ĊĊ":1899,"ĠAdd":1900,"rop":1901,"ĠGet":1902,"ĠErr":1903,"Inter":1904,"ready":1905,"adow":1906,"Ġyo":1907,">/":1908,"doc":1909,"bash":1910,"================================":1911,"_max":1912,"(st":1913,"Ġ\"\"":1914,"File":1915,"reak":1916,"radius":1917,"Ġcase":1918,"Ġwas":1919,"Ġobject":1920,"){":1921,"eature":1922,"itial":1923,"Ġvariant":1924,"itle":1925,"Ġgrid":1926,"_types":1927,"expected":1928,"&&":1929,"ted":1930,"_state":1931,"export":1932,"iteral":1933,"println":1934,"inel":1935,"_fused":1936,"_th":1937,"artial":1938,"FF":1939,"compute":1940,"include":1941,"Ġtypes":1942,"AR":1943,"RO":1944,"lete":1945,"imit":1946,"ĠĠĠĠĠĠĠĠĠĠĠĠĠĠĠĠĠĠĠĠĠĠĠĠĠĠĠĠĠĠĠĠ":1947,").ĊĊ":1948,"_fp":1949,"Ġwhich":1950,"derr":1951,"Ġexisting":1952,"Ġoptim":1953,"Ġeprintln":1954,"pdate":1955,"_ad":1956,".Get":1957,"())Ċ":1958,"Ġinterner":1959,"core":1960,".add":1961,"Ġquant":1962,"Ġsegment":1963,"({":1964,"GE":1965,"ution":1966,"\\t":1967,"...":1968,"Ġprivate":1969,"ell":1970,"mbed":1971,"CC":1972,"umer":1973,"array":1974,"Ġthrough":1975,"Ġparse":1976,"Ġserver":1977,".data":1978,"Sc":1979,"ock":1980,"24":1981,"())":1982,"_push":1983,"Ar":1984,"_ran":1985,"cing":1986,"rue":1987,"';Ċ":1988,"])":1989,"UDA":1990,"resent":1991,":?":1992,"slTensor":1993,"pression":1994,"SE":1995,"30":1996,"[\"":1997,"af":1998,"Info":1999,"perts":2000,"entinel":2001,"_step":2002,"-con":2003,"Hel":2004,"corator":2005,"_proj":2006,"Ġmult":2007,"The":2008,"(N":2009,"Ġfont":2010,"ĠTest":2011,"_mat":2012,"_cast":2013,"Sh":2014,"_reg":2015,"lags":2016,"idden":2017,"theme":2018,"Ġslot":2019,"Ġrank":2020,"Ġtoken":2021,".e":2022,"pan":2023,"_un":2024,"ĠSMEM":2025,"Ġ...":2026,"_void":2027,"<f":2028,"Ġkv":2029,"Ġboth":2030,"\";Ċ":2031,"chema":2032,"local":2033,"Pre":2034,"og":2035,"ined":2036,"calar":2037,"ency":2038,"Ġmod":2039,"ĠIf":2040,"sign":2041,"Ġ~":2042,"Method":2043,"joint":2044,"Path":2045,"ene":2046,"olic":2047,")}":2048,"Ġmem":2049,"so":2050,"ĠâĶ":2051,"-radius":2052,"base":2053,"ixed":2054,"shared":2055,"-sh":2056,":?}":2057,"Ġloss":2058,"pped":2059,".C":2060,"ingCon":2061,"ĊĊĊ":2062,"Ġgener":2063,"Ġdiff":2064,"ume":2065,"Ġhave":2066,"ĠFP":2067,"feature":2068,"Ġvalues":2069,"_map":2070,"mission":2071,"ification":2072,"ared":2073,"Th":2074,"Ġline":2075,"function":2076,"If":2077,"urs":2078,"Index":2079,"Debug":2080,"rimal":2081,"(g":2082,"_off":2083,"Ġreal":2084,".x":2085,"pi":2086,".param":2087,"(w":2088,"ments":2089,"Ġwidth":2090,"ries":2091,".nsl":2092,"roll":2093,"Help":2094,"mant":2095,"uard":2096,"Ġpointer":2097,"Ġmethod":2098,"iagnost":2099,"ender":2100,"igh":2101,"Ġexpected":2102,"uccess":2103,"env":2104,"Ġsum":2105,"_bits":2106,"Ġwill":2107,"alf":2108,"Ġexact":2109,"irror":2110,"okens":2111,"102":2112,"evel":2113,"redic":2114,"ĠReturn":2115,"Field":2116,"_offset":2117,"ĠSteam":2118,"qual":2119,"Ġstatus":2120,"Ġcle":2121,"url":2122,"ycle":2123,"-button":2124,"-size":2125,"Ġreference":2126,"vert":2127,"Ġoffset":2128,"Ed":2129,"Ġlabel":2130,"SteamAPI":2131,"By":2132,"write":2133,"(m":2134,"Text":2135,"case":2136,"Manager":2137,"ivation":2138,"perty":2139,"<u":2140,"(\"\\":2141,"256":2142,"UT":2143,"80":2144,"ĠNOT":2145,"Ġcrates":2146,"pend":2147,"Ġnp":2148,"trans":2149,"umn":2150,"Ġcontin":2151,"ingConvention":2152,"Or":2153,"lection":2154,"Response":2155,"Ġrange":2156,"Ad":2157,"Ġtier":2158,"Ġwrite":2159,"medi":2160,"Ġhandle":2161,"rimalOp":2162,"Ġflex":2163,"stack":2164,"Ġgot":2165,"_cuda":2166,"ĠRun":2167,"Ġunder":2168,"Ġsav":2169,"args":2170,"ault":2171,"tt":2172,"Ġlast":2173,"udget":2174,"void":2175,"Ġregister":2176,"_empty":2177,"ĠCallingConvention":2178,"_layer":2179,"arp":2180,"crate":2181,"Item":2182,".compile":2183,"Ġmemory":2184,"/tests":2185,"inary":2186,"opHelp":2187,"iver":2188,"static":2189,"Ġthen":2190,"Ġitem":2191,"?:":2192,"(_":2193,"src":2194,"};Ċ":2195,"side":2196,"ump":2197,"iff":2198,"slice":2199,"oke":2200,"UL":2201,"\"),":2202,"Ġtwo":2203,"Load":2204,"ayload":2205,".\"\"\"Ċ":2206,"rol":2207,"alibration":2208,":.":2209,"IR":2210,"tensor":2211,"apt":2212,"For":2213,"eg":2214,"isplay":2215,"-r":2216,"rapp":2217,"Ġld":2218,"lone":2219,"wise":2220,"Ġwithout":2221,".lo":2222,"Status":2223,"(a":2224,"ĠExpr":2225,"ÃĹ":2226,"ship":2227,"19":2228,"Ġhd":2229,"ĠType":2230,"')":2231,"child":2232,"Ġlower":2233,"Log":2234,"_loss":2235,"Action":2236,"HE":2237,"ism":2238,"Ġz":2239,"Ġtop":2240,"/b":2241,"`)":2242,"elf":2243,"_alloc":2244,"target":2245,"Command":2246,"tect":2247,"Ġalready":2248,"Ġbuffer":2249,"Ġ<=":2250,"_grad":2251,"ident":2252,"ĠCPU":2253,".ex":2254,"Ġlaunch":2255,"derive":2256,"ph":2257,"Ġnow":2258,"ashMap":2259,"iscord":2260,"utom":2261,"gra":2262,"ĠĠĠĠĠĠĠĠĠĠĠĠĠĠĠĠĠĠĠĠĠĠĠĠĠĠĠĠĠĠĠĠĠĠĠ":2263,"Ġaccumul":2264,"olicy":2265,"lick":2266,"_tokens":2267,"ware":2268,"ategory":2269,".in":2270,"Ġcompiler":2271,"rep":2272,"Ġargs":2273,".</":2274,"Ġpadding":2275,"Ġlen":2276,"Ġorder":2277,"mplate":2278,"cre":2279,"rem":2280,"ause":2281,"-a":2282,"_me":2283,"_IN":2284,"Ġpattern":2285,"Ġgap":2286,"(v":2287,"]`":2288,"Ġbound":2289,"orage":2290,"_smem":2291,"---Ċ":2292,".se":2293,"iew":2294,"_err":2295,"alstack":2296,"items":2297,"_call":2298,"lashAttention":2299,"(i":2300,"NE":2301,"Networking":2302,"As":2303,"Code":2304,"ding":2305,"Ġrel":2306,"etch":2307,"Ġbias":2308,"Player":2309,"Ġsnapshot":2310,"../":2311,"-se":2312,"last":2313,"anged":2314,"ternal":2315,"Ġagain":2316,"fie":2317,"Ġthread":2318,"_gpu":2319,"move":2320,"_ch":2321,"issing":2322,"kernel":2323,"Ġent":2324,"Ġoper":2325,"Ġinstance":2326,"Ġcal":2327,"Expected":2328,"Ġcorrect":2329,"nector":2330,"ĠSystem":2331,"CA":2332,"Qu":2333,"_u":2334,"eep":2335,"Ġspan":2336,"Ġcontinue":2337,"ransport":2338,"ĠNSL":2339,"lip":2340,"Ġsynthe":2341,"/d":2342,"Ġparameter":2343,"-shadow":2344,"Ġnormal":2345,"Ġasync":2346,"Ġparams":2347,"ane":2348,"icon":2349,"expr":2350,"istic":2351,"ION":2352,"Ġbet":2353,"redicate":2354,"Head":2355,"path":2356,"Ġhere":2357,".insert":2358,"variant":2359,"known":2360,"ĉk":2361,"uration":2362,"Ġuint":2363,"Ġdispatch":2364,"42":2365,"atar":2366,"scri":2367,"_dir":2368,"raph":2369,"memory":2370,"std":2371,"_I":2372,"_from":2373,"lit":2374,"Ġoverride":2375,"ported":2376,"An":2377,"list":2378,"Ġev":2379,"riend":2380,".json":2381,"mod":2382,"types":2383,"Ġpart":2384,"licit":2385,"\"ĊĊ":2386,"ions":2387,"Ġthan":2388,"lose":2389,"alth":2390,"_track":2391,"-re":2392,"CT":2393,"ĠReturns":2394,"ĠCreate":2395,"with":2396,"SHA":2397,"csha":2398,"Ġelement":2399,"(format":2400,"Ġmake":2401,"wggo":2402,"Ġgpu":2403,"===":2404,"ob":2405,"Ġlocal":2406,"_ast":2407,"Ġnumber":2408,"://":2409,"Des":2410,"Ġimplement":2411,"Ġbackground":2412,"////////":2413,"Event":2414,"_iter":2415,"_target":2416,"ating":2417,"process":2418,"_L":2419,"eded":2420,"Ġpa":2421,"enu":2422,"hed":2423,"Ġpack":2424,"height":2425,"Mem":2426,"Ġstill":2427,"ĠFFI":2428,"-to":2429,"ason":2430,"Ġ`@":2431,"Ġsil":2432,"500":2433,"Ġalign":2434,"tom":2435,"Ġchunk":2436,"_tier":2437,"Ġhand":2438,"Ġstride":2439,"ASE":2440,"adar":2441,"VI":2442,"down":2443,"afet":2444,"#include":2445,"Ġops":2446,"Ġconnection":2447,"Doc":2448,"Ġmov":2449,"era":2450,"come":2451,"Ġreturns":2452,"ĠâĶĢâĶĢ":2453,"Ġpref":2454,".shape":2455,"else":2456,"IP":2457,"[]":2458,"ives":2459,"ĠAd":2460,"ursor":2461,"ĠPro":2462,"Ġweights":2463,"Ġms":2464,"ential":2465,"ĠNo":2466,"Param":2467,"Ġacross":2468,"Ġupdate":2469,"vt":2470,"make":2471,"Ġabs":2472,">{":2473,"peed":2474,"_error":2475,"weight":2476,"()`":2477,"/p":2478,"Append":2479,"zeros":2480,"_forward":2481,"gener":2482,"Request":2483,"Ġmatches":2484,"Dec":2485,"Ġrequest":2486,"flash":2487,"Ġdirect":2488,"rt":2489,"race":2490,"_ST":2491,"200":2492,"ranch":2493,"Ġbreak":2494,"ĠNslTensor":2495,"ĠVector":2496,"ferred":2497,"ĠRE":2498,"');Ċ":2499,"Callback":2500,"ĠExprKind":2501,"}`":2502,".current":2503,"GO":2504,"lice":2505,"!==":2506,"termin":2507,"train":2508,"17":2509,"_sm":2510,"GA":2511,"](":2512,"Ġhost":2513,"htt":2514,"irection":2515,"ĠĠĠĠĠĠĠĠĠĠĠĠ":2516,"unter":2517,");--":2518,"Al":2519,"ora":2520,"Ġjust":2521,"60":2522,"uction":2523,"-h":2524,"grad":2525,"Ġ\\":2526,"Ġoptimizer":2527,"LI":2528,"_is":2529,"FP":2530,"Reg":2531,"ache":2532,"lected":2533,"ĠZ":2534,"Ġ---":2535,"Size":2536,"Ġdr":2537,"agent":2538,"_norm":2539,"35":2540,"99":2541,"Ġused":2542,"Ġpe":2543,"Ġnext":2544,"ecause":2545,"Ġunit":2546,"Act":2547,"Run":2548,"Identity":2549,"Ġ---------------------------------------------------------------------------Ċ":2550,"mage":2551,"Ġdecorator":2552,"bed":2553,"ned":2554,"roy":2555,"ĠDebug":2556,"ling":2557,"Call":2558,"Ġ(\"":2559,"rune":2560,"Ġyou":2561,"build":2562,"actor":2563,"argin":2564,"(l":2565,"Ġ),Ċ":2566,"(h":2567,"off":2568,"align":2569,"Ġoff":2570,"hav":2571,"Ġsentinel":2572,"Ġcodegen":2573,"token":2574,"=T":2575,"Ġanal":2576,"-only":2577,"Ġredu":2578,"Ġactive":2579,"ĠSh":2580,"Ġdiagnost":2581,"Ġgroup":2582,"inding":2583,"ĠVer":2584,"(builder":2585,"Ġagainst":2586,"NSL":2587,"asure":2588,"opy":2589,"Ġ[`":2590,"lper":2591,"Ġ=Ċ":2592,"Ġinputs":2593,"/`":2594,"indings":2595,"None":2596,"Ġwindow":2597,"dition":2598,"aract":2599,"ivity":2600,"mantic":2601,"ĠMod":2602,"Options":2603,"ysis":2604,"ants":2605,"];\\":2606,"ently":2607,"ning":2608,"_MA":2609,"orld":2610,"Ġfailed":2611,",t":2612,"filter":2613,"Ġskip":2614,"itch":2615,"Ġinteg":2616,"UG":2617,"output":2618,"resolve":2619,"atches":2620,"Point":2621,"ored":2622,"itn":2623,"Ġsign":2624,"Ġmask":2625,"rary":2626,"Ġkeep":2627,"ĉreturn":2628,"ĠSelf":2629,"(in":2630,"Ġcenter":2631,"\"]":2632,"igg":2633,".value":2634,"Connection":2635,"(re":2636,".js":2637,"Ġcontext":2638,"Property":2639,"ensors":2640,".block":2641,"ptr":2642,"âķĲâķĲâķĲâķĲ":2643,"Ġlayout":2644,"_sym":2645,".**":2646,"Ġpas":2647,"any":2648,"isible":2649,"usize":2650,".weight":2651,"âĶĢâĶĢâĶĢâĶĢâĶĢâĶĢâĶĢâĶĢâĶĢâĶĢâĶĢâĶĢâĶĢâĶĢâĶĢâĶĢâĶĢâĶĢâĶĢâĶĢâĶĢâĶĢâĶĢâĶĢâĶĢâĶĢâĶĢâĶĢâĶĢâĶĢâĶĢâĶĢ":2652,"Ġuses":2653,"ĠAn":2654,"(name":2655,"Ġgame":2656,"Ġ[%":2657,"_addr":2658,"Ġbecause":2659,"<String":2660,"Ġplace":2661,"Ġ__":2662,"Ġwhere":2663,"Ġctx":2664,"Ġnever":2665,"amera":2666,"andn":2667,"Ġacc":2668,"imary":2669,"arness":2670,"Ġident":2671,"ĠâĶĤ":2672,"Plan":2673,"_and":2674,"Ġheads":2675,"Ġ`--":2676,"Ġcheckpoint":2677,"Ġpos":2678,"ersion":2679,"VICE":2680,"reen":2681,"ression":2682,"CCL":2683,"lashAttentionConfig":2684,"ĠError":2685,"********":2686,"stance":2687,"Ġcla":2688,"och":2689,"ftmax":2690,"Ġvocab":2691,"Ġtokens":2692,"uthor":2693,"Ġresp":2694,"Ġthem":2695,"tection":2696,"Ġtraining":2697,"ģâĶ":2698,"ĠPer":2699,"Ġorig":2700,"-color":2701,"Read":2702,"Remo":2703,"_abs":2704,"olean":2705,"plan":2706,"Ġ);ĊĊ":2707,"arse":2708,"(S":2709,"-n":2710,"Ġfallback":2711,"Ġpoint":2712,"trim":2713,"Cont":2714,"logue":2715,"Ġruns":2716,".set":2717,"_M":2718,"hen":2719,"tic":2720,"_index":2721,"ĠSet":2722,"Ġren":2723,"Ġmul":2724,"ags":2725,"SON":2726,"Ġ`.":2727,"(u":2728,"decl":2729,"arning":2730,"apture":2731,"{Ċ":2732,"reshold":2733,"render":2734,"ĠRo":2735,"Ġspa":2736,"_up":2737,"Ġwhile":2738,"ģâĶģâĶ":2739,"Ġdst":2740,"_time":2741,"22":2742,"fir":2743,"uture":2744,"Ġbaseline":2745,"ĠLay":2746,"Ġosc":2747,"Ġraw":2748,"Layer":2749,"Ġfound":2750,"anic":2751,"batch":2752,"Ġidentity":2753,"tainer":2754,"_token":2755,"Ġchannel":2756,"31":2757,"wq":2758,"Ġtry":2759,"ĠLo":2760,"sm":2761,"enabled":2762,"Ġpost":2763,"ĠPrimalOp":2764,"AM":2765,"_sum":2766,"ĠCommit":2767,"DEVICE":2768,"Model":2769,"_.":2770,"false":2771,"Ġreport":2772,"Ġ---------------------------------------------------------------------------ĊĊ":2773,"ership":2774,"_key":2775,"`ĊĊ":2776,"Ġpy":2777,":**Ċ":2778,"409":2779,"Ġrc":2780,"SteamNetworking":2781,"Norm":2782,"Ġ},":2783,"engine":2784,"Ġcmd":2785,"elift":2786,"ranelift":2787,"(Debug":2788,"_on":2789,"Array":2790,"_load":2791,"ONE":2792,"word":2793,"trib":2794,"ession":2795,"lta":2796,"ways":2797,"sim":2798,"(r":2799,"HT":2800,"Out":2801,"_doc":2802,"ather":2803,"acity":2804,"lease":2805,"Str":2806,"Ġ[Ċ":2807,"ĠBuild":2808,"rapper":2809,".L":2810,"ished":2811,"Ġresolve":2812,"_masked":2813,"iven":2814,"Ġmatmul":2815,"_ce":2816,"Layout":2817,"aracter":2818,"Ġcsha":2819,"Ġscope":2820,"Ġneed":2821,".com":2822,"Ġround":2823,"---|":2824,"andid":2825,"Mo":2826,"ater":2827,"01":2828,"_col":2829,"Ġrender":2830,"alk":2831,"Ġ*/":2832,"andom":2833,"adata":2834,"ending":2835,"ĠVar":2836,"Ġshared":2837,"uble":2838,".v":2839,"_all":2840,"mark":2841,"store":2842,"Ġcreate":2843,"raint":2844,"_cfg":2845,"Ġvs":2846,"quantize":2847,"cales":2848,"Ġplayer":2849,"Ġextract":2850,"mediate":2851,")),Ċ":2852,"Ġexactly":2853,"ĠCh":2854,"_input":2855,"Profile":2856,"Ġhelper":2857,"ĠModify":2858,"Ġed":2859,"Target":2860,"Ġmargin":2861,"ler":2862,"Editor":2863,"Panel":2864,"Ġguard":2865,"Import":2866,"son":2867,"_dtype":2868,"OP":2869,"impl":2870,"Ġmap":2871,"aded":2872,"_get":2873,"_output":2874,"Ext":2875,"_json":2876,"Create":2877,"Ġmay":2878,"our":2879,"version":2880,"Ġrows":2881,"-items":2882,">)":2883,"_N":2884,"Ġsuper":2885,"utomation":2886,"(de":2887,"lied":2888,"Ġdiffer":2889,"_K":2890,"tier":2891,"Ġpresent":2892,"Available":2893,"cpdt":2894,"Ġinstead":2895,"Update":2896,"_Get":2897,"-gradient":2898,"Ġfix":2899,".type":2900,"ga":2901,"wrga":2902,"_range":2903,"(*":2904,"05":2905,"seq":2906,"calib":2907,"Level":2908,"Ġresol":2909,"lower":2910,"ĠReg":2911,"gine":2912,"ibrary":2913,"versation":2914,"_result":2915,"current":2916,"flow":2917,"\"))Ċ":2918,"lections":2919,"utes":2920,"ransform":2921,"ml":2922,"rix":2923,"uses":2924,"Ġaccept":2925,"Ġrequires":2926,"AB":2927,">`":2928,"Files":2929,"Ġfree":2930,"Ġenum":2931,"Ġsync":2932,"register":2933,"(out":2934,"(config":2935,"})":2936,"Ġ//Ċ":2937,"ĠCUDA":2938,"-runtime":2939,"ĠPR":2940,"Click":2941,"gn":2942,"ĠResult":2943,"Ġembed":2944,"_table":2945,"Stack":2946,"Ġverify":2947,".Log":2948,"ils":2949,"Ġblocks":2950,"Ġser":2951,"Ġ\"--":2952,"Methods":2953,"(cl":2954,"}\");Ċ":2955,"_pre":2956,">&":2957,"box":2958,"Ġeffect":2959,"blocks":2960,"Te":2961,"Ġopt":2962,"ĠClone":2963,"istory":2964,"ynam":2965,"ves":2966,"Ġtmp":2967,"itude":2968,"rag":2969,"(crate":2970,"-time":2971,"Ġdecl":2972,"Ġ<<":2973,"ĠFA":2974,"ynamic":2975,"(Token":2976,"wh":2977,"ĠFor":2978,"afetensors":2979,"thon":2980,"ocial":2981,"Desc":2982,"ĠĠĠĠĠĠĠĠĠĠĠĠĠĠĠĠĠĠĠĠĠ":2983,"this":2984,"spacing":2985,"=t":2986,"Ġstream":2987,"$\"":2988,"Buffer":2989,"IS":2990,"quire":2991,"IL":2992,"ki":2993,"onical":2994,"erge":2995,"amples":2996,"Ġpanic":2997,"older":2998,"Ġclean":2999,"Ġpipeline":3000,"_width":3001,">,":3002,"Check":3003,"=True":3004,"xs":3005,"Ġprojection":3006,"connect":3007,"abel":3008,"Ġframe":3009,"bby":3010,"uous":3011,"Ġmissing":3012,"ativeMethods":3013,"Ġ})Ċ":3014,"Ġinv":3015,"Ġkind":3016,"_plan":3017,"_of":3018,"ites":3019,"board":3020,"Ġpch":3021,"Ġinitial":3022,"Ġcausal":3023,"witch":3024,"embed":3025,"fused":3026,"ne":3027,"ĠPath":3028,"Ġheight":3029,"reser":3030,"Ġlevel":3031,"_G":3032,"border":3033,"struction":3034,"Ġphase":3035,"Ġusing":3036,"Const":3037,"INE":3038,"ĠDef":3039,"_flash":3040,"ower":3041,"opul":3042,"idual":3043,".kind":3044,"Ġonce":3045,"docs":3046,".Tensor":3047,"ween":3048,"(()":3049,"FA":3050,"Ġab":3051,".Test":3052,".global":3053,"rl":3054,"_scale":3055,"ĠBox":3056,"Change":3057,"RL":3058,"ten":3059,"rank":3060,";\").":3061,"_zero":3062,"ules":3063,"car":3064,"erm":3065,"apon":3066,"locity":3067,"ĠHashMap":3068,"namespace":3069,"-op":3070,"]),Ċ":3071,"ecraft":3072,"ocket":3073,"ollow":3074,"vider":3075,"Gin":3076,"ocal":3077,"Ġtyp":3078,"uted":3079,"temp":3080,"_RE":3081,"Ġtail":3082,"ĠWe":3083,"-block":3084,"angle":3085,"Ġrecord":3086,"cratch":3087,"Component":3088,"Default":3089,"InteropHelp":3090,"Ġexplicit":3091,"-level":3092,"ttp":3093,"Ġerr":3094,"Ġside":3095,"Ġmain":3096,"igger":3097,".TestIf":3098,"ssages":3099,"ĠCSHA":3100,"ĠWeight":3101,"anges":3102,"await":3103,"num":3104,"ĠToken":3105,"Ġheader":3106,"ĉInteropHelp":3107,"Ġmultip":3108,"UGC":3109,"<T":3110,"reated":3111,"Ġevent":3112,"Ġfinal":3113,"_no":3114,"_hi":3115,".max":3116,"Ġmark":3117,"_V":3118,"ench":3119,"sealstack":3120,"Ġflag":3121,"fp":3122,".cpp":3123,"Ġind":3124,"Ġval":3125,"button":3126,"ispatch":3127,"Ġcross":3128,"ĠInt":3129,"ĠNext":3130,"Option":3131,"Ġsur":3132,"Ġdown":3133,"Ġtra":3134,"command":3135,"important":3136,"Ġroot":3137,"ecord":3138,"ts":3139,"_params":3140,".TestIfAvailable":3141,"Vec":3142,"rena":3143,".app":3144,"_act":3145,"Ġdocument":3146,"Element":3147,"fall":3148,"Ġsite":3149,"Ġbit":3150,"_mut":3151,"Color":3152,"512":3153,"qrt":3154,"Ġrope":3155,"_mode":3156,"ays":3157,"Ġemitted":3158,"ually":3159,"agement":3160,"cast":3161,"ĠQu":3162,"ze":3163,"Content":3164,"scription":3165,"Ġrespon":3166,"Ġnorm":3167,"_deg":3168,"riptor":3169,"Session":3170,"Ġcuda":3171,"oolean":3172,"Ġtemp":3173,"Dis":3174,"ination":3175,"template":3176,"ops":3177,"Be":3178,"Link":3179,"-e":3180,"next":3181,"Ġ()":3182,"++":3183,"||":3184,"lain":3185,"IntPtr":3186,"Net":3187,"_gate":3188,"anaged":3189,"Per":3190,"ĠLayer":3191,"width":3192,"stmt":3193,"ibility":3194,"Header":3195,"lished":3196,"Ġsol":3197,"ands":3198,"Ġidx":3199,"Ġ/>Ċ":3200,"_group":3201,"defined":3202,"Ġfailure":3203,"Ġcap":3204,"alStack":3205,"::<":3206,"Ġcaller":3207,"Ġprofile":3208,"umerate":3209,"Ġbra":3210,"YPE":3211,"Ġ\"[":3212,"36":3213,";\"));Ċ":3214,"can":3215,"Ġqu":3216,"Ġremo":3217,"Match":3218,"_us":3219,"children":3220,"Ġcompute":3221,"table":3222,"Builder":3223,"arm":3224,"Ġcomm":3225,".me":3226,"_matmul":3227,"Start":3228,"ĠApp":3229,"uring":3230,"_stride":3231,"Ġtensors":3232,"ITY":3233,"_label":3234,"norm":3235,"Ġclo":3236,"_fn":3237,"ived":3238,"Ġregistry":3239,"ggle":3240,"ismatch":3241,"pha":3242,"ĠEmit":3243,"transform":3244,"Ġtape":3245,"Ġaccess":3246,"Ġfp":3247,"_pushstring":3248,"Ġsignal":3249,"(id":3250,"Ident":3251,"ML":3252,"rel":3253,"Ġ`[":3254,"SS":3255,"ĠInter":3256,"jor":3257,"oot":3258,"atio":3259,"lap":3260,"ottom":3261,"Ġ${":3262,"_starts":3263,"gap":3264,"Ġdist":3265,".dtype":3266,"Node":3267,"Ġnode":3268,"ĠEntry":3269,".hpp":3270,"cp":3271,"Ġcalls":3272,"Ġbranch":3273,"iagnostic":3274,"ĠĊ":3275,"Ġcatch":3276,"sses":3277,"arge":3278,"Ġhook":3279,"_layers":3280,"Ġreads":3281,"()).":3282,"Ġiter":3283,"compiler":3284,"Ġsaved":3285,"(feature":3286,"ĠÃĹ":3287,"Ġsequ":3288,"ĠVarId":3289,"Ġsee":3290,"ename":3291,"TP":3292,"ences":3293,"ĠWrite":3294,"Ġentries":3295,"api":3296,"ĠGame":3297,"mtKind":3298,"Ġrece":3299,"Ġrequired":3300,"_sh":3301,"Ġglobal":3302,"MS":3303,"une":3304,"cip":3305,"Ġsend":3306,"roller":3307,"Active":3308,"IC":3309,"Ġsu":3310,"Literal":3311,"_{":3312,"Ġdecla":3313,"GameServer":3314,"Ġhidden":3315,"-tile":3316,"ension":3317,"Ġchange":3318,"Module":3319,"Ġseed":3320,"ĠJSON":3321,"sync":3322,"Ġfields":3323,"57":3324,"cu":3325,"light":3326,"Engine":3327,"(false":3328,"Ġthey":3329,"Ġemission":3330,"_ele":3331,".S":3332,"Json":3333,"Ġcost":3334,"(model":3335,"-ex":3336,"Ġfeature":3337,"_pref":3338,"ĠPre":3339,"https":3340,"Ġlinear":3341,"(-":3342,"GGO":3343,"wi":3344,"Ġassign":3345,"ivations":3346,"ING":3347,"Not":3348,"ackend":3349,"upd":3350,"={}":3351,"raining":3352,"_A":3353,"step":3354,"iform":3355,"start":3356,"_set":3357,"_own":3358,"launch":3359,"Ġsilently":3360,"CFP":3361,"Url":3362,"font":3363,"mber":3364,"Ġsave":3365,"Ġones":3366,"ĠWengert":3367,"call":3368,"Ġnn":3369,"Entry":3370,".array":3371,"Is":3372,"Position":3373,"_W":3374,"Ġdx":3375,"Ġthree":3376,"=n":3377,"image":3378,".message":3379,"_State":3380,"Ġempty":3381,"Ġob":3382,"izes":3383,"Ġneeds":3384,"Ġcl":3385,"LU":3386,"ires":3387,"}\"Ċ":3388,"Ġsched":3389,":var":3390,"**:":3391,"_new":3392,"Ġsmall":3393,"Ġpool":3394,"lue":3395,"iny":3396,"other":3397,"igin":3398,"ASS":3399,"gram":3400,"Library":3401,"iguous":3402,"Sub":3403,"Ġcycle":3404,"ular":3405,"PD":3406,"host":3407,"uce":3408,"ĠKir":3409,"checkpoint":3410,"_cfie":3411,"ormat":3412,"road":3413,"Ġdrop":3414,"ĠAPI":3415,">>":3416,"Test":3417,"gpu":3418,"alle":3419,"_buf":3420,"Ġcontent":3421,"Ġform":3422,"Ġtargets":3423,"ĠUnity":3424,"sure":3425,"_frame":3426,"LOCK":3427,"hs":3428,"Ġdict":3429,"pow":3430,"Buf":3431,"Eq":3432,"iling":3433,"queue":3434,"Failed":3435,"body":3436,"ero":3437,"coder":3438,"Ġbelow":3439,",n":3440,"odegen":3441,"_seq":3442,"BM":3443,"book":3444,"No":3445,"aring":3446,"_device":3447,"Ġnames":3448,"Label":3449,"source":3450,"Ġbudget":3451,"75":3452,"Ġtol":3453,"tran":3454,"84":3455,"Ġmean":3456,"Max":3457,"-text":3458,"Ġright":3459,"andard":3460,"(src":3461,".shared":3462,"Ġcpu":3463,"ural":3464,"_ff":3465,"_steps":3466,"-v":3467,"_layout":3468,"Ġdecision":3469,".target":3470,"Dll":3471,"(&[":3472,"Ġrefusal":3473,"Ġinside":3474,"itnet":3475,"TA":3476,"itive":3477,"04":3478,"][":3479,"-width":3480,"(Native":3481,"Ġinner":3482,"Ġhard":3483,"okup":3484,"_over":3485,"_blocks":3486,"DllImport":3487,".a":3488,".o":3489,"Ġ{:?}":3490,"Ġattention":3491,"Box":3492,"vatar":3493,".Cdecl":3494,"terministic":3495,"[DllImport":3496,"ient":3497,"-layer":3498,"aper":3499,"Ġmeasure":3500,"_stmt":3501,"(P":3502,"Ġtran":3503,"()ĊĊ":3504,"aged":3505,"ĠAr":3506,"(NativeLibrary":3507,"ĠEd":3508,"With":3509,"find":3510,"_tiles":3511,"ĠCheck":3512,"riter":3513,"cket":3514,"Gener":3515,"Post":3516,"lication":3517,"Ġchain":3518,".length":3519,"uffers":3520,"lus":3521,"_pop":3522,"ness":3523,"ither":3524,"_init":3525,"ulti":3526,"(ptx":3527,"typeof":3528,"iagnostics":3529,"<[":3530,"loy":3531,"_csha":3532,"irestore":3533,"Ġsynthesize":3534,"ĠEntryPoint":3535,"(NativeLibraryName":3536,"Ġcalibration":3537,"ĠĠĠĠĠĠĠĠĠĠĠĠĠĠĠĠĠĠĠĠĠĠĠĠĠĠĠĠĠĠĠĠĠĠĠĠĠĠĠ":3538,"ĠUpdate":3539,"Ġport":3540,"OL":3541,"uon":3542,"ely":3543,"Ġcommand":3544,"ĠUN":3545,"ideo":3546,"ĠNextResponse":3547,"Ġsig":3548,"Ġalways":3549,"`/`":3550,"```Ċ":3551,"Ġadjoint":3552,"Ġfall":3553,"spec":3554,"_valid":3555,"Ġbinary":3556,"ropd":3557,"com":3558,"-weight":3559,"Ġcalled":3560,"ropdown":3561,".resolve":3562,"Ġstderr":3563,"Ġtransform":3564,"Spec":3565,"ended":3566,"_weights":3567,"ense":3568,"ĠPartial":3569,"AN":3570,"Socket":3571,"_pos":3572,".user":3573,".map":3574,".GetSteam":3575,"ultip":3576,"primary":3577,"-content":3578,"_y":3579,"Track":3580,"time":3581,"stroy":3582,"=e":3583,"qa":3584,"Ġfind":3585,"Ġrec":3586,"async":3587,"pth":3588,"_cpu":3589,"_rope":3590,".ISteam":3591,"<i":3592,"ctx":3593,"Ġemitter":3594,"Preview":3595,"VE":3596,"feat":3597,"mma":3598,"Ġdon":3599,"Ġmsg":3600,"ful":3601,"();":3602,"_value":3603,".at":3604,"army":3605,"Ġresponse":3606,"(IntPtr":3607,"Group":3608,"Ġadapter":3609,"tation":3610,"stim":3611,"stream":3612,"Ġdoesn":3613,"Ġ)ĊĊ":3614,"Ġscalar":3615,"Ġlink":3616,"($\"":3617,"Ġim":3618,"(o":3619,".R":3620,"RGA":3621,"ception":3622,"Ġenv":3623,".join":3624,"Ġ\"%":3625,"Weight":3626,"cep":3627,"_slot":3628,"Ġoriginal":3629,"ng":3630,"-th":3631,"_batch":3632,"ixtures":3633,"-test":3634,"ĠAl":3635,"UN":3636,"tc":3637,"ras":3638,">ĊĊ":3639,"rior":3640,"icro":3641,"radar":3642,"ĠIR":3643,"dk":3644,"uter":3645,"Ġinit":3646,"msg":3647,"Ġreset":3648,"Ġ`%":3649,"Ġview":3650,"Query":3651,"lueprint":3652,"ian":3653,"tadata":3654,"_check":3655,"_slice":3656,"inter":3657,"Ġpayload":3658,"Ġman":3659,"{}\",":3660,"-cli":3661,"iconst":3662,"_end":3663,"umb":3664,"module":3665,"ities":3666,"ĠStmtKind":3667,"Ġspawn":3668,".head":3669,"enumerate":3670,"ability":3671,"Ġprocess":3672,"Fused":3673,"_log":3674,"Ġzeros":3675,"Ġemits":3676,"Ġ{}\",":3677,"-pro":3678,"Ġreason":3679,"Ġregression":3680,"bove":3681,"HECK":3682,"Ġprefix":3683,".span":3684,"inned":3685,"Ġfollow":3686,"Ġsymbol":3687,"_field":3688,"Style":3689,"ragment":3690,"_source":3691,"%;Ċ":3692,"Ġsurface":3693,"raction":3694,"apes":3695,"_function":3696,"major":3697,"powers":3698,"ĠUI":3699,"ilog":3700,"isters":3701,"Open":3702,"Ġstub":3703,"28":3704,"ĠĠĠĠĠĠĠĠĠĠĠĠĠĠĠĠĠĠĠĠĠĠĠĠĠ":3705,"_def":3706,"vious":3707,".status":3708,"raints":3709,"_he":3710,"less":3711,"()),Ċ":3712,"Ġsepar":3713,"Ġsecond":3714,"akes":3715,".F":3716,".y":3717,"Ġabove":3718,"!(!":3719,"ĠBlock":3720,"_reference":3721,".Add":3722,"`:ĊĊ":3723,"Ġintegration":3724,"Friend":3725,"`.ĊĊ":3726,"Ġavailable":3727,"Ġsin":3728,"_body":3729,"_LO":3730,"ĠAST":3731,"_sink":3732,"Backward":3733,"_ut":3734,"Ġactivation":3735,"_rank":3736,"Ġanalysis":3737,"Pack":3738,"Ġaction":3739,"prox":3740,"Ġerrors":3741,"Ġactual":3742,"_mangle":3743,"enderfall":3744,"Ġtheir":3745,"ĠWGGO":3746,"jects":3747,"Ġret":3748,"_cache":3749,"Ġleft":3750,"holder":3751,"Container":3752,"Ġins":3753,"ĠISteam":3754,"Ut":3755,"MP":3756,"ased":3757,"ĠRead":3758,"Ġ??":3759,"calibration":3760,"(test":3761,"ĠĠĠĠĠĠĠĠĠĠ":3762,"Ġapply":3763,"Ġpair":3764,"@/":3765,"Ġlayers":3766,".pro":3767,"ĠinstancePtr":3768,"#end":3769,"_mma":3770,"120":3771,"Ġpasses":3772,"Ġdraft":3773,"Ġexpr":3774,"Ġli":3775,"upported":3776,"Ġcolumn":3777,"Ġarray":3778,"Loading":3779,"_url":3780,"inition":3781,"orrow":3782,"ĠAll":3783,"Ġwhat":3784,".jsx":3785,"=false":3786,"right":3787,"ily":3788,"Ġâī":3789,"_al":3790,"da":3791,"onal":3792,".position":3793,"Ġdouble":3794,"=[":3795,"_else":3796,"Ġfetch":3797,"entic":3798,"Ġallow":3799,"Ġproduces":3800,"IZ":3801,"Ġsb":3802,"irt":3803,"Ġwithin":3804,"tected":3805,"Remote":3806,"Ġter":3807,"ting":3808,"istent":3809,"Ġflat":3810,"aved":3811,"ior":3812,"\\\"":3813,"dr":3814,"ĠMA":3815,"_prefix":3816,".ad":3817,"Ġlive":3818,"Ġvalidation":3819,"Ġtree":3820,"sparent":3821,"Ġbetween":3822,"Ġargument":3823,"LINE":3824,"req":3825,"reed":3826,"eft":3827,"Ġimplementation":3828,"}:":3829,"Ġpacked":3830,"-end":3831,"_node":3832,"rong":3833,"Ġcvt":3834,"matches":3835,"lear":3836,"Ġdesc":3837,"Ġcopy":3838,"osc":3839,"Scene":3840,"_comp":3841,"Ġoptions":3842,"-surface":3843,"Ġcache":3844,"34":3845,"_projection":3846,"ategy":3847,".append":3848,"eed":3849,"ĠHBM":3850,"ĠKV":3851,"erance":3852,"segment":3853,"_file":3854,"_runtime":3855,"weep":3856,"_tracks":3857,"erence":3858,"Ġduring":3859,"Ġchild":3860,"Ġlogits":3861,"Ġfiles":3862,"_report":3863,"_bias":3864,"pping":3865,".randn":3866,"Ġsetp":3867,".W":3868,"LL":3869,"_snapshot":3870,".start":3871,"Ġfusion":3872,"Play":3873,"Access":3874,"Ġinvariant":3875,"Ġbehav":3876,"_DEVICE":3877,"Ġarm":3878,"gate":3879,"approx":3880,"mmar":3881,".expect":3882,"root":3883,"Ġshow":3884,".sync":3885,"ĠValue":3886,"ĠncclGin":3887,"odegenError":3888,"#endif":3889,"imp":3890,"Ġfuture":3891,"Ġneeded":3892,"Image":3893,"stamp":3894,"Ġcondition":3895,"firm":3896,"ĠRegister":3897,"#if":3898,"90":3899,"Local":3900,"ODE":3901,"peak":3902,"channel":3903,"Ġseg":3904,"_some":3905,"Offset":3906,"Symbol":3907,"Ġbar":3908,"ublished":3909,"andidate":3910,"roadcast":3911,"allel":3912,"Ġbits":3913,"-side":3914,"kd":3915,"Ġdirectly":3916,"vance":3917,"Ġbug":3918,"Ġwm":3919,"Ġ```":3920,"_linear":3921,"ermal":3922,"Ġstore":3923,"amW":3924,"Ġcar":3925,".path":3926,"ĠMMA":3927,"aves":3928,"UTF":3929,"../../":3930,"inite":3931,"condition":3932,"pus":3933,"reat":3934,"Ġcallback":3935,"-B":3936,"ĠY":3937,"arsh":3938,"anal":3939,"cores":3940,"uper":3941,"_res":3942,"place":3943,"ĠInput":3944,"Ġdifferent":3945,"Tree":3946,"_j":3947,"_int":3948,"Ġtitle":3949,"ĠDiscord":3950,"Ġ],Ċ":3951,"chunk":3952,".,":3953,"MSNorm":3954,")).":3955,"/*":3956,"=true":3957,"Mat":3958,"backward":3959,"Ġdepend":3960,"Ġaddress":3961,"covery":3962,"ĠMirror":3963,"EN":3964,"ral":3965,"vation":3966,"Ġunknown":3967,"ignore":3968,"Ġstmt":3969,".node":3970,"pawn":3971,"&&(":3972,"-ident":3973,"Ġthese":3974,"Ġwarp":3975,"Ġwalk":3976,"ĠVK":3977,"ocus":3978,"_host":3979,"Ġproduce":3980,"Ġ\"\"\"Ċ":3981,"-border":3982,"ORE":3983,"Tool":3984,"field":3985,"Storage":3986,"Ġmatrix":3987,")\\":3988,"Sync":3989,"Ġptxas":3990,"SteamAPIContext":3991,"(true":3992,"?;Ċ":3993,"Pa":3994,"cop":3995,"comm":3996,"ED":3997,"OU":3998,"left":3999,"pecs":4000,"Ġcannot":4001,"lpers":4002,"<'":4003,"unded":4004,".forward":4005,"IG":4006,"ĠCol":4007,"eam":4008,"amb":4009,"assert":4010,".TestIfAvailableClient":4011,"arshal":4012,"(con":4013,"(cfg":4014,"Ġdecode":4015,"ĠData":4016,"Ġmessages":4017,"(lua":4018,"amma":4019,"ases":4020,"Ġfails":4021,"(CSteamAPIContext":4022,"loor":4023,"ssign":4024,"\"\":":4025,"All":4026,"Task":4027,"Ġexpression":4028,"21":4029,"scale":4030,"::*":4031,"Ġcover":4032,"Ġ*/Ċ":4033,"Rep":4034,"oice":4035,"Ġcursor":4036,"Ġsuccess":4037,"Ġder":4038,"ĠTrue":4039,"ensit":4040,"see":4041,"Ġprecision":4042,"Min":4043,"Pref":4044,"gr":4045,"Ġ`(":4046,"ĠPack":4047,"Ġetc":4048,"Ġoption":4049,"!(\"{":4050,"InputAction":4051,"-height":4052,"ĠNativeMethods":4053,"\",{":4054,"ĠEach":4055,"generate":4056,"Linear":4057,"allow":4058,"Ġ((":4059,"_min":4060,"Ġprov":4061,"ĠuseState":4062,"tokens":4063,"Ġyour":4064,"_code":4065,"ones":4066,"Ġschema":4067,"ensitivity":4068,"_full":4069,"redict":4070,"Ġalso":4071,"Ġchar":4072,"nected":4073,"-l":4074,"_par":4075,"Ġhalf":4076,"Ġexec":4077,"irebase":4078,"(result":4079,"_ISteam":4080,"_utf":4081,"Ġlse":4082,"acy":4083,"45":4084,"lines":4085,"number":4086,"cover":4087,"ĠStep":4088,"-major":4089,"catch":4090,"Ġchanges":4091,"Ġresults":4092,"ULT":4093,"ival":4094,"ĠLua":4095,"Own":4096,"Signal":4097,"=>{":4098,"duct":4099,"loss":4100,"idx":4101,"Ġsection":4102,"Ġlane":4103,"ĠDE":4104,"bar":4105,"Ġpredicate":4106,"]ĊĊ":4107,"dis":4108,"elocity":4109,"Ġwrapper":4110,"300":4111,"TYPE":4112,"ĠTo":4113,"ĠDes":4114,"(tensor":4115,"Ġpeak":4116,"------------":4117,"Ġ/*":4118,"ĠKB":4119,"Ġmulti":4120,"-col":4121,"lier":4122,"ĠField":4123,"ĠMath":4124,"_accum":4125,"Ġbuf":4126,"aging":4127,"Ġlong":4128,"Ids":4129,"70":4130,"_le":4131,"auto":4132,"Ġversion":4133,"Ġcomb":4134,"Ġnumer":4135,"Transport":4136,"her":4137,"trip":4138,"_save":4139,"_,":4140,"Â·":4141,"ĠSpan":4142,"Ġcontract":4143,"className":4144,"sub":4145,"Ġyet":4146,"48":4147,"_active":4148,"umed":4149,"Ġslice":4150,"gnore":4151,"Ġrather":4152,"_experts":4153,"olding":4154,")|":4155,"_cap":4156,".py":4157,"Ġvariable":4158,"quires":4159,"ynthesize":4160,"Ġdiagnostics":4161,"_elems":4162,"pca":4163,"Ġauth":4164,"update":4165,"position":4166,"rammar":4167,"Base":4168,"Ġ=>Ċ":4169,"Ġgo":4170,"agnitude":4171,")\"Ċ":4172,"Ġsession":4173,"Ġspd":4174,"(path":4175,"ransfer":4176,"Member":4177,"ĠInteropHelp":4178,"-identical":4179,"]).":4180,"lem":4181,"imul":4182,"ĠUse":4183,"---|---|":4184,"77":4185,"index":4186,"collections":4187,"Ġrole":4188,"ridge":4189,"display":4190,"Ġspdlog":4191,"Ġengine":4192,"ĠCLI":4193,"exp":4194,"avatar":4195,"Ġexists":4196,"Ġdiagnostic":4197,"ĠCopy":4198,"(input":4199,"End":4200,"OST":4201,"do":4202,"Ġenabled":4203,"33":4204,".module":4205,"clare":4206,"ĠâĶĢâĶĢâĶĢâĶĢâĶĢâĶĢâĶĢâĶĢâĶĢâĶĢâĶĢâĶĢâĶĢâĶĢâĶĢâĶĢâĶĢâĶĢâĶĢâĶĢâĶĢâĶĢâĶĢâĶĢâĶĢâĶĢâĶĢâĶĢâĶĢâĶĢâĶĢâĶĢ":4207,"ĠRep":4208,"ĠFASE":4209,",e":4210,"poch":4211,"Ġfilter":4212,"Ġ}),Ċ":4213,"ulative":4214,"ĠID":4215,"-design":4216,"Ġmore":4217,"_emit":4218,"rows":4219,"onents":4220,"////////////////":4221,".emit":4222,"mean":4223,"isting":4224,"range":4225,"\";ĊĊ":4226,"UM":4227,"âĨĴ":4228,"ĠPCA":4229,"pack":4230,"enar":4231,"Ġreduction":4232,"Effect":4233,"Ġpopul":4234,"204":4235,"Ġfunctions":4236,"Ġsmem":4237,"changed":4238,"ĠFalse":4239,"Ġconstruct":4240,"romise":4241,"unknown":4242,"ĠConst":4243,"Origin":4244,"IZE":4245,"IST":4246,"Ġinternal":4247,"ĠWRGA":4248,"Ro":4249,"ĠPy":4250,"_acc":4251,"Ġ=================================":4252,"itect":4253,"Ġptr":4254,"ĠLoad":4255,"Ġsolid":4256,"vector":4257,"(||":4258,"Ġbackend":4259,"olation":4260,"ERS":4261,"Over":4262,"linear":4263,"-sm":4264,"-tier":4265,"Ġaccumulator":4266,"(null":4267,"_text":4268,"_const":4269,"velo":4270,"Ġundefined":4271,"Ġsupport":4272,"pilogue":4273,".use":4274,";--":4275,"Role":4276,"_H":4277,"`:":4278,"init":4279,"(block":4280,"FlashAttentionConfig":4281,"Phase":4282,"ique":4283,"rope":4284,"Ġrequire":4285,"ifier":4286,"Ġkernels":4287,"Fa":4288,"Ġagent":4289,"]);ĊĊ":4290,"400":4291,"Ġcustom":4292,"`]":4293,"iour":4294,"Ġignore":4295,"leton":4296,"ĠWhen":4297,"ĠSealStack":4298,"Ġserde":4299,"yte":4300,"icip":4301,"Ġstats":4302,"Ġdesign":4303,"ĠFlashAttentionConfig":4304,"Copy":4305,"}</":4306,"ferences":4307,"ĠRoPE":4308,"NCCL":4309,"forward":4310,"ackground":4311,"Ġannot":4312,"_ms":4313,"iring":4314,"_ops":4315,"float":4316,"_element":4317,"Ġprobe":4318,"Ġcanonical":4319,"Ġwriter":4320,"Ġliteral":4321,"Ġdebug":4322,"ĠNCCL":4323,"uple":4324,"_names":4325,"lane":4326,"arkdown":4327,"}>":4328,"ĠSpec":4329,"(const":4330,".register":4331,"len":4332,"Ġavoid":4333,"Ġ@%":4334,"ABLE":4335,"ale":4336,"grid":4337,"ors":4338,"])?;Ċ":4339,"ĠX":4340,"Ġnetwork":4341,"ically":4342,"Ġdiv":4343,"quival":4344,"imitive":4345,"features":4346,"Ġitems":4347,"_entry":4348,"âĢ":4349,"semb":4350,"Ġeps":4351,"Ġconvention":4352,"Ġlowering":4353,"Ġcapture":4354,"STE":4355,"ĠSD":4356,"_return":4357,"OC":4358,"Source":4359,"status":4360,"Ġtiles":4361,"_dq":4362,"ĉĉĉ":4363,".device":4364,"lude":4365,"ues":4366,"Ġiss":4367,"ĠMo":4368,"_inter":4369,"Ġcounter":4370,"Ġdeclar":4371,"Ġmath":4372,"38":4373,"RI":4374,"Window":4375,"ait":4376,"tid":4377,"esh":4378,"moe":4379,"Ġregisters":4380,"Ġreader":4381,"Select":4382,"26":4383,"inner":4384,"Ġinfo":4385,"ĠWh":4386,"Controller":4387,"Pos":4388,"ĠAND":4389,"âķĲâķĲâķĲâķĲâķĲâķĲâķĲâķĲ":4390,"ģâĶģâĶģâĶģâĶ":4391,"UA":4392,"<string":4393,"[str":4394,"_span":4395,"Ġpaths":4396,"():Ċ":4397,"ĠPar":4398,")ĊĊĊ":4399,"uperpowers":4400,"Ġ=================================================================":4401,"Port":4402,"_agent":4403,"ĠURL":4404,"Ġdelta":4405,"ĠĠĠĠĠĠĠĠĠĠĠĠĠĠĠĠĠĠĠĠ":4406,"Ġ{};":4407,"total":4408,"ucket":4409,"Ġwire":4410,"_{}":4411,"depend":4412,"_errors":4413,"ealth":4414,"_down":4415,"Ġseparate":4416,"'Ċ":4417,"_z":4418,"Ġscales":4419,"Ġtoo":4420,"Ġlength":4421,"Ġcos":4422,"header":4423,"byte":4424,"WD":4425,"Ġlat":4426,"Lobby":4427,".Append":4428,"52":4429,"_ty":4430,"_sub":4431,"ĠImplement":4432,"PDT":4433,"![Ċ":4434,"ji":4435,".Set":4436,"Ġdt":4437,"tip":4438,"Ġtool":4439,"ĠAt":4440,"lies":4441,"_SE":4442,"Ġconvert":4443,"thing":4444,"ithub":4445,"-bit":4446,"Ġsteps":4447,"_method":4448,"chitect":4449,"jected":4450,"_lossy":4451,"ĠVerify":4452,"/v":4453,"_bwd":4454,"Ġrunning":4455,">();Ċ":4456,"lean":4457,"Ġwhose":4458,"uffix":4459,"Alloc":4460,"enario":4461,"(value":4462,".approx":4463,"leted":4464,".display":4465,"ashSet":4466,"Shape":4467,"****************":4468,"renderer":4469,"ux":4470,"Ġold":4471,"Ġgradients":4472,"Ġevalu":4473,"tribute":4474,"];ĊĊ":4475,"uch":4476,".nn":4477,"_SIZE":4478,"ULL":4479,"(var":4480,"`).Ċ":4481,"ront":4482,"ytes":4483,"Ġremain":4484,"Ġ|ĊĊ":4485,"odal":4486,"Ġscene":4487,"-ad":4488,"ILE":4489,"ho":4490,"state":4491,"MAX":4492,"Ġclear":4493,"`;":4494,"bwd":4495,"Ġpreser":4496,"());ĊĊ":4497,"_pool":4498,"_none":4499,"_segment":4500,"':":4501,"cer":4502,"Ġ``":4503,"Ġharness":4504,"Ġbeta":4505,"aries":4506,".bias":4507,"ĠQuant":4508,"ceeds":4509,"background":4510,"ui":4511,"Ġdeferred":4512,",r":4513,"WOR":4514,"_inv":4515,"Automation":4516,"amily":4517,"ĠPartialEq":4518,"-S":4519,"cise":4520,"_calib":4521,"quality":4522,"QUI":4523,"info":4524,"acc":4525,"Ġsites":4526,"Ġsoftmax":4527,"/fixtures":4528,"osed":4529,"Ġtick":4530,"uting":4531,"_prune":4532,"emm":4533,"obj":4534,"cat":4535,"gress":4536,"role":4537,"Ġnone":4538,"/superpowers":4539,"_adapter":4540,"-Ċ":4541,"Ġdro":4542,".trim":4543,"synthesize":4544,"Ġwrong":4545,"Ġthrow":4546,"ĠonClick":4547,"until":4548,"ĠGener":4549,"Unit":4550,"Tier":4551,"_level":4552,"_launch":4553,"moid":4554,"erred":4555,"_matches":4556,"aive":4557,"Ġworkspace":4558,"ATH":4559,"eatures":4560,"riority":4561,"now":4562,"Ġconsume":4563,"\"]Ċ":4564,"-theme":4565,".On":4566,"Ġfixed":4567,"Ġbf":4568,"loop":4569,"Ġstays":4570,"_context":4571,"returns":4572,"lexer":4573,"Ġotherwise":4574,"(...":4575,"Ġ>Ċ":4576,"Ġauthor":4577,"ĠAD":4578,"rive":4579,"ories":4580,"Ġcu":4581,"pts":4582,"Ġreturned":4583,"inalize":4584,"Ġvalidate":4585,"/mod":4586,"Category":4587,"UST":4588,"`](":4589,"just":4590,"Ġbutton":4591,"tex":4592,"ĠSerialize":4593,"Ġquantization":4594,"_INLINE":4595,"Mul":4596,"Ġsystem":4597,"Ġmismatch":4598,"dering":4599,"ĠâĢĶĊ":4600,"Embed":4601,"_em":4602,"_train":4603,".num":4604,"Ġstructure":4605,"ranspose":4606,"])ĊĊ":4607,"ĠÎ":4608,"_lane":4609,"-pass":4610,"Ġsignature":4611,"Custom":4612,"DEX":4613,"_rate":4614,"Ġcomment":4615,"Ġproduction":4616,"23":4617,"HashMap":4618,"_diff":4619,"\")ĊĊ":4620,"Ġtolerance":4621,"-AD":4622,"ĠCHECK":4623,"SteamID":4624,"weights":4625,"zim":4626,"Ġbuffers":4627,"Ġestim":4628,"Variable":4629,"zimuth":4630,".error":4631,"Record":4632,"ired":4633,"lish":4634,"Ġalpha":4635,"Ġ!==":4636,".\"\"\"ĊĊ":4637,".active":4638,"OM":4639,"Ġflags":4640,"caling":4641,"ĠCommand":4642,"ison":4643,".ext":4644,"managed":4645,".per":4646,"ĠWith":4647,"Ġmatching":4648,"(sym":4649,"ĠDefault":4650,"%,":4651,"Discord":4652,"top":4653,"Ġworld":4654,"_scalar":4655,".check":4656,"Arg":4657,"Ġthere":4658,"Stats":4659,"-based":4660,"ooks":4661,"Ġsequence":4662,".',Ċ":4663,"rees":4664,"Ġap":4665,"/specs":4666,"(entry":4667,"<&":4668,"Part":4669,"hes":4670,"method":4671,"Ġdynamic":4672,"indices":4673,"Ġwrites":4674,".text":4675,"_ext":4676,"Ġ///Ċ":4677,"inputs":4678,"Ġdisabled":4679,"Ġquantize":4680,"WORK":4681,"ek":4682,"}),":4683,"ĠServer":4684,"_ident":4685,"Ġupdated":4686,"Ġjustify":4687,"imple":4688,"Us":4689,"bl":4690,"Ġeither":4691,"_partial":4692,"ĠAX":4693,"Ġnullptr":4694,"ilest":4695,".create":4696,"Flags":4697,"KIP":4698,"_;":4699,"_enabled":4700,"identity":4701,"Ġindices":4702,"Card":4703,"[data":4704,"wengert":4705,"alled":4706,"(\"[":4707,"assign":4708,"Ġsyn":4709,".min":4710,"Ġbehavior":4711,".P":4712,"Serialize":4713,"TER":4714,"lu":4715,"Ġtask":4716,"Ġtransport":4717,"uns":4718,"lack":4719,"Ġcompiled":4720,"_global":4721,"Ġ{}\",Ċ":4722,"49":4723,"pars":4724,"Ġshl":4725,"({Ċ":4726,"Ġradar":4727,"FAULT":4728,"Grid":4729,"_*":4730,"ĠMem":4731,"ĠLog":4732,".next":4733,"Ġeven":4734,"_ER":4735,"Ġndim":4736,"Ġmerge":4737,"Ġwggo":4738,"Ġshard":4739,"undle":4740,"Quant":4741,"-column":4742,"56":4743,"Ġjson":4744,"Ġinline":4745,"/sealstack":4746,"gy":4747,"smem":4748,"tings":4749,"Ġ&'":4750,"ĠPromise":4751,"Ġtrigger":4752,"Admin":4753,"(k":4754,"<(":4755,"ĠCranelift":4756,"Ġspecific":4757,"This":4758,"\"#":4759,"-comp":4760,"Ġstri":4761,"ĠTCFP":4762,"Ġleast":4763,"_then":4764,"));":4765,"Function":4766,"Rank":4767,"ret":4768,"Ġbinding":4769,"ĠRMSNorm":4770,"ĠUnityEngine":4771,"OK":4772,"Ġrule":4773,"Device":4774,"_rows":4775,"Right":4776,"_ne":4777,"ĠHttp":4778,"Ġinclude":4779,"copy":4780,"_dispatch":4781,"ĠExt":4782,"Provider":4783,"JsonProperty":4784,"Ġneg":4785,"_vars":4786,"Ġrelative":4787,"HTML":4788,"From":4789,"We":4790,"lora":4791,"Ġcreated":4792,"unit":4793,"Ġconsum":4794,"msnorm":4795,"Ġband":4796,"Ġdescription":4797,"Ġunchanged":4798,"mount":4799,"Ġoverflow":4800,"Unmanaged":4801,"(_)":4802,"Ġidentical":4803,"(default":4804,"Ġfill":4805,"Instance":4806,"ĠFa":4807,"ressed":4808,"_read":4809,"-bottom":4810,"Ġdeclared":4811,"(`":4812,"58":4813,"AND":4814,"Full":4815,"option":4816,"Ġmirror":4817,"AME":4818,"tile":4819,"tempt":4820,".stderr":4821,"Reference":4822,"(T":4823,"Ġtag":4824,"section":4825,"Ġhigh":4826,"Down":4827,"Slice":4828,"_only":4829,"link":4830,"ifest":4831,"ventory":4832,"hases":4833,"Registry":4834,")\",Ċ":4835,"auth":4836,"post":4837,"tmp":4838,"vg":4839,"Ġscore":4840,"idence":4841,"ĠPr":4842,"./":4843,"/c":4844,"_memory":4845,"valu":4846,"ĠFull":4847,"omic":4848,"Ġnamespace":4849,"ĠCompile":4850,"(std":4851,"NET":4852,"=null":4853,"OD":4854,"gent":4855,"Ġcell":4856,"Ġexpect":4857,"ends":4858,"reduce":4859,"ĠAny":4860,"System":4861,"Ġclock":4862,"Ġir":4863,"ssert":4864,"transp":4865,"Utils":4866,".color":4867,"_quantize":4868,"`,Ċ":4869,"cent":4870,"stderr":4871,"coding":4872,"estroy":4873,"-box":4874,"Ġcontrol":4875,"Ġdrift":4876,"ATE":4877,"bias":4878,"Ġcategory":4879,"Ġsemantic":4880,"Ġreview":4881,"Ġ>>":4882,"Ġfixtures":4883,"Ġpytest":4884,".UTF":4885,"LP":4886,"metic":4887,"validate":4888,"Ġsynthes":4889,"Ġtransparent":4890,"Snapshot":4891,"writ":4892,"Ġgiven":4893,"ĠFused":4894,"-so":4895,"Messages":4896,"Icon":4897,"Mesh":4898,"}\\":4899,"Ġconn":4900,"ĠKey":4901,"Ġmove":4902,"Ġverification":4903,"_root":4904,"`).":4905,"gin":4906,"ĠRef":4907,"_null":4908,"tore":4909,"];":4910,"onitor":4911,"Ġparity":4912,"Ġintermediate":4913,"ĠMAX":4914,"fr":4915,"Ġscratch":4916,"Ġboolean":4917,"ĠNew":4918,".diagnostics":4919,"spawn":4920,"_activations":4921,"WORKS":4922,"-on":4923,"Row":4924,"_quant":4925,"pear":4926,"Ġdetection":4927,"bytes":4928,"Filter":4929,"//Ċ":4930,"Ġax":4931,"ĠNumber":4932,"Ġsupported":4933,"_MAX":4934,"AMWORKS":4935,"Host":4936,"hd":4937,"Ġski":4938,"Ġimage":4939,"Ġepoch":4940,"_vec":4941,".attn":4942,"(new":4943,"-row":4944,"Version":4945,"ilation":4946,"Ġsealstack":4947,"Ġgraph":4948,"Ġactually":4949,"ĠArray":4950,"OS":4951,"react":4952,"Unknown":4953,"none":4954,"Ġuntil":4955,"uler":4956,"mail":4957,"yped":4958,"ĠIntPtr":4959,"95":4960,"Ġpage":4961,"Ġdq":4962,"Ġselected":4963,"_byte":4964,"Ġhelpers":4965,"(Unmanaged":4966,"));ĊĊ":4967,"create":4968,"Ġpolicy":4969,"ĠLevel":4970,"(|&":4971,"armup":4972,"arshalAs":4973,"(UnmanagedType":4974,"Line":4975,"Pr":4976,"Sp":4977,"}_":4978,"Ġ`\"":4979,"gegap":4980,"Ġprevious":4981,"TokenKind":4982,"ĠĠĠĠĠĠĠĠĠĠĠĠĠĠĠĠĠĠĠĠĠĠĠĠ":4983,"001":4984,"VarId":4985,"Lower":4986,"sym":4987,"ĠList":4988,"Ġmember":4989,"_default":4990,"aving":4991,"Ġtransition":4992,"Ġtransfer":4993,"-aware":4994,"-out":4995,"ploy":4996,"uage":4997,"_mul":4998,".Count":4999,"_arg":5000,"nf":5001,".pre":5002,"Del":5003,"View":5004,"ĠOr":5005,"profile":5006,"air":5007,"ged":5008,"atase":5009,")]":5010,"New":5011,"ii":5012,"Ġcur":5013,"_bindings":5014,"ĠNO":5015,"_lua":5016,"Ġcollect":5017,"Descriptor":5018,"Ġmultiple":5019,"Up":5020,"man":5021,"Ġexport":5022,"StringHandle":5023,"quired":5024,"server":5025,"Ġcranelift":5026,"matmul":5027,"_DONE":5028,"cont":5029,"_module":5030,".float":5031,"Ġprun":5032,"(types":5033,"ptimizer":5034,"Ġapplied":5035,"_lower":5036,"Ġshapes":5037,"Ġpointers":5038,"Extras":5039,"02":5040,"CH":5041,"imation":5042,"_fixture":5043,"rier":5044,"Ġnormalize":5045,"Ġstrides":5046,"Ġsafe":5047,"ĠSymbol":5048,"ersonal":5049,"_threshold":5050,"Ġopts":5051,"search":5052,"_exp":5053,"ExprKind":5054,"Hand":5055,"ron":5056,"adam":5057,"Ġ['":5058,"Ġstdlib":5059,"hover":5060,"mas":5061,"instance":5062,"iron":5063,".\"Ċ":5064,".last":5065,"Ver":5066,"oal":5067,"Ġ[\"":5068,"Ġsuc":5069,"37":5070,"_as":5071,"Ġstorage":5072,"ĠStr":5073,"_bf":5074,"imin":5075,"ĠCPDT":5076,"ĠRadar":5077,"ĠOut":5078,"Sum":5079,"ĠdQ":5080,"===\"":5081,"ĠModel":5082,"ĠLUA":5083,"_header":5084,"ublishedFile":5085,"elu":5086,"Ġcontain":5087,"ĠMet":5088,"Ġ||Ċ":5089,"ĠSee":5090,"MM":5091,"Ġwant":5092,"_spec":5093,"ĠFunction":5094,"Ġmetadata":5095,"ffective":5096,"Ġdims":5097,"Ġplaceholder":5098,"Behav":5099,"ĠUNITY":5100,"track":5101,"caff":5102,"Ġparsed":5103,"Ġanaly":5104,"lapsed":5105,"-P":5106,"-check":5107,"_round":5108,"cs":5109,"Ġfwd":5110,"Ġimp":5111,"ĠSize":5112,"_mlp":5113,"ĠMat":5114,"lacement":5115,"68":5116,"Of":5117,"Ġlobby":5118,".size":5119,"ides":5120,"-doc":5121,"QUIRE":5122,".\");Ċ":5123,"CUDA":5124,"Ġge":5125,"_dict":5126,"Csha":5127,"Comm":5128,"Callbacks":5129,"Ġicon":5130,"Ġheaders":5131,"Ġplanner":5132,"Ġslots":5133,"(request":5134,"-zero":5135,"Build":5136,"Ġcalib":5137,"device":5138,"entries":5139,"âĶĤ":5140,"Ġdeta":5141,"Stop":5142,"ĠINT":5143,"Ġeffective":5144,"GPU":5145,"cpu":5146,"hether":5147,"Ġimpl":5148,"Ġthreshold":5149,"Ġsome":5150,"Compile":5151,"Ġelements":5152,"\">Ċ":5153,"_compute":5154,"Ġ`#[":5155,"agree":5156,"imum":5157,"(H":5158,".ch":5159,"bi":5160,"non":5161,"Ġpad":5162,"(\"--":5163,"ĠTime":5164,"like":5165,"Stmt":5166,"Ġdiags":5167,"InputActionOrigin":5168,"(A":5169,"62":5170,":c":5171,"ercise":5172,"atched":5173,"Ġsweep":5174,"Ġsteam":5175,"ffi":5176,"osite":5177,"tax":5178,"Ġbeen":5179,"/flash":5180,"Ġsort":5181,"ĠDiagnostic":5182,".rn":5183,"Ġrotation":5184,"Selection":5185,"Ġallocation":5186,"GET":5187,"Ġeditor":5188,"Pass":5189,"Speed":5190,"_ok":5191,"Ġhold":5192,"Ġoutcome":5193,"udit":5194,"Rece":5195,"latform":5196,"ĠSend":5197,"_skip":5198,"Ġdeterministic":5199,"ĠPASS":5200,"cay":5201,"pace":5202,"chitecture":5203,"Ġsnap":5204,"omy":5205,"={`":5206,"Ġchecker":5207,"region":5208,"rides":5209,"-md":5210,"ĠAdamW":5211,"has":5212,"Ġ{\"":5213,"ĠRemo":5214,"idecar":5215,"Date":5216,"actions":5217,"ges":5218,"Ġfires":5219,"ĠĠĠĠĠĠĠĠĠĠĠĠĠĠĠĠĠĠĠĠĠĠĠĠĠĠĠĠĠĠĠĠĠĠĠĠĠĠĠĠĠĠĠ":5220,"actory":5221,"_info":5222,"Ġprev":5223,"_LOOP":5224,"break":5225,"peStyle":5226,"Ġlookup":5227,"media":5228,"_rawget":5229,"Ġnormalized":5230,"Register":5231,"parsity":5232,"`),":5233,"Ġloaded":5234,"astic":5235,"Ġsurfa":5236,"Class":5237,"OCA":5238,"full":5239,"voke":5240,",ĊĊ":5241,"cta":5242,"abase":5243,"script":5244,"-step":5245,"_channel":5246,".ok":5247,"Ġty":5248,"_budget":5249,"Ġselect":5250,"redential":5251,"ĠKirType":5252,"-primary":5253,"Ġ{}Ċ":5254,"ader":5255,"(batch":5256,"=np":5257,"ataset":5258,"\">":5259,"(q":5260,"Dtype":5261,"Wh":5262,"las":5263,"cos":5264,"ĠSTE":5265,"_total":5266,"vents":5267,"-par":5268,"NF":5269,"Width":5270,"oss":5271,"sume":5272,"Ġpartial":5273,"Ġstage":5274,"mak":5275,"Ġui":5276,"ĠReset":5277,")?;ĊĊ":5278,"Ġclamp":5279,"irtual":5280,"_projections":5281,"Ġhapp":5282,"(data":5283,"Range":5284,"Ġdk":5285,"ceed":5286,"_part":5287,"ĠĠĠĠĠĠĠĠĠĠĠĠĠĠĠĠĠĠĠĠĠĠĠĠĠĠĠĠĠ":5288,"Ġ'@/":5289,"Reaction":5290,"apply":5291,"ĠREQUIRE":5292,"fixture":5293,"oo":5294,"encode":5295,"Ġfresh":5296,"Ġstdout":5297,"Ġnote":5298,"Ġregion":5299,"enchmark":5300,"(!":5301,"Ġbq":5302,"define":5303,"Ġproduced":5304,"Bool":5305,"Kernel":5306,"_args":5307,"Ġ({":5308,"Ġlimit":5309,"Stream":5310,"split":5311,"_stream":5312,"Ġlike":5313,"-template":5314,"/Ċ":5315,"Tick":5316,"should":5317,"Ġshmem":5318,"Ġpacking":5319,"Disconnect":5320,"Ġstop":5321,"ĠSc":5322,"ithmetic":5323,"chemas":5324,"Ġ'{":5325,"_army":5326,"seg":5327,"_mo":5328,".state":5329,"conds":5330,".load":5331,".ops":5332,"=>":5333,"Ġrest":5334,"Ġdv":5335,"Ġuniform":5336,"_EInputActionOrigin":5337,"structure":5338,"http":5339,"_dis":5340,"_calibration":5341,"Ġadded":5342,"Changed":5343,"-hover":5344,"ilestone":5345,"44":5346,"ven":5347,"utation":5348,"\");":5349,"(|(":5350,"Ġremote":5351,"Ġmeasurement":5352,"âĢĵ":5353,"-soft":5354,"Ġcast":5355,"agic":5356,"Ġgu":5357,"Ġbuilt":5358,"ĠCompute":5359,"ĠâĶĤĊ":5360,"_precision":5361,"Delta":5362,"Left":5363,"Ġ});ĊĊ":5364,"Ġcomponent":5365,"chedule":5366,"miss":5367,"Ġworker":5368,"Ġboundary":5369,"ACK":5370,"LY":5371,"Some":5372,"ds":5373,"Ġflow":5374,"()));Ċ":5375,"Ġdw":5376,"Interner":5377,"_db":5378,"_store":5379,"Ġvariants":5380,"Control":5381,"andidates":5382,"ĠEditor":5383,"CI":5384,"}}":5385,"Ġfast":5386,"Ġ`${":5387,"ĠTrack":5388,"ĠNot":5389,"Exception":5390,".ndim":5391,"Remove":5392,"_[":5393,"_tests":5394,"nary":5395,"ving":5396,"Ġbwd":5397,"ĠVk":5398,"ironment":5399,"Behaviour":5400,".ge":5401,"/re":5402,"cpp":5403,"kf":5404,"sing":5405,"Ġmis":5406,"ĠMUST":5407,"-of":5408,"EF":5409,"Ġstyles":5410,"tric":5411,"_symbol":5412,"Ġ];Ċ":5413,"QA":5414,"RY":5415,"group":5416,"ores":5417,"pad":5418,"Ġra":5419,"Ġvelocity":5420,"_chunk":5421,"Ġparent":5422,"Matmul":5423,".un":5424,"WQ":5425,"deg":5426,"Ġscores":5427,"ensure":5428,"Ġcols":5429,"Ġconfigs":5430,"Ġobjects":5431,"(ref":5432,"Transform":5433,"lush":5434,"Ġclose":5435,"Ġbox":5436,"Ġvector":5437,"_sig":5438,"Ġlater":5439,"quential":5440,"Ġappro":5441,"ategories":5442,"/m":5443,"game":5444,"_seed":5445,"_inputs":5446,"';ĊĊ":5447,"Kw":5448,"card":5449,"_pipeline":5450,"ĠOp":5451,"Ġmeans":5452,"={()":5453,"Ġchecked":5454,"800":5455,"Cache":5456,"eration":5457,"Ġrewrite":5458,"Ġstyle":5459,"strong":5460,"-be":5461,"Ġowner":5462,"ĠGameObject":5463,".read":5464,"]:Ċ":5465,"hing":5466,"Ġurl":5467,"report":5468,"Ġfore":5469,"Ġsym":5470,"_func":5471,"Ġexit":5472,"osen":5473,"ĠGE":5474,"Ġnothing":5475,"Ġopen":5476,"Ġpassed":5477,"_capacity":5478,"rate":5479,"Ġred":5480,"admin":5481,"igid":5482,"_scales":5483,"ĠRust":5484,"ĠRecord":5485,"-direction":5486,"^T":5487,"requires":5488,"Ġstandard":5489,"Ġlr":5490,"ifies":5491,"ĠON":5492,"_ptrs":5493,"_Set":5494,"]:":5495,"eas":5496,"node":5497,"conomy":5498,"ists":5499,"ĠArg":5500,"Ġarmy":5501,"condary":5502,"Precision":5503,"-res":5504,"55":5505,"Ġconstant":5506,"Ġ_)":5507,"Segment":5508,"Ġscan":5509,"UILayout":5510,"Ġowned":5511,"umeric":5512,"_owned":5513,"-head":5514,"Emit":5515,"iction":5516,"Ġfactor":5517,"ĠOwn":5518,"Ġids":5519,"Bytes":5520,"Struct":5521,"(this":5522,"Det":5523,"Que":5524,"pc":5525,"rection":5526,"ĠdK":5527,"Inventory":5528,"Ġitself":5529,"(pro":5530,"Ġprimal":5531,"Ġsmoke":5532,"/V":5533,"Ctx":5534,"attr":5535,"Ġreach":5536,"_scratch":5537,".track":5538,"Ġaccumulation":5539,"Generic":5540,"Current":5541,"Section":5542,"dict":5543,"Ġstaging":5544,"Ġdead":5545,"riton":5546,"mts":5547,"tag":5548,"inOp":5549,"Ġwq":5550,".parse":5551,"uster":5552,"Definition":5553,"tegration":5554,"Ġ---Ċ":5555,"Ġclosure":5556,"Ġappear":5557,"EST":5558,"erature":5559,"arison":5560,"lops":5561,"Ġconnector":5562,"ĠBit":5563,"oci":5564,"ĠWire":5565,"ĠBackward":5566,"Ġsurv":5567,"Ġimmediate":5568,"eedback":5569,"_ver":5570,"stit":5571,"debug":5572,"context":5573,"ĠNF":5574,"serde":5575,"_ratio":5576,"-columns":5577,"`'":5578,"ccept":5579,"tree":5580,"Ġcamera":5581,"contains":5582,"ĠDec":5583,"Ġloc":5584,"formation":5585,"Ġsplit":5586,"egin":5587,"Frame":5588,"ru":5589,"Ġmicro":5590,"tections":5591,"ram":5592,"ĠSync":5593,"ĠCodegenError":5594,"query":5595,"crete":5596,"Decl":5597,"(shape":5598,"(String":5599,"Render":5600,"github":5601,"ffic":5602,"ators":5603,"Ġrouter":5604,"nccl":5605,"Ġpaper":5606,"Ġexercise":5607,"Ġ''":5608,"Compiler":5609,"ĠRopeStyle":5610,"Body":5611,"Kir":5612,"]),":5613,"ĠTe":5614,"ĠCI":5615,"ĠBoth":5616,"Ġaddition":5617,"Ent":5618,"(target":5619,"Ġschedule":5620,"96":5621,";border":5622,"Avatar":5623,"olute":5624,"Ġmodels":5625,"grade":5626,"ochastic":5627,"Ġannotations":5628,"_one":5629,"atal":5630,"Ġwrap":5631,"Ġvis":5632,"Ġrandn":5633,"works":5634,".z":5635,"PT":5636,"peat":5637,"Ġ-=":5638,"Ġupload":5639,"-card":5640,".reshape":5641,"-icon":5642,"uilt":5643,"âĶĢâĶĢâĶĢâĶĢâĶĢâĶĢâĶĢâĶĢâĶĢâĶĢâĶĢâĶĢ":5644,"ĠStart":5645,"Ġparameters":5646,"pag":5647,"_cont":5648,"Ġstructural":5649,".experts":5650,"Ġquery":5651,"600":5652,":f":5653,"day":5654,"Ġcli":5655,"-align":5656,"=F":5657,"Ġinf":5658,"_sign":5659,"-tab":5660,"{}\",Ċ":5661,"Ġoutputs":5662,"fase":5663,"Ġcp":5664,"dev":5665,"Ġwall":5666,"ummy":5667,"ensions":5668,"Ġresidual":5669,"Ġgenerated":5670,"Friends":5671,"icipant":5672,"Case":5673,"Ms":5674,"yb":5675,"keleton":5676,"Ġiteration":5677,"Vector":5678,"anes":5679,"Ġbkv":5680,"Ġinference":5681,"ineSlice":5682,"ĠValid":5683,"_cost":5684,"Channel":5685,"Ġtracks":5686,"Ġdriver":5687,"Ġpeer":5688,")}Ċ":5689,"/C":5690,"ou":5691,"verse":5692,"_after":5693,"_PATH":5694,"Mouse":5695,"Ġsidecar":5696,")),":5697,"Title":5698,"Writer":5699,"chron":5700,"Ġattn":5701,"Ġdecorators":5702,"(B":5703,"03":5704,"=self":5705,"IM":5706,"RC":5707,"Ġfour":5708,"Ġremove":5709,"Ġconf":5710,"Ġprotected":5711,"ĠuserId":5712,".params":5713,"sembly":5714,"Format":5715,"cfp":5716,"Ġplus":5717,"Ġinvalid":5718,"Ġdiver":5719,"ĠClient":5720,"Ġ'{}":5721,"Ġprogram":5722,"workspace":5723,"Listener":5724,"where":5725,"Float":5726,"Radar":5727,"alone":5728,"eta":5729,"Ġgreen":5730,"response":5731,"_length":5732,"ided":5733,"!(\"[":5734,".has":5735,"Asset":5736,"Ġcorrectness":5737,"(int":5738,"(arg":5739,"aint":5740,"Ġbl":5741,"Params":5742,"itness":5743,"-core":5744,"CAR":5745,"Ġbest":5746,"Ġmapp":5747,"ĠText":5748,"_src":5749,"_factor":5750,"ersistent":5751,"rowser":5752,"udio":5753,".success":5754,"ambda":5755,"['":5756,"title":5757,"ĠSim":5758,"(\".":5759,"Ġrandom":5760,"_clip":5761,"addr":5762,"_seg":5763,"Ġownership":5764,"/test":5765,"Actions":5766,"custom":5767,"mask":5768,"ents":5769,"ĠParse":5770,"inks":5771,"Ġentire":5772,"`](../../":5773,"Dim":5774,"Valid":5775,"_;Ċ":5776,"_scope":5777,"Ġdet":5778,"Ġhtt":5779,"_accumul":5780,"Ġsetup":5781,"python":5782,"Pipe":5783,"cel":5784,"ha":5785,"Ġsk":5786,"Ġwere":5787,"orth":5788,"andalone":5789,"Ġcomplete":5790,"-index":5791,"'],Ċ":5792,"lider":5793,"Ġtl":5794,"Ġconversation":5795,"ested":5796,"causal":5797,".str":5798,"_local":5799,"_back":5800,"components":5801,"INDEX":5802,"Ġextra":5803,"offset":5804,"Ġexample":5805,".step":5806,"/bitnet":5807,".advance":5808,"Prefab":5809,"anual":5810,"html":5811,"_not":5812,"-spec":5813,"Ġconsumed":5814,"Ġmethods":5815,"Ġresolved":5816,"ging":5817,"iases":5818,"unic":5819,"Ġwrga":5820,"ĠFile":5821,"anguage":5822,"Ġrefuse":5823,"Comment":5824,"(ui":5825,"Ġspace":5826,"::*;Ċ":5827,"ERSION":5828,",{":5829,"Work":5830,"dst":5831,"oftmax":5832,"Ġgates":5833,"Ġcharacter":5834,"\"\"\"":5835,"erialized":5836,"params":5837,"Theme":5838,"-semantic":5839,"-up":5840,"Mask":5841,"Ġepilogue":5842,"atest":5843,"_desc":5844,"ĠIN":5845,"engagement":5846,"-pre":5847,"-menu":5848,"utomatic":5849,"Ġkeeps":5850,"Tooltip":5851,"<_":5852,"Pool":5853,"Tag":5854,"Ġentity":5855,"lee":5856,"Ġbroadcast":5857,"Ġstored":5858,"istance":5859,"_decorator":5860,"formance":5861,"Collections":5862,"SED":5863,"ĠMemory":5864,"85":5865,"hidden":5866,"Ġsw":5867,"Ġincl":5868,"**Ċ":5869,"thread":5870,"ĠMB":5871,"ĠDTYPE":5872,"Ġmeta":5873,"Items":5874,"(y":5875,".layer":5876,"Gradient":5877,"Guild":5878,"_last":5879,"window":5880,"Ġstay":5881,"Ġsince":5882,"-loop":5883,"Lambda":5884,"_HE":5885,"cvt":5886,"ropy":5887,"Ġisinstance":5888,"mooth":5889,"_PTX":5890,"ameters":5891,"\"`":5892,",.":5893,"CU":5894,"Menu":5895,"inct":5896,"Ġcandidate":5897,"Ġindepend":5898,"cogn":5899,"ĠĠĠĠĠĠĠĠĠĠĠĠĠĠĠĠĠĠ":5900,".find":5901,"Ġnoise":5902,"prev":5903,"Ġrepo":5904,"IB":5905,"Page":5906,"Prune":5907,"Sim":5908,"Send":5909,"_user":5910,"utod":5911,"Ġbrain":5912,"\",\"":5913,"ĠMin":5914,"_record":5915,"Ġkeys":5916,"Ġobser":5917,"Backend":5918,"bf":5919,"ĠMulti":5920,"Ġfailing":5921,"-A":5922,"29":5923,";case":5924,"YTE":5925,"hys":5926,"Ġplay":5927,"Ġmed":5928,"Ġbuilds":5929,"Ġtimestamp":5930,"Ġtracking":5931,".Is":5932,"Ġclaim":5933,"Ġtypename":5934,"ybrid":5935,"bm":5936,"Ġdetect":5937,"127":5938,"-top":5939,"Decor":5940,"ĠWeightMap":5941,"ĠsteamID":5942,".return":5943,"GIST":5944,"darray":5945,"nr":5946,"}'":5947,"Ġcre":5948,"anced":5949,"Ġwarn":5950,"Ġwarning":5951,"Ġ`{":5952,"Ġdid":5953,"Ġdev":5954,"Ġexperts":5955,"Ġproject":5956,"Ġinteger":5957,"interner":5958,"Thread":5959,"Ġobj":5960,"Ġinsert":5961,"utodiff":5962,"future":5963,"ote":5964,"unches":5965,"Ġear":5966,"Ġassertion":5967,"ibling":5968,"Ġreadonly":5969,"_SKIP":5970,"Character":5971,"Ġhandles":5972,"cipline":5973,".Collections":5974,"AGE":5975,"LS":5976,"typ":5977,"Ġfin":5978,"Ġsafetensors":5979,"ĠSame":5980,"Ġweapon":5981,"_unit":5982,"igidbody":5983,"same":5984,"uid":5985,"Ġdir":5986,"ĠPlayer":5987,"_probe":5988,"ĠPathBuf":5989,")));Ċ":5990,"Table":5991,"urp":5992,"_cor":5993,"Ġregistered":5994,"Ġpinned":5995,"chain":5996,"ĠIt":5997,"SteamGameServer":5998,"(grad":5999,"SerializeField":6000,".new":6001,"_indices":6002,"Ġ[]Ċ":6003,"ĠIs":6004,"-sub":6005,"moji":6006,".ndarray":6007,"Ġtypeof":6008,"_loop":6009,"medium":6010,"/pca":6011,".extend":6012,"Func":6013,"aN":6014,"selected":6015,"_gemm":6016,"):ĊĊ":6017,"Ġparser":6018,"Ġpositions":6019,"Ġscript":6020,"_rawset":6021,"Ġsummary":6022,":center":6023,"packed":6024,"Ġpred":6025,"()),":6026,"_nsl":6027,"Ġ{};\\":6028,"Ġpl":6029,"Ġhash":6030,"_kind":6031,".sub":6032,"Ġcurrently":6033,"Edit":6034,"Ġresolution":6035,"Auto":6036,"az":6037,"Ġrecompute":6038,"Ġmgr":6039,"-stacked":6040,"ources":6041,"_peak":6042,"rs":6043,"}]":6044,"Ġpick":6045,"Ġstack":6046,"_thread":6047,"Ġoperand":6048,"tomic":6049,"_ID":6050,"Ġpaged":6051,"Ġspeed":6052,"ĠCTA":6053,"exit":6054,"ffff":6055,"files":6056,"parent":6057,"quivalence":6058,"Ġhttps":6059,"Number":6060,"URL":6061,"Ġpush":6062,"_reset":6063,".txt":6064,"Ġdimension":6065,"Ġconsole":6066,"PropertyName":6067,".into":6068,"/lib":6069,">;\\":6070,"atur":6071,"Ġconfirm":6072,"Ġdelete":6073,"Ġratio":6074,"ĠOR":6075,"ĠIte":6076,"avig":6077,"ĠRequest":6078,"ĠZk":6079,"[j":6080,"global":6081,"leg":6082,"Ġfire":6083,"ssl":6084,"Ġalong":6085,".body":6086,"ĠStage":6087,"HTTP":6088,"Ġhardware":6089,"=!":6090,"_order":6091,"Ġfa":6092,"Ġmost":6093,"velocity":6094,"force":6095,"ĠColor":6096,"covered":6097,"-bearing":6098,";if":6099,"ish":6100,"atter":6101,"Ġaxs":6102,"Ġflash":6103,"Ġwhole":6104,"(ptr":6105,"ĠKernel":6106,"ToString":6107,"(cuda":6108,".remove":6109,"Ġsaves":6110,"which":6111,"<Vec":6112,"Ġinstr":6113,"Ġvisible":6114,"ĠAct":6115,".stmts":6116,"Ġdocs":6117,"missing":6118,"08":6119,"Dropdown":6120,"XT":6121,"Ġconstruction":6122,"ĠEq":6123,"Conversation":6124,"::{Ċ":6125,"_VERSION":6126,">;Ċ":6127,"OUT":6128,"alax":6129,"Ġfloor":6130,"ulong":6131,"ĠSprint":6132,"_gradient":6133,"ĠOnly":6134,".empty":6135,"Ġplacement":6136,"_REGIST":6137,"adamard":6138,"alaxy":6139,"Bot":6140,"ipped":6141,"_features":6142,"Ġlarge":6143,"Ġcould":6144,".flags":6145,"Ġnear":6146,"eader":6147,"Move":6148,"Ġ{:?}\",Ċ":6149,"Wire":6150,"sw":6151,"slider":6152,"quence":6153,"ĠHashSet":6154,"mov":6155,"ogle":6156,"Ġsnapshots":6157,"_cols":6158,"Ġnumerical":6159,"/M":6160,"Global":6161,"Scale":6162,"_mem":6163,"dq":6164,"dtype":6165,"padding":6166,"enum":6167,"idency":6168,"olution":6169,"amm":6170,"Ġlands":6171,"ĠAWQ":6172,"_options":6173,"Ġallocator":6174,"firmed":6175,"ĠSDK":6176,".update":6177,"object":6178,"ĠĠĠĠĠĠĠĠĠĠĠĠĠĠ":6179,"Ġcpdt":6180,"Ġsample":6181,"Ġgqa":6182,"_aware":6183,".config":6184,"_role":6185,"46":6186,"Pipeline":6187,"US":6188,"_if":6189,"ĠTransform":6190,"ĠAB":6191,"_stats":6192,"vict":6193,".D":6194,"fd":6195,"loud":6196,"Ġ\".":6197,"_when":6198,"-batch":6199,"ampling":6200,"registry":6201,"ĠVerilog":6202,"-exact":6203,".lock":6204,"_temp":6205,"incip":6206,"Ġali":6207,"ulator":6208,"Ġcontains":6209,"Ġdest":6210,"Ġrt":6211,"Reset":6212,"produ":6213,"_run":6214,"Ġcounts":6215,"bit":6216,"Ġpanel":6217,"Ġ{ĊĊ":6218,"Ġdb":6219,"Ġdump":6220,"_final":6221,"Ġexpert":6222,"Ġlogg":6223,"backend":6224,"ptxas":6225,"Ġabout":6226,"ĠItem":6227,"before":6228,"mode":6229,"Ġtri":6230,"Ġtuple":6231,"Ġway":6232,"Ġdot":6233,"Ġprune":6234,".time":6235,"_BYTE":6236,"PathBuf":6237,"#\"Ċ":6238,",\\":6239,"pga":6240,"educe":6241,"content":6242,"experts":6243,"Ġshort":6244,"_available":6245,"\":\"":6246,".total":6247,"userId":6248,"-D":6249,"78":6250,"Policy":6251,"aunch":6252,"jac":6253,"oogle":6254,"stant":6255,"Coop":6256,"Props":6257,"ISABLE":6258,"Ġimmediately":6259,"CARGO":6260,"*(":6261,"[k":6262,"}\")":6263,"Ġcargo":6264,"Ġ\"Ċ":6265,"Ġease":6266,"Ġgated":6267,"cheme":6268,".declare":6269,"egative":6270,"Ġchildren":6271,"(msg":6272,"LA":6273,"aw":6274,"arrow":6275,"Ġfs":6276,"amage":6277,"cache":6278,"gence":6279,"{},":6280,"_strides":6281,"analysis":6282,"iance":6283,"Ġwv":6284,"Ġdepth":6285,"aked":6286,"ormalized":6287,"Ġoperator":6288,".Se":6289,".key":6290,"27":6291,"Ġinformation":6292,"oll":6293,"_bound":6294,"_fusion":6295,"ĠMock":6296,"ĠDis":6297,"private":6298,"_handle":6299,"INT":6300,"SealStack":6301,"Ġloads":6302,"bool":6303,"ough":6304,"_non":6305,"Ġconstants":6306,"_arena":6307,"moized":6308,"Sockets":6309,"ĠPython":6310,"NativeMethods":6311,"_lexer":6312,"filer":6313,"Ġarena":6314,"serial":6315,"\"}":6316,"NslTensor":6317,"VER":6318,"sr":6319,"ermin":6320,"Ġretry":6321,"etime":6322,"(\"/":6323,"ĠForward":6324,"_iSteam":6325,"disabled":6326,"_returns":6327,".or":6328,"Surface":6329,"_rc":6330,"pos":6331,"lamp":6332,"Ġknown":6333,"_std":6334,".mode":6335,"Ġleg":6336,"-glow":6337,"_regs":6338,"Memory":6339,"Ġforeach":6340,"(Network":6341,"erved":6342,"Ġequal":6343,"Ġhow":6344,"_detection":6345,"Ġbecome":6346,"Ġroute":6347,"ersonalizer":6348,":{":6349,"plain":6350,"Ġfunc":6351,"lict":6352,"124":6353,"stdout":6354,".userId":6355,"EY":6356,"_an":6357,"sin":6358,"ti":6359,"inline":6360,"_pack":6361,"_band":6362,"ĠParam":6363,"CTION":6364,")\");Ċ":6365,".unwrap":6366,"Ce":6367,"bound":6368,"lision":6369,"Ġplain":6370,"_next":6371,"Ġprompt":6372,"Ġmoment":6373,"FIE":6374,"[:":6375,"fin":6376,"ww":6377,"inator":6378,"Ġtrace":6379,"Ġavatar":6380,"Ġlif":6381,"_export":6382,"-phase":6383,"Interval":6384,"Ġpoints":6385,"(op":6386,"olog":6387,"atabase":6388,"Ġwk":6389,"Timeout":6390,"_configs":6391,"Dep":6392,"Par":6393,"{display":6394,"lax":6395,"Ġselection":6396,"Ġconnect":6397,"Matchmak":6398,"Ġnodes":6399,"\"{":6400,".log":6401,".transform":6402,":[":6403,"URE":6404,"dx":6405,"dir":6406,"lid":6407,"torch":6408,"Ġensure":6409,"ppy":6410,"Ġbeing":6411,"mption":6412,"-item":6413,"]=":6414,"handle":6415,"Ġes":6416,"Ġbridge":6417,"_pattern":6418,"_sim":6419,"tocol":6420,"prite":6421,"Ġalt":6422,"Ġconstraints":6423,"Enabled":6424,"ToClient":6425,"ATION":6426,"_registry":6427,"mantics":6428,"(make":6429,".abs":6430,"Ġsys":6431,"Ġsearch":6432,"Ġthose":6433,"(body":6434,"Ġdiscipline":6435,"Ġsilent":6436,"caffolding":6437,"Form":6438,"_radar":6439,"zip":6440,"Ġ\").":6441,"_phase":6442,"slate":6443,"ĠFusion":6444,"Connected":6445,"ĠBLOCK":6446,"Ġmesh":6447,"Ġcallers":6448,"999":6449,"Ġmarker":6450,"={`${":6451,".layers":6452,"moke":6453,"_ci":6454,"ĠIP":6455,"mote":6456,"-free":6457,"Extract":6458,"Ġdownstream":6459,".Write":6460,"_elements":6461,"Ġdeclaration":6462,"agreement":6463,".up":6464,"Fusion":6465,"Schema":6466,"_into":6467,"bot":6468,"seed":6469,"Ġreq":6470,"Ġreferences":6471,"Ġstores":6472,"Ġdeco":6473,"liable":6474,"Ġyield":6475,"Ġconfiguration":6476,"ĠDEFAULT":6477,"Ġpruned":6478,"Detail":6479,"gt":6480,"Ġ\"__":6481,"Ġ[],Ċ":6482,"Ġprob":6483,"ĉĉĉĉ":6484,".wq":6485,"-state":6486,"_vals":6487,"Ġbounds":6488,"Ġfinalize":6489,"Queue":6490,"_BYTES":6491,"select":6492,"Ġ(Â§":6493,"ixel":6494,"-gate":6495,".async":6496,"Ġcalc":6497,"afety":6498,"_MODE":6499,"analy":6500,"copied":6501,"Ġguar":6502,"sqrt":6503,"ids":6504,"ffn":6505,"inspect":6506,"location":6507,"LoRA":6508,"Ġbased":6509,"Ġreduce":6510,"-nav":6511,".In":6512,"_message":6513,"Ġtakes":6514,"Ġswitch":6515,"(nccl":6516,".starts":6517,"819":6518,"<usize":6519,"adapter":6520,"rastructure":6521,"Ġproof":6522,"acher":6523,"_TB":6524,"Ġrepresent":6525,"SteamNetworkingSockets":6526,"=False":6527,"Bit":6528,"supported":6529,"warp":6530,"_tmp":6531,"ription":6532,".ts":6533,"180":6534,"ĠDeferred":6535,"ĠApply":6536,"redicted":6537,"_REGISTRY":6538,".op":6539,"Half":6540,"PA":6541,"ROR":6542,"ius":6543,"social":6544,"_before":6545,"imate":6546,"ĠCycle":6547,"Ġhi":6548,".switch":6549,"Ġowns":6550,"Ġupdates":6551,"_small":6552,"Ġskipped":6553,".alloc":6554,"54":6555,"Cor":6556,"Wengert":6557,"hir":6558,"td":6559,"ula":6560,"Ġlock":6561,"ublic":6562,"Ġ+Ċ":6563,"_write":6564,"(sim":6565,"-plan":6566,"_DIR":6567,"training":6568,"Ġremaining":6569,".sh":6570,"Ġpure":6571,"Ġsizes":6572,"Ġgen":6573,"_decl":6574,"ĠUInt":6575,"Loader":6576,"ĠFAIL":6577,"(Name":6578,"Api":6579,"roke":6580,"Ġok":6581,"ĠSignal":6582,"ĠAfter":6583,"uplic":6584,"ured":6585,"Ġunits":6586,"(dim":6587,"ĠIntCount":6588,".memoized":6589,"ssue":6590,"Ġdy":6591,"_ca":6592,".lua":6593,"Ġtimeout":6594,"-specific":6595,"Matchmaking":6596,"ken":6597,"Ġscaling":6598,"igible":6599,"ively":6600,"Ġgamma":6601,"Ġ**`":6602,"_decay":6603,"Search":6604,"ĠExpression":6605,"Only":6606,".Sequential":6607,"(string":6608,":hover":6609,";gap":6610,"Ġ}`":6611,"amax":6612,"ĠEvery":6613,"corer":6614,"ĠSteamworks":6615,"ultiple":6616,"Ġcarry":6617,"-run":6618,"Hash":6619,"Rec":6620,"SC":6621,"cript":6622,"utex":6623,"otion":6624,"ĠTwo":6625,"examples":6626,"Ġlib":6627,"Ġrad":6628,"Ġshare":6629,"_lora":6630,"_CUDA":6631,"Ġgroups":6632,"\"\",Ċ":6633,"(key":6634,"Div":6635,"IF":6636,"ĠdV":6637,"ĠSub":6638,"Ġrng":6639,"Ġrounding":6640,"Ġprojections":6641,".{":6642,".label":6643,".local":6644,"_DE":6645,"uched":6646,"Ġautomatic":6647,"Ġborrow":6648,"Ġmakes":6649,"isk":6650,"_trace":6651,"Ġ_,":6652,"ĠHT":6653,"proj":6654,"ised":6655,"Attribute":6656,"----------------------------------------------------------------------------":6657,"soft":6658,"OUNT":6659,"Ġlatency":6660,"Renderer":6661,"Ġmse":6662,"ocation":6663,"Ġunre":6664,"Ġattempt":6665,"Ġthreads":6666,"/phases":6667,"Rout":6668,"UInt":6669,"[return":6670,"ains":6671,"client":6672,"ls":6673,"iters":6674,"aps":6675,"Ġdecomp":6676,"Ġdeploy":6677,"ofline":6678,"Ġworks":6679,"forge":6680,"Ġgenerate":6681,"Handler":6682,"-C":6683,"Dir":6684,"Wggo":6685,"kit":6686,"Ġqueue":6687,"Ġmagnitude":6688,"Ġ\"-":6689,"rash":6690,"âĶĢĊ":6691,"_warp":6692,"!(\"{}":6693,"_attn":6694,"_core":6695,"Ġarithmetic":6696,"ĠCoop":6697,"_GPU":6698,"Ġsemantics":6699,"ager":6700,"Ġiff":6701,"Ġland":6702,".csha":6703,"Ġchecks":6704,"ALIB":6705,"Meta":6706,"Ġreplace":6707,"-toggle":6708,"Reader":6709,"Output":6710,"']":6711,"PP":6712,"first":6713,"iB":6714,"_has":6715,"Ġcodes":6716,"formed":6717,"Grad":6718,"Values":6719,"after":6720,"bin":6721,"metric":6722,"entropy":6723,"ĠNon":6724,"ĠMarshalAs":6725,"Ġship":6726,"Ġouter":6727,"ĠTests":6728,".seal":6729,"Ġrequested":6730,"ĠLoRA":6731,"Ġevents":6732,"-local":6733,"Duration":6734,"fmt":6735,"lt":6736,"must":6737,"_build":6738,"_fase":6739,"Ġcoop":6740,"ĠFirestore":6741,"_wrga":6742,"Ġnamed":6743,"ĠExport":6744,"Author":6745,"rapping":6746,"dout":6747,"Ġ))Ċ":6748,"Ġ(~":6749,"Ġelem":6750,"Ġdm":6751,"ĠPort":6752,"ĠFind":6753,"checked":6754,"RemoteStorage":6755,"ĠAXS":6756,"Ġepochs":6757,"Ġbw":6758,"Ġwengert":6759,"uristic":6760,"chor":6761,"ĠPass":6762,"_match":6763,"Ġcomputed":6764,"-place":6765,"Ġ&&Ċ":6766,"minecraft":6767,"Ġlogic":6768,"And":6769,"Ġ{:?}\",":6770,"_parts":6771,"-over":6772,"EP":6773,"Ġpca":6774,"ĠTraining":6775,"asic":6776,":**ĊĊ":6777,"ROLL":6778,"Ġembedding":6779,"Ġremoved":6780,"jacent":6781,".'":6782,".col":6783,"Off":6784,"Pad":6785,"TH":6786,"Trans":6787,"play":6788,"rigger":6789,"Ġmig":6790,"Ġ\"@":6791,".func":6792,"Ġlex":6793,"-style":6794,"mium":6795,"ĠUnit":6796,"Ġexplicitly":6797,"Ġallowed":6798,"Ġoptional":6799,"ooter":6800,"-${":6801,"72":6802,"Hook":6803,"cut":6804,"pass":6805,"}/":6806,"ante":6807,"Ġslic":6808,"Ġwiring":6809,"_di":6810,"-byte":6811,"ĠInterner":6812,"403":6813,"Address":6814,"APIContext":6815,"STEAMWORKS":6816,"Ġdropped":6817,"SteamGameServerAPIContext":6818,"(PropertyName":6819,".env":6820,".rank":6821,"/cpdt":6822,"RU":6823,"//----------------------------------------------------------------------------":6824,"strib":6825,"Ġdistrib":6826,"_semantic":6827,"DataMember":6828,".blocks":6829,"DefaultValue":6830,"ĠEmitDefaultValue":6831,"reedy":6832,"urpose":6833,"\"].":6834,"(())Ċ":6835,"Ġnet":6836,"Ġrejected":6837,"olved":6838,"ĠTiny":6839,"agg":6840,"_retention":6841,"Ġcomplet":6842,"Ġpreview":6843,"corded":6844,"Ġupper":6845,"150":6846,"wiG":6847,"ĠConstants":6848,"_ctx":6849,"ľâĶĢâĶĢ":6850,"ushort":6851,"_style":6852,"Counter":6853,".toml":6854,"Ġcached":6855,".TestIfAvailableGameServer":6856,"//-----------------------------------------------------------------------------Ċ":6857,"[..":6858,"Ġari":6859,"_sidecar":6860,"_flag":6861,"coded":6862,"Ġadds":6863,"ISABLESTEAMWORKS":6864,".H":6865,".test":6866,"=r":6867,"GD":6868,"PrimalOp":6869,"Rate":6870,"atomic":6871,"_position":6872,"_sp":6873,"chestr":6874,"_values":6875,"_status":6876,".fused":6877,"errors":6878,"Example":6879,"_dims":6880,"MENT":6881,"(CSteamGameServerAPIContext":6882,"Ġranks":6883,"Diagnostic":6884,"OF":6885,"_Q":6886,"_engine":6887,"_bar":6888,"Ġconstexpr":6889,"Expression":6890,"-table":6891,"Template":6892,"?Ċ":6893,"empty":6894,"Ġfase":6895,"_speed":6896,".skip":6897,"RAM":6898,"Ġterrain":6899,"(F":6900,"Ġpin":6901,"abort":6902,"ĠRuntime":6903,"cape":6904,"pectral":6905,"_object":6906,"(payload":6907,"_exit":6908,"Ġready":6909,"Timeline":6910,"stdlib":6911,"Ġhandler":6912,"ĠKirOp":6913,"ĠMethod":6914,"ĠArgs":6915,"Ġ{'":6916,"Ġwait":6917,"!((":6918,"ĠEffect":6919,"Ġshift":6920,"_wengert":6921,".from":6922,"ORY":6923,"clamp":6924,"Ġcorrectly":6925,"small":6926,"Ġpopulated":6927,"laxed":6928,"Ġaria":6929,".raw":6930,"=(":6931,"CP":6932,"Do":6933,"Ġdirection":6934,"(pch":6935,"Ġgateway":6936,"Ġquantized":6937,"Ġtokenizer":6938,"Ġpresentation":6939,"Ġaccepted":6940,"-thread":6941,"PublishedFile":6942,"author":6943,"frame":6944,"etween":6945,"Ġvirtual":6946,"_pass":6947,"_pair":6948,"_buffer":6949,"Ġrate":6950,"135":6951,"Strategy":6952,"(M":6953,".on":6954,".child":6955,"/main":6956,"/stmt":6957,"Assign":6958,"IA":6959,"Write":6960,"arent":6961,"oned":6962,"Ġsuffix":6963,"_predicate":6964,"imer":6965,"Ġdec":6966,"Ġdestroy":6967,"Internal":6968,"ritical":6969,"_delta":6970,"Ġcomparison":6971,"(bytes":6972,"importance":6973,"Ġwritten":6974,"Ġcontiguous":6975,"UserId":6976,"_KEY":6977,"ĠTokenKind":6978,"Ġcommon":6979,"Ġnegative":6980,"_REGISTRYINDEX":6981,"-trip":6982,".ro":6983,".inputs":6984,"/lua":6985,"Clock":6986,"_ds":6987,"ĠLink":6988,"Chat":6989,"(CodegenError":6990,"ĠWhat":6991,"(row":6992,"-kernel":6993,"IME":6994,"Impl":6995,"free":6996,"ued":6997,"vas":6998,"Ġclip":6999,"Ġfreed":7000,"Ġrelease":7001,"imator":7002,"ĠCSL":7003,"Ġrules":7004,"ĠonChange":7005,"cade":7006,"ĠThese":7007,"Byte":7008,"(vec":7009,"Ġaxis":7010,"(Box":7011,"Warning":7012,"system":7013,"skip":7014,"Ġsent":7015,"ĠUser":7016,"Process":7017,"_SU":7018,"Ġscaled":7019,"Ġscreen":7020,"Username":7021,"(state":7022,"ĠEdgegap":7023,"-slider":7024,":!":7025,"DType":7026,"Main":7027,"xy":7028,"atible":7029,"Ġwhether":7030,"chforge":7031,"Ġasserts":7032,"Connect":7033,"geo":7034,"atedlora":7035,"_profile":7036,"Split":7037,"=DEVICE":7038,"cpy":7039,"func":7040,"reshape":7041,"orig":7042,"Ġazimuth":7043,"cho":7044,"ĠHistory":7045,"weapon":7046,"Ġ)}Ċ":7047,"Ġabsolute":7048,"Ġcleanup":7049,"')Ċ":7050,"*/":7051,"/wrga":7052,"AP":7053,"anonical":7054,"ĠMax":7055,".content":7056,"-path":7057,"-mask":7058,"Ġloading":7059,"Async":7060,"Ġphases":7061,"Ġholds":7062,"_HEAD":7063,"-fa":7064,"USED":7065,"pipeline":7066,"oriz":7067,"iving":7068,"ĠTransfer":7069,"Ġlives":7070,"Inf":7071,"Ġextension":7072,"Ġconstructor":7073,"Ġ'{}'":7074,"Spawn":7075,"pred":7076,"vocab":7077,"stall":7078,"Ġcandidates":7079,"ĠSource":7080,"Ġâľ":7081,"Invalid":7082,"odies":7083,"_do":7084,"-bound":7085,"accept":7086,"-connector":7087,"Ġpatterns":7088,"Ġdescriptor":7089,"transpose":7090,"ĠOrdering":7091,"-resident":7092,"got":7093,"}\",Ċ":7094,"}\")Ċ":7095,"shmem":7096,"ĠScope":7097,"tach":7098,"ĠLinear":7099,"Ġconnections":7100,"Decision":7101,".Length":7102,"Decorator":7103,"-active":7104,"Btn":7105,"IO":7106,"Man":7107,"Rect":7108,"xFF":7109,"Ġ\"\").":7110,"_point":7111,"Ġcomputation":7112,"Ġelif":7113,"Ġgets":7114,"++)":7115,"leanup":7116,"Ġguarante":7117,"(expr":7118,")>":7119,"='":7120,"Bar":7121,"vision":7122,"};\\":7123,"Ġ({}":7124,"ĠTarget":7125,"SteamPipe":7126,"ĠuseEffect":7127,"Ġdecisions":7128,"velope":7129,"ģâĶģâĶģâĶģâĶģâĶģâĶģâĶģâĶ":7130,"typename":7131,"-off":7132,".\\":7133,"<S":7134,"Top":7135,"match":7136,"player":7137,"remove":7138,"Ġpending":7139,"Ġ`<":7140,"uman":7141,"Ġexcept":7142,"epi":7143,"Ġprimary":7144,"_SRC":7145,"ĠConfig":7146,"ĠâīĪ":7147,"Ġsurfaces":7148,"AY":7149,"]));Ċ":7150,"}>{":7151,"Ġreuse":7152,"Ġ`/":7153,"ĠEst":7154,"ĠUsed":7155,"Ġchosen":7156,"ĠReact":7157,"Ġ{};\",":7158,".)Ċ":7159,"Last":7160,"Ġfriend":7161,"ĠdW":7162,"Ġlook":7163,"-backward":7164,"variable":7165,"ashboard":7166,"bserver":7167,"Ġextractor":7168,"Description":7169,"incipal":7170,"Ġautomatically":7171,",on":7172,"enc":7173,"Ġws":7174,"Ġ\"/":7175,"ĠST":7176,"_nf":7177,"tact":7178,".write":7179,"Seq":7180,"Ġverified":7181,"itialize":7182,"_outputs":7183,"(message":7184,"OW":7185,"cet":7186,"event":7187,"stats":7188,"health":7189,"ances":7190,"Ġblueprint":7191,"Ġproduct":7192,"Ġinterp":7193,"Adapter":7194,"Ġfailures":7195,"ICAL":7196,"Val":7197,"_array":7198,"reaction":7199,"Ġlut":7200,"ĠName":7201,"_wggo":7202,"logits":7203,"Child":7204,"Ġsimul":7205,"_results":7206,"_overrides":7207,".pe":7208,".embed":7209,"LAS":7210,"Limit":7211,"Sign":7212,"Ġ`_":7213,"Ġ\"@/":7214,"_recompute":7215,"/sim":7216,"Ġhealth":7217,"_upd":7218,"Ġcarries":7219,"eaderboard":7220,")}.":7221,":none":7222,"Vis":7223,"].Ċ":7224,"wk":7225,"Ġaround":7226,"ĠPart":7227,"ranular":7228,"_hooks":7229,"Ġenable":7230,"perim":7231,"-un":7232,">.":7233,"Hub":7234,"Mod":7235,"_entropy":7236,"hi":7237,"optim":7238,"save":7239,"attention":7240,"Ġpipe":7241,"utility":7242,"Ġcontrib":7243,"ĠPlan":7244,"Ġ++":7245,"activation":7246,"Ġchanged":7247,".tag":7248,"Authentic":7249,"Ġchannels":7250,".Linear":7251,")*":7252,"cm":7253,"kind":7254,"lse":7255,"uctions":7256,"umption":7257,"wv":7258,"Ġmant":7259,"Ġ##":7260,"artbe":7261,"ĠsetIs":7262,"Ġparallel":7263,"(dst":7264,"Metadata":7265,"Ġtexture":7266,"-cont":7267,"Ġoperation":7268,"-report":7269,"Ġalignment":7270,"(lr":7271,"unsafe":7272,"Length":7273,"Markdown":7274,"Payload":7275,"Ġ\"{":7276,"_tape":7277,"Ġlarg":7278,"imem":7279,"mbda":7280,"/server":7281,"pref":7282,"-stream":7283,"Ġlabels":7284,"Ġlik":7285,"Ġestimate":7286,"(Const":7287,")[":7288,".assert":7289,"Firebase":7290,"NS":7291,"`**":7292,"pointer":7293,"Ġsat":7294,"Ġssl":7295,"Ġmixed":7296,"Ġhistory":7297,".call":7298,"anger":7299,"egend":7300,"_targets":7301,"EFORE":7302,"ology":7303,".slice":7304,"Found":7305,"sig":7306,"_frag":7307,"ĠCompiler":7308,"nectors":7309,"ĠFunctionBuilder":7310,"au":7311,"uded":7312,"Ġbindings":7313,"Ġisn":7314,"Ġ'./":7315,"ĠDo":7316,"_destroy":7317,"ERAN":7318,"_EX":7319,"Ġprintln":7320,"transition":7321,"Order":7322,"replace":7323,"Ġfeatures":7324,"wiem":7325,"kdv":7326,"Ġdestination":7327,"))ĊĊ":7328,"PR":7329,"Tile":7330,"_<":7331,"arps":7332,"ube":7333,"resence":7334,"ĠGQA":7335,"Ġcompilation":7336,"Ġprelude":7337,"ERO":7338,"Projection":7339,"Ready":7340,"Ġ```Ċ":7341,"CompileOptions":7342,"Ticket":7343,"Direction":7344,"_height":7345,"ening":7346,"Ġsqrt":7347,"Ġbs":7348,"Ġmach":7349,"_sq":7350,"ĠDet":7351,"_assert":7352,"ĠKv":7353,".stdout":7354,"_BWD":7355,"ĠOne":7356,"TED":7357,"_docs":7358,"Ġfalls":7359,"âķĲâķĲâķĲâķĲâķĲâķĲâķĲâķĲâķĲâķĲâķĲâķĲâķĲâķĲâķĲâķĲ":7360,"(compiler":7361,"_HA":7362,"menu":7363,"xp":7364,"Ġgrep":7365,"_safetensors":7366,"Ġcoord":7367,"ĠFn":7368,".game":7369,"ALONE":7370,"Settings":7371,"ĠSteamNetworking":7372,"-secondary":7373,"_STAND":7374,"Ġstrict":7375,"ĠTCFPLinear":7376,"_STANDALONE":7377,".level":7378,"Band":7379,"_like":7380,"page":7381,"rea":7382,"Ġmon":7383,"_decode":7384,"-scale":7385,"mbers":7386,"Ġsets":7387,"Encoder":7388,"Ġkeyword":7389,"Ġgeneration":7390,"Ġprefab":7391,"ĠShape":7392,"Minecraft":7393,"Ġconsumer":7394,"Draft":7395,"_LE":7396,"nail":7397,"ĠSE":7398,"ĠPipeline":7399,"ĠAI":7400,"osys":7401,"Ġlaunches":7402,"Ġrepla":7403,"Script":7404,"umbnail":7405,"Users":7406,"Ġmapping":7407,"/kernel":7408,"Return":7409,"Social":7410,"ipt":7411,"Ġ$":7412,"_schema":7413,"ĠĠĠĠĠĠĠĠĠĠĠĠĠĠĠĠĠĠĠĠĠĠ":7414,"respon":7415,".css":7416,"(source":7417,"Ġextraction":7418,"_PRO":7419,">/</":7420,".jsxs":7421,"ĠDeserialize":7422,"74":7423,"<F":7424,"High":7425,"^^":7426,"aver":7427,"Ġ)?;Ċ":7428,"declare":7429,"Ġrecon":7430,"ationale":7431,"ignored":7432,"ĠGroup":7433,".grad":7434,"ordered":7435,"Ġactivations":7436,"-dr":7437,"arest":7438,"includes":7439,"Ġrelu":7440,"Ġparts":7441,"Ġcallbacks":7442,"(...)`":7443,"Ġwarnings":7444,"orizont":7445,"(max":7446,"FTP":7447,"gagement":7448,"==\"":7449,"ĠEX":7450,"_ns":7451,"Ġ'/":7452,"-panel":7453,"ocker":7454,"Ġtrailing":7455,"chunks":7456,"ĠRemove":7457,"hysics":7458,"\":Ċ":7459,"<(),":7460,"Http":7461,"_mp":7462,"_compile":7463,"Ġsy":7464,"ĠNaN":7465,"={},":7466,"project":7467,"Lock":7468,".title":7469,"_TIL":7470,"Ġscatter":7471,"missions":7472,".A":7473,"Goal":7474,"Torch":7475,"ĉusing":7476,"Ġtake":7477,"arer":7478,"Ġfragment":7479,"ĠdO":7480,"_tra":7481,"setp":7482,"Ġproj":7483,"extract":7484,"):**":7485,"Ġjoin":7486,"_Text":7487,"TEST":7488,"vals":7489,"Ġboundaries":7490,"ĠMathf":7491,"MeshPro":7492,"ERANGE":7493,"(file":7494,"ially":7495,"lug":7496,"arc":7497,"ĠCSteamID":7498,"cons":7499,"ĠGap":7500,"uding":7501,"\"\"\"Ċ":7502,"Ġdefinition":7503,"Ġadmin":7504,"-label":7505,"Empty":7506,"IVE":7507,"_)":7508,"push":7509,"--|":7510,"Ġrecorded":7511,"tral":7512,"_float":7513,"extern":7514,"ĠFF":7515,"insert":7516,"dump":7517,"(track":7518,"Ġtemplate":7519,"_INF":7520,"generated":7521,"_nodes":7522,"Selector":7523,"Ġ===================================================================":7524,"stitution":7525,")return":7526,"<int":7527,"Ġwarmup":7528,"ĠBEFORE":7529,"={:.":7530,"_register":7531,"artbeat":7532,"Browser":7533,"_ist":7534,"_zeros":7535,"ounded":7536,"};":7537,"Ġpriority":7538,"Ġ})":7539,"ĠLocal":7540,"Ġtrim":7541,"Ġdistinct":7542,"encies":7543,"_istable":7544,",a":7545,"-ro":7546,"LF":7547,"tml":7548,"Ġulong":7549,"anh":7550,"member":7551,"_training":7552,"ĠNE":7553,"owner":7554,"-tensor":7555,"_TYPE":7556,"Ġminimal":7557,"Ġgeneric":7558,"umel":7559,"EventListener":7560,"atern":7561,".org":7562,"#define":7563,"-line":7564,"86":7565,"Bound":7566,"panel":7567,"ĠâĶĢâĶĢâĶĢâĶĢâĶĢâĶĢâĶĢâĶĢâĶĢâĶĢâĶĢâĶĢâĶĢâĶĢâĶĢâĶĢ":7568,"Ġstat":7569,"ĠStore":7570,"irNode":7571,"\")),Ċ":7572,"ĠHandle":7573,".sort":7574,"_hbm":7575,"(idx":7576,"Ġassigned":7577,"ĠSignalRef":7578,"orizontal":7579,"?\"":7580,"PTX":7581,"Slot":7582,"[row":7583,"buf":7584,"hrough":7585,"iers":7586,"lin":7587,"ĠĠĠĠĊ":7588,"alt":7589,"loaded":7590,"ets":7591,"_top":7592,"ĠLOC":7593,"ialog":7594,"ĠIS":7595,")))Ċ":7596,"Ġ&[],":7597,"ampler":7598,"prelude":7599,"Ġaccount":7600,"Ġarguments":7601,"wiGLU":7602,"-strong":7603,":`":7604,"Join":7605,"half":7606,"sert":7607,"yc":7608,"|---|---|":7609,"Ġslab":7610,"()?;Ċ":7611,"Ġ\"\\":7612,"ĠDate":7613,"Ġloud":7614,"ĠOver":7615,"-model":7616,"Toggle":7617,"Ġcallee":7618,"Ġpairs":7619,"RoPE":7620,".action":7621,"Leaderboard":7622,"mal":7623,"ped":7624,"ully":7625,"iming":7626,"ĠBF":7627,"Ġcompiles":7628,"Ġsavings":7629,"ĠDataLoader":7630,"redentials":7631,"aturating":7632,"_TILERANGE":7633,"06":7634,"Height":7635,"_der":7636,"Ġ{:.":7637,"edit":7638,"ĠdS":7639,"_packed":7640,"ĠPrune":7641,"ircle":7642,"Conf":7643,"ĠBinOp":7644,"Stat":7645,"_wire":7646,"ĠHF":7647,"Ġcodebook":7648,"_pushnumber":7649,"Ġsorted":7650,".avatar":7651,"/ssl":7652,";align":7653,"_version":7654,"ble":7655,"buffer":7656,"ql":7657,"tack":7658,"Ġ).":7659,"Ġamount":7660,"Ġffn":7661,".safetensors":7662,".doc":7663,"energy":7664,"acle":7665,"Ġapplies":7666,"Screen":7667,"(_,":7668,"ineSliceContainer":7669,".ent":7670,"Destroy":7671,"_AL":7672,"Ġfindings":7673,"Ġduration":7674,"email":7675,"usted":7676,"ĠGB":7677,"cloned":7678,"_awq":7679,"Ġtyped":7680,"SyncVar":7681,"Password":7682,"sumexp":7683,"unication":7684,"-input":7685,":#":7686,"_R":7687,"_ir":7688,"Ġtranspose":7689,"_sample":7690,"_number":7691,"_window":7692,"ixtral":7693,"DENT":7694,"Ġtables":7695,"Scroll":7696,"_interval":7697,"LowerCase":7698,"Pointer":7699,"SH":7700,"aff":7701,"ĠĠĊ":7702,"attn":7703,"ots":7704,"_single":7705,"ardless":7706,"throw":7707,"ĠGated":7708,"Ġleak":7709,"__(":7710,"('\\":7711,".core":7712,"Ordering":7713,"_checkpoint":7714,"Ġissues":7715,"OKEN":7716,"ĠExtract":7717,".Generic":7718,"Can":7719,"Each":7720,"ccount":7721,"cfie":7722,"Ġ]Ċ":7723,"errain":7724,"_saves":7725,"Ġtoday":7726,"ĠObject":7727,"ynchron":7728,"-background":7729,"_inplace":7730,"Relaxed":7731,".norm":7732,"matched":7733,"perties":7734,"Variant":7735,"Ġaccumulate":7736,"ĠHttpEncoder":7737,"ĠGEMM":7738,"SealStackError":7739,".memoizedState":7740,"ĠFFN":7741,"Tab":7742,"single":7743,"chie":7744,"ĠCsha":7745,"pted":7746,"_num":7747,".first":7748,"_optim":7749,"web":7750,"(weight":7751,"Ġpreserved":7752,"(Type":7753,";font":7754,"Zero":7755,"_iters":7756,"`)Ċ":7757,"grep":7758,"oses":7759,"rec":7760,"Ġour":7761,"trl":7762,"ters":7763,"ĠNsl":7764,"mains":7765,"loading":7766,"signed":7767,"ĠNote":7768,"Ġdropout":7769,"<'_":7770,"Ġcoverage":7771,"herit":7772,"ODO":7773,"Ġadditional":7774,"(.":7775,"ept":7776,"},Ċ":7777,"onic":7778,"alpha":7779,"Ġocc":7780,"amw":7781,"ĠCont":7782,"_dk":7783,"_draft":7784,"ĠBoolean":7785,"udarc":7786,"(Lay":7787,"erialization":7788,"Ġinterface":7789,"_frames":7790,"::*;ĊĊ":7791,".q":7792,".Read":7793,"hind":7794,"Ġaudit":7795,"ĠPattern":7796,"ĠBTree":7797,"_assign":7798,"cry":7799,"ises":7800,"ĠState":7801,"Ġ));ĊĊ":7802,"/dV":7803,"Ġabsent":7804,"ĠZero":7805,"(long":7806,"Ġreceived":7807,"ĠOwnership":7808,"aternion":7809,"Ser":7810,"]\")":7811,"_rad":7812,"tb":7813,"Ġdefer":7814,"ĠNode":7815,"ĠMess":7816,"omin":7817,"Ġ&[Ċ":7818,"Ġinsta":7819,"(call":7820,".section":7821,".segment":7822,"Ġrenderer":7823,"Ġdeclare":7824,"($\"[":7825,"OCAB":7826,"ranularity":7827,",:":7828,"Display":7829,"[report":7830,"Ġcv":7831,"Ġfold":7832,"rodu":7833,"chan":7834,"isf":7835,"ints":7836,"Ġcorpus":7837,"Ġinstanceof":7838,"Ġlonger":7839,"velop":7840,"Ġindependent":7841,".string":7842,"/wggo":7843,"CCE":7844,"ES":7845,"Health":7846,"Ġbucket":7847,"Ġincre":7848,"Ġvi":7849,"illed":7850,"imated":7851,"ĠNV":7852,"Ġcomputes":7853,".filter":7854,"_BLOCK":7855,"Ġteam":7856,"_kernels":7857,"LIB":7858,"Ġorigin":7859,"Ġreceive":7860,"Ġassignment":7861,"Ġprovided":7862,"ĠDesign":7863,"ammer":7864,"Background":7865,"Fn":7866,"GB":7867,"Sym":7868,"[q":7869,"runtime":7870,"|=":7871,"Ġnarrow":7872,"urch":7873,"ĠTy":7874,"Ġusers":7875,".model":7876,"(base":7877,"Army":7878,"\"],Ċ":7879,"(env":7880,"-left":7881,".arg":7882,"Wrga":7883,"_OP":7884,"warn":7885,"itlement":7886,"Ġ\"<":7887,"Ġever":7888,"ĠTransport":7889,"Ġdeath":7890,"Ġhit":7891,".lt":7892,"Ġjob":7893,"Ġcorru":7894,"ĠReplace":7895,"Ġdeclarations":7896,"Ġalias":7897,"<Network":7898,"Lora":7899,"Simul":7900,"lk":7901,"Ġ$\"":7902,"sthrough":7903,"Ġef":7904,"Ġdone":7905,"etry":7906,"_sparse":7907,"Ġexpon":7908,"Ġknow":7909,"163":7910,"_rewrite":7911,"Ġ/Ċ":7912,"={(":7913,"Ġloader":7914,"coming":7915,"Ġbandwidth":7916,"\"])Ċ":7917,"Zk":7918,"gno":7919,"visible":7920,"ĠĠĠĠĠĠĠĠĊ":7921,"ono":7922,"Ġvert":7923,"ĠPost":7924,"Ġthermal":7925,"tape":7926,"yntax":7927,".merge":7928,"Ġoverlay":7929,"press":7930,"ĠThread":7931,"Ġminmax":7932,"neal":7933,"_groups":7934,"Ġâī¥":7935,"Forward":7936,"Runtime":7937,"bq":7938,"oon":7939,"tle":7940,"Ġele":7941,"change":7942,"âĶĢĊĊ":7943,"ensity":7944,"ĠDrive":7945,"ĠIFF":7946,"axis":7947,"IntLiteral":7948,"Ġissue":7949,"_deref":7950,"(/":7951,"(typeof":7952,"vant":7953,"}\",":7954,"enant":7955,"Ġbind":7956,"urally":7957,"ĠFree":7958,"Static":7959,"Ġsocket":7960,"ĠHIR":7961,"Ġtrunc":7962,"_hf":7963,"Ġdomain":7964,"tained":7965,"baseline":7966,"ById":7967,"Team":7968,"_logits":7969,"Ġbecomes":7970,"-token":7971,"Cursor":7972,"Rot":7973,"[s":7974,"[idx":7975,"cur":7976,"dent":7977,"Ġcriter":7978,"))?;Ċ":7979,"Keys":7980,"Forum":7981,"Ġdirectory":7982,"comment":7983,"Ġshows":7984,"analyze":7985,".peek":7986,"-read":7987,"dropdown":7988,"invalid":7989,"Ġtid":7990,"meta":7991,"uri":7992,"_bit":7993,"odetic":7994,"_manager":7995,"ranches":7996,"_live":7997,"ĠKIR":7998,"boolean":7999,"uments":8000,"Ġ...Ċ":8001,".command":8002,"ARM":8003,"AdamW":8004,".vocab":8005,"Ġlegacy":8006,"_mps":8007,".\",Ċ":8008,".enabled":8009,"drop":8010,"Ġ({Ċ":8011,"izing":8012,"connection":8013,"Ġexceeds":8014,"_line":8015,"serv":8016,"201":8017,"cheduler":8018,"thermal":8019,"Ġreplay":8020,".losses":8021,".LogError":8022,"_health":8023,"Web":8024,"_accumulation":8025,"39":8026,"JSON":8027,"_use":8028,"`-":8029,"enied":8030,"Ġprom":8031,"Ġbone":8032,"unity":8033,"Ġmer":8034,"Ġstates":8035,"ĠSkip":8036,"Ġconversion":8037,"_close":8038,"ĠButton":8039,"Ġunique":8040,"Ġprologue":8041,"muted":8042,"Ġcomposition":8043,"_auth":8044,"(pos":8045,"property":8046,"Ġregardless":8047,"{};Ċ":8048,"Ġordering":8049,"Parent":8050,"valuate":8051,".all":8052,"700":8053,"Video":8054,"[-":8055,"ever":8056,"iation":8057,"implement":8058,"np":8059,"opts":8060,"Ġtcfp":8061,"Ġ\"$":8062,"ĠMap":8063,"prune":8064,"Ġshipped":8065,"-bg":8066,"Ġarms":8067,"ĠThermal":8068,"Ġedit":8069,"\"#;Ċ":8070,"\";":8071,"384":8072,"Pattern":8073,"Vert":8074,"dv":8075,"sa":8076,"aming":8077,"Ġlhs":8078,"ĠArc":8079,"mitted":8080,"avings":8081,".bin":8082,"![],Ċ":8083,"-for":8084,"Delete":8085,"Ġdimensions":8086,"HAN":8087,"scribe":8088,"Ġpositive":8089,"Ġrecords":8090,"Ġmanifest":8091,"Ġseconds":8092,")`,":8093,"-iter":8094,".end":8095,"59":8096,"=-":8097,"SR":8098,"_red":8099,"ernary":8100,"ims":8101,"Ġforce":8102,"_flat":8103,"outKind":8104,"ĠDL":8105,"\"\"\"ĊĊ":8106,"correct":8107,"(step":8108,"Ġtemperature":8109,"ĠParser":8110,"ĠOutput":8111,"(Op":8112,"-memory":8113,"DLIB":8114,"LT":8115,"Store":8116,"_el":8117,"snap":8118,"arded":8119,"Ġfmt":8120,"Ġps":8121,"Ġpol":8122,"loom":8123,"Ġma":8124,"Ġmagic":8125,"_pad":8126,"verage":8127,"ĠBase":8128,"Ġblocked":8129,"Ġrefcount":8130,"quipped":8131,"_STDLIB":8132,"MLP":8133,"////////////////////////////////":8134,"ĠGenerate":8135,"(Kir":8136,"_RO":8137,"ission":8138,"Ġsimple":8139,"Ġrecogn":8140,"Ġsees":8141,"ĠNULL":8142,"ĠâĨ":8143,"_main":8144,"quad":8145,"ĠWggo":8146,"_counter":8147,"Ġoverhead":8148,"_CASE":8149,"Ġdefaults":8150,"Deserialize":8151,"iggers":8152,"Ġquad":8153,"Ġsigmoid":8154,"-count":8155,".B":8156,".result":8157,"07":8158,"IER":8159,"gamma":8160,"ĠIdent":8161,"Ġstable":8162,"ĠSGD":8163,"lide":8164,"uffle":8165,"Ġenough":8166,"lobby":8167,"ĠQNF":8168,"Ġdisconnect":8169,"Ġinvok":8170,"Ġexecution":8171,"StructLayout":8172,"periment":8173,"/n":8174,"COR":8175,"Gpu":8176,"`**ĊĊ":8177,"Ġpixel":8178,"Ġsparsity":8179,"ĠSASS":8180,"_ffn":8181,"ĠMuon":8182,"ĠHel":8183,"Resource":8184,"napshots":8185,".record":8186,".exe":8187,"CshaExtras":8188,"/K":8189,"140":8190,"VAL":8191,"usive":8192,"_fallback":8193,"_flags":8194,"ultimem":8195,"ĠMLP":8196,"ĠEmbed":8197,"_view":8198,".fetch":8199,"Loop":8200,"ĠConvert":8201,"_ownership":8202,"Ġ=========================================================================":8203,"easible":8204,"Ġentirely":8205,"_causal":8206,".*":8207,"<std":8208,"Close":8209,"Null":8210,"atency":8211,"ĠSP":8212,"ĠSingle":8213,"Ġgrammar":8214,"Ġhref":8215,"then":8216,"_grid":8217,"Ġbegin":8218,"achable":8219,"Ġoperations":8220,"(Some":8221,"azard":8222,"HalfSplit":8223,"/pro":8224,"NineSliceContainer":8225,"Ġ))":8226,"Ġquest":8227,"requ":8228,"readed":8229,"Ġamax":8230,"session":8231,"Ġfits":8232,"Ġinstruction":8233,"ĠDim":8234,"Ġelimin":8235,".matches":8236,".list":8237,"Ġoverrides":8238,"ĠAdjoint":8239,"Ġabort":8240,"ycles":8241,"(not":8242,"(val":8243,":case":8244,"POST":8245,"bj":8246,"dic":8247,"schema":8248,"}function":8249,"Ġrepeat":8250,"Ġmight":8251,"ĠTape":8252,"strict":8253,"example":8254,"expression":8255,"existing":8256,"Ġrhs":8257,"_rel":8258,"activity":8259,"-body":8260,"_hat":8261,"(tmp":8262,"Deferred":8263,"Ġagree":8264,"Ġusername":8265,"Ġcapacity":8266,"Ġconsumes":8267,".entities":8268,",l":8269,".comp":8270,"vis":8271,"Ġfront":8272,"Ġpins":8273,"measure":8274,"Ġmk":8275,"Ġdummy":8276,"ĠSp":8277,"_skeleton":8278,"Ġcome":8279,"Ġresource":8280,".class":8281,"Ġrot":8282,"Ġsizeof":8283,"Ġclients":8284,"_fns":8285,"Ġdistance":8286,"transparent":8287,"fully":8288,"ĠStruct":8289,"Ġdetails":8290,"ossible":8291,"-param":8292,">(Ċ":8293,"ached":8294,"real":8295,"Ġsparse":8296,"Ġbad":8297,"vertex":8298,"part":8299,"_work":8300,"-by":8301,"Ġrefused":8302,")`.Ċ":8303,"MethodImpl":8304,"(inner":8305,"Ġidentifier":8306,"Ġ---------------------------------------------------------------------------ĊĊĊ":8307,"_WIN":8308,"Ġformula":8309,"Paren":8310,"(D":8311,"-M":8312,"Ġbot":8313,"ublish":8314,"Ġrms":8315,"heads":8316,"Ġchoice":8317,"Export":8318,"Ġinstall":8319,"-csl":8320,"('/":8321,"Ġoffsets":8322,"Room":8323,"491":8324,"Summary":8325,"-precision":8326,"Ġalongside":8327,"ĠABI":8328,"chestrator":8329,"-light":8330,".M":8331,".**ĊĊ":8332,".split":8333,"/types":8334,":e":8335,"ium":8336,"muon":8337,"Ġfake":8338,"Ġplayers":8339,"_signal":8340,"ĠĠĠĠĠĠĠĠĠĠĠĠĠĠĠĠĠĠĠĠĠĠĠĠĠĠĠĠ":8341,"liber":8342,"Ġallocations":8343,"Show":8344,"Align":8345,"ĠchannelId":8346,"Ġdocumented":8347,"ĠAlloc":8348,"Ġinspect":8349,"ĠPyTorch":8350,"quivalent":8351,"_emits":8352,".input":8353,"/ui":8354,":return":8355,"bers":8356,"Ġpast":8357,"ĠTool":8358,"ĠĠĠĠĠĠĠĠĠĠĠĠĠĠĠĠĠĠĠĠĠĠĠĠĠĠĠĠĠĠĠĠĠ":8359,"ĠOrt":8360,"_depth":8361,".field":8362,"Reason":8363,"mock":8364,"Enter":8365,"_BIT":8366,"NEL":8367,"_LIN":8368,"Ġtranslate":8369,")},":8370,"-arg":8371,"/w":8372,"AA":8373,"CON":8374,"filing":8375,"gle":8376,"ye":8377,"}-":8378,"request":8379,"Ġautomation":8380,"Ġfit":8381,"Init":8382,"ithm":8383,"_ndim":8384,"Ġ'#":8385,"parsed":8386,"vement":8387,"_vocab":8388,"-sdk":8389,"illation":8390,"Collection":8391,"Ġcases":8392,"qualified":8393,"ĠIDs":8394,"writes":8395,"Entity":8396,"<VarId":8397,"CR":8398,"Mismatch":8399,"Players":8400,"World":8401,"losure":8402,"ĠSwiGLU":8403,"_snr":8404,"Ġdel":8405,"Ġrb":8406,"ĠAction":8407,"imed":8408,"-focus":8409,"-accum":8410,"_HAND":8411,"\"&&":8412,"-name":8413,"Cell":8414,"UR":8415,"lut":8416,"paper":8417,"rated":8418,"icense":8419,"Ġseen":8420,"_score":8421,"Condition":8422,"Ġoutside":8423,"_real":8424,"keep":8425,"(post":8426,"ftp":8427,"_com":8428,"Ġframes":8429,"irty":8430,"(Abi":8431,">();ĊĊ":8432,"Camera":8433,"gor":8434,"sentinel":8435,"wm":8436,"Ġsensitivity":8437,"isation":8438,"asses":8439,"conf":8440,".sum":8441,"(module":8442,"ĠâĶĢâĶĢâĶĢâĶĢâĶĢâĶĢâĶĢâĶĢâĶĢâĶĢâĶĢâĶĢâĶĢâĶĢâĶĢâĶĢâĶĢâĶĢâĶĢâĶĢâĶĢâĶĢâĶĢâĶĢâĶĢâĶĢâĶĢâĶĢâĶĢâĶĢâĶĢâĶĢâĶĢâĶĢâĶĢâĶĢâĶĢâĶĢâĶĢâĶĢâĶĢâĶĢâĶĢâĶĢâĶĢâĶĢâĶĢâĶĢ":8443,")\",":8444,".U":8445,";background":8446,"`:Ċ":8447,"close":8448,"Ġmilestone":8449,"Ġstale":8450,"Ġstochastic":8451,"Ġguild":8452,"Ġbehind":8453,"lang":8454,"SteamUser":8455,"TypeExpr":8456,"ggreg":8457,"_TOKEN":8458,"-modal":8459,".eq":8460,"Ġvals":8461,"ĠWithout":8462,"Ġsyntax":8463,"uplicate":8464,"-emit":8465,"/de":8466,"BLAS":8467,"draft":8468,"Ġctrl":8469,"anded":8470,"Ġbare":8471,"editor":8472,"Ġ}).":8473,"ceeded":8474,"ĠTODO":8475,"ĠCalled":8476,"Ġanother":8477,"ĠFirst":8478,"\"))]Ċ":8479,"ĠGate":8480,"Ġ/>":8481,"failed":8482,".down":8483,"Ġcalling":8484,"-flex":8485,"MAT":8486,"Headers":8487,"Ġsequential":8488,"Ġmirrors":8489,"Ġanalyze":8490,"Ġearly":8491,"ĠExpressionTree":8492,"Ġtrimmed":8493,"liberate":8494,"/static":8495,"Gate":8496,"eRO":8497,"{width":8498,"Â³":8499,"Ġnested":8500,"ĠSection":8501,"istency":8502,"antic":8503,".manual":8504,"mplates":8505,"Ġjoint":8506,"Ġhooks":8507,"ĠSealStackResult":8508,"=None":8509,"Med":8510,"Span":8511,"\\|":8512,"_FI":8513,"jump":8514,"inf":8515,"Ġcrash":8516,"Ġsensor":8517,"Ġsinks":8518,"Ġbottom":8519,"Ġnaive":8520,"_bin":8521,"ĠTotal":8522,"Ġcovers":8523,"_dot":8524,"ĠRout":8525,"ĠMatch":8526,"Ġlosses":8527,"udent":8528,"_hd":8529,"Ġclassify":8530,"ĠRece":8531,"Ġvalidator":8532,".eat":8533,"_chain":8534,"ConnectionToClient":8535,"_KV":8536,"embedding":8537,"commended":8538,"(Constants":8539,",s":8540,"-spacing":8541,".ref":8542,"/csha":8543,"DS":8544,"Ded":8545,"MB":8546,"sla":8547,"Ġtw":8548,"alc":8549,"Ġbc":8550,"Ġbp":8551,"Ġrejects":8552,"ullable":8553,"ĠAgent":8554,"take":8555,"rency":8556,"owned":8557,"variance":8558,"Ġreading":8559,"Ġqnf":8560,"application":8561,"ĠTasks":8562,"Ġcause":8563,"_END":8564,"Ġmodes":8565,"\\tadd":8566,"Ġmaps":8567,"Ġserve":8568,"ĠWeightDType":8569,"Ġimg":8570,"\"?":8571,".N":8572,">())":8573,"GUILayout":8574,"}\"),Ċ":8575,"arity":8576,"itter":8577,"Ġfully":8578,"!(*":8579,"Ġuncondition":8580,"ĠGradient":8581,"Ġendpoint":8582,"Ġsucceed":8583,"(LayoutKind":8584,"_lib":8585,"graph":8586,"Ġushort":8587,"onumber":8588,"Ġbundle":8589,"ecute":8590,"ĠFormat":8591,"Ġsour":8592,"Ġspeculative":8593,"(num":8594,".kernel":8595,"ĠNetworkClient":8596,"aligned":8597,"ĠShared":8598,".Runtime":8599,"ĠAttention":8600,"********************************":8601,"Ġsatisf":8602,"-transform":8603,"88":8604,":>":8605,";color":8606,"Scalar":8607,"[StructLayout":8608,"gd":8609,"Ġpp":8610,"char":8611,"_tonumber":8612,"Ġdeliberate":8613,"ifact":8614,"ĠDoc":8615,"Ġwhite":8616,"-scan":8617,"ĠHand":8618,"ĠHarness":8619,"apped":8620,"ĠStop":8621,"ĠUnknown":8622,"imitives":8623,"Ġzone":8624,"(conn":8625,".includes":8626,"/.":8627,"dl":8628,"nt":8629,"Ġ--------------------------------":8630,"Ġtp":8631,"Ġbenchmark":8632,"Ġlibrary":8633,"ĠâĪ":8634,"ĠModule":8635,"([\"":8636,"-fragment":8637,"Ġtimes":8638,".replace":8639,"Codes":8640,"ĠWengertList":8641,"ĠMessage":8642,".default":8643,"DISABLESTEAMWORKS":8644,"UE":8645,"_AD":8646,"_shared":8647,"mos":8648,"Ġcref":8649,"esult":8650,"Ġword":8651,"Ġlanes":8652,"ĠAtomic":8653,"Ġreturning":8654,"ircu":8655,"Ġ}ĊĊĊ":8656,"ĠGUILayout":8657,"..=":8658,"_deferred":8659,"umentation":8660,"Ġmodules":8661,"ĠâĶĶ":8662,"}`}Ċ":8663,"_EResult":8664,"centile":8665,"atalo":8666,"velopment":8667,".output":8668,"KD":8669,"SM":8670,"Space":8671,"[];Ċ":8672,"rev":8673,"orst":8674,"Ġbro":8675,"Ġreject":8676,"Ġreaction":8677,"Ġ}));Ċ":8678,"Ġmany":8679,"ĠSimul":8680,"_pca":8681,"tries":8682,"ĠCurrent":8683,"_factory":8684,"Ġcore":8685,"_dx":8686,"Ġexcl":8687,"resses":8688,"-between":8689,"Ġrouting":8690,"_cores":8691,"_produ":8692,"Ġheuristic":8693,"ĠEnd":8694,"Ġgrads":8695,".Try":8696,"Objects":8697,":flex":8698,"-driven":8699,".linear":8700,":not":8701,"Agent":8702,"Harness":8703,"KV":8704,"fi":8705,"fold":8706,"enced":8707,"sequ":8708,"_pr":8709,"ĠCALIB":8710,"_mark":8711,"Invoke":8712,"Ġunused":8713,"ibly":8714,".function":8715,"ĠUses":8716,"_hz":8717,"READ":8718,"Ġspecial":8719,"Ġargv":8720,"ffects":8721,"icker":8722,"istration":8723,"iddle":8724,".inst":8725,"_tokenizer":8726,"ĠKeyCode":8727,"CCESS":8728,"/UI":8729,"/compiler":8730,"[d":8731,"cd":8732,"matic":8733,"send":8734,"Ġigno":8735,"Ġds":8736,"_saved":8737,"layed":8738,"_dbs":8739,"open":8740,"ĠMe":8741,"101":8742,"Seconds":8743,"_COUNT":8744,"Inputs":8745,".optim":8746,"ultiplier":8747,"double":8748,"_asc":8749,"(type":8750,".)":8751,"=\\\"":8752,"br":8753,"ond":8754,"enne":8755,"Ġplatform":8756,"Ġmid":8757,"ilities":8758,"_trans":8759,"ersenne":8760,"_half":8761,"corated":8762,"-point":8763,"-fused":8764,"_search":8765,"Unity":8766,"ALL":8767,"Ġart":8768,"Ġarchitecture":8769,"runed":8770,"Commit":8771,"-stat":8772,"ighter":8773,".exists":8774,"Ġedge":8775,"Ġradius":8776,"!Ċ":8777,"*>(":8778,"-image":8779,"Modal":8780,"awq":8781,"Ġvk":8782,"outine":8783,"Ġstrategy":8784,"Ġcompare":8785,"Required":8786,"ailure":8787,"Ġsubprocess":8788,"ĠNetworkServer":8789,"Outcome":8790,"-|":8791,".NET":8792,".ToString":8793,"060":8794,"Total":8795,"Velocity":8796,"bser":8797,"Ġwin":8798,"_tag":8799,"_sc":8800,"Ġhyp":8801,"Ġkept":8802,"-types":8803,"Ġadj":8804,"latoon":8805,"terminism":8806,"Ġclosed":8807,"Ġdepends":8808,"_HANDLE":8809,",i":8810,".out":8811,"89":8812,"Normal":8813,"_OS":8814,"Ġvideo":8815,"aginator":8816,"ĠLiteral":8817,"_decision":8818,"prog":8819,"Ġ&[]);Ċ":8820,"Ġstructurally":8821,"Ġ)));Ċ":8822,"ĠSteamAPI":8823,"Ġindic":8824,"-element":8825,"Ġenvironment":8826,"ĠMatmul":8827,"ataloader":8828,"').":8829,"(E":8830,"/W":8831,"CPU":8832,"FE":8833,"UB":8834,"bits":8835,"atbot":8836,"record":8837,"Ġbatches":8838,"Ġwid":8839,"Ġwell":8840,"âĶĢâĶ":8841,"Ġconnected":8842,"_mgr":8843,"_dkdv":8844,".send":8845,"quee":8846,"Ġencoding":8847,"Ġenvelope":8848,"ĠEnsure":8849,"teger":8850,"Codegen":8851,"_parity":8852,"_symbols":8853,"ĠBitNet":8854,"vertexIndex":8855,"#Ċ":8856,"%;":8857,"Blog":8858,"Equal":8859,"_generate":8860,"Ġcudarc":8861,"Ġ}}Ċ":8862,"ĠCan":8863,"ĠFlashAttention":8864,"_effective":8865,"ĠGpu":8866,"Ġ/_":8867,"Ġreserved":8868,"ugg":8869,"Ġopacity":8870,"Ġdiag":8871,"Ġ--------------------------------------------------------------------":8872,"Ġfpga":8873,"ootprint":8874,"commit":8875,"Ġauthentic":8876,"-identity":8877,"/${":8878,"initial":8879,"Ġce":8880,"always":8881,"Ġfrag":8882,"_backend":8883,"ĠCep":8884,"Ġhybrid":8885,"Examples":8886,"Progress":8887,"(torch":8888,"_conv":8889,"Ġimports":8890,"134":8891,"(None":8892,"Ġchunks":8893,"ĠAdapter":8894,"Ġlevels":8895,"Ġternary":8896,"Ġsucceeds":8897,"Ġdetail":8898,"gorithm":8899,"Launch":8900,"camera":8901,"flat":8902,"ergy":8903,"Ġcep":8904,"ention":8905,"_present":8906,"_the":8907,"Ġtouch":8908,"ĠĠĠĠĠĠĠĠĠĠĠĠĠĠĠĠĠĠĠĠĠĠĠĠĠĠĠĠĠĠĠĠĠĠĠĠĠĠĠĠĠĠĠĠĠĠĠ":8909,"ĠDep":8910,"Stage":8911,"Ġ_)|":8912,"-pca":8913,"-gated":8914,"Ġteacher":8915,"ĠJson":8916,"Ġallocate":8917,"ĠNetworkManager":8918,"umerical":8919,"Ġstmts":8920,"Report":8921,"Ġcombined":8922,"_methods":8923,"_moe":8924,"Ġinstructions":8925,"_MODEL":8926,"#![":8927,"':Ċ":8928,".zero":8929,".Module":8930,":grid":8931,"GC":8932,"Ġ(_":8933,"rac":8934,"ĠCFTP":8935,"Ġlatest":8936,"_dv":8937,"Ġshr":8938,"_lr":8939,"-skip":8940,"Ġstrings":8941,"laceholder":8942,"Unsupported":8943,"UserStats":8944,".interner":8945,"Ġdispatcher":8946,"Ġaccepts":8947,"_snapshots":8948,"ĠSealStackError":8949,"Ġhappens":8950,"ĠSimState":8951,"serialize":8952,"_dbsm":8953,"\"],":8954,"-he":8955,".const":8956,".zeros":8957,">\\":8958,"]]":8959,"bkv":8960,"slot":8961,"Ġ----":8962,"leport":8963,"Ġ\"_":8964,"Ġemb":8965,"ĠFunc":8966,"Ġprovider":8967,".backward":8968,"MAGE":8969,"ĠOnClient":8970,"-stage":8971,"(Clone":8972,"ĠNetworkIdentity":8973,"_NULL":8974,"ĠWeaving":8975,"Ġcombination":8976,"_ann":8977,"Ġships":8978,"(I":8979,",!":8980,"-list":8981,":null":8982,"Cost":8983,"Missing":8984,"_apply":8985,"band":8986,"cv":8987,"mirror":8988,"inux":8989,"Ġblob":8990,"ĠSnapshot":8991,"izable":8992,"Ġring":8993,"touched":8994,"Ġconstraint":8995,"ĠWork":8996,"_inner":8997,"racket":8998,"_seeded":8999,"_COL":9000,"checker":9001,"Ġ\"\"\"ĊĊ":9002,"Listen":9003,".search":9004,"_summary":9005,"_newlines":9006,"Usage":9007,"ctaid":9008,".stateNode":9009,"pagation":9010,"swer":9011,"Ġsources":9012,"_ascii":9013,">::":9014,"dt":9015,"rices":9016,"orary":9017,"Ġscaffolding":9018,"Ġbump":9019,"urve":9020,"(\"%":9021,"ĠCFIE":9022,"ĠFase":9023,"ĠBinary":9024,"_eps":9025,"_graph":9026,".source":9027,"-dim":9028,"tokenize":9029,"_GIN":9030,"NETIO":9031,"_GPUNETIO":9032,"Rotation":9033,"\"},":9034,"_amax":9035,"kin":9036,"Ġcam":9037,"_pred":9038,"Ġconcrete":9039,"_first":9040,"_fragment":9041,"Ġdetected":9042,"ĠDrop":9043,"_tostring":9044,"_rule":9045,"Ġcomments":9046,"emoji":9047,"ĠResource":9048,"ĠFPGA":9049,"Ġrcs":9050,".LogWarning":9051,".author":9052,".profile":9053,"Ġapprox":9054,"Ġredirect":9055,"(OpCodes":9056,"queeze":9057,"-space":9058,"<byte":9059,"Ilp":9060,"_(":9061,"di":9062,"success":9063,"saved":9064,"Ġts":9065,"Ġaccum":9066,"Ġmuon":9067,"Ġintention":9068,"asm":9069,"Ġhttp":9070,"ĠAs":9071,"ersions":9072,"-family":9073,"Ġimported":9074,"ĠStatus":9075,"ĠEngine":9076,"ITH":9077,"Any":9078,"_activation":9079,"Ġsuite":9080,"Tests":9081,"contiguous":9082,".tsx":9083,"-control":9084,"LFW":9085,"ĠWeavingFailed":9086,"'re":9087,"-der":9088,"Ne":9089,"TS":9090,"xes":9091,"atable":9092,"(\"@":9093,"ĠCode":9094,"_managed":9095,"resource":9096,".tensor":9097,"-dots":9098,"_TILE":9099,"Ġhandling":9100,"ĠUNROLL":9101,"<_>":9102,"/Mirror":9103,"Deploy":9104,"_OSX":9105,")**":9106,"-alloc":9107,"-rank":9108,".def":9109,".image":9110,"/admin":9111,"Emoji":9112,"NG":9113,"dyn":9114,"ring":9115,"âĤ":9116,"stroke":9117,"Ġawq":9118,"Ġcert":9119,"Ġcategories":9120,"ading":9121,"ilu":9122,"ĠsetError":9123,"Ġ\"\"\"\",Ċ":9124,"Ġcorrection":9125,"(Csha":9126,"(start":9127,"Ġscheduler":9128,"ĠDiscordAutomation":9129,"scaled":9130,".\")]Ċ":9131,"Me":9132,"UID":9133,"arange":9134,"Ġfew":9135,"Ġboot":9136,"Ġrefer":9137,"olver":9138,"tail":9139,"Ġmechan":9140,"foo":9141,"_rmsnorm":9142,"_CHECK":9143,"Ġstarts":9144,"Ġallocated":9145,"_matrix":9146,"(device":9147,"Ġresolves":9148,"(param":9149,"(ctx":9150,"(tokens":9151,"_api":9152,"gradient":9153,"ĉm":9154,"erBlock":9155,"Ġautodiff":9156,"()=>{":9157,"ĠSpawn":9158,"_sweep":9159,"_softmax":9160,"ensive":9161,"Ġ[];Ċ":9162,"ĠFeature":9163,"-per":9164,"Ġmaterial":9165,"Ġjump":9166,"_DOC":9167,"_DIM":9168,"clear":9169,"ĠâĶľâĶĢâĶĢ":9170,"ĠSDPA":9171,"ĠNOTE":9172,"âĶĢâĶĢâĶĢâĶĢâĶĢâĶĢâĶĢâĶĢâĶĢâĶĢâĶĢâĶĢâĶĢâĶĢ":9173,"Ġdistribution":9174,"(AbiParam":9175,"(fn":9176,",U":9177,"AK":9178,"LD":9179,"_color":9180,"mall":9181,"ply":9182,"vec":9183,"Ġpersistent":9184,"Ġsolve":9185,"met":9186,"ingleton":9187,"ssian":9188,"_sync":9189,"Ġlanguage":9190,"Ġdetections":9191,"Ġhad":9192,"ecycle":9193,"âĶĢâĶĢâĶĢâĶĢâĶĢâĶĢâĶĢâĶĢâĶĢâĶĢ":9194,"Ġperformance":9195,"_SHA":9196,"Ġadjust":9197,"Ġapplication":9198,"Ġdisable":9199,"Ġindent":9200,"relu":9201,"OLD":9202,"Ġcommands":9203,"Ġsynthesis":9204,"Disconnected":9205,"360":9206,"Flag":9207,"utot":9208,"Ġnf":9209,"_div":9210,".pr":9211,"_class":9212,"Connector":9213,"Idx":9214,"Require":9215,".mark":9216,"Ġdefined":9217,"Ġrefresh":9218,"Ġrefuses":9219,"ĠOptional":9220,"Ġexternal":9221,"ĠResolve":9222,"/backward":9223,"Ġpartition":9224,"_LAY":9225,"Ġcleanly":9226,"bookmark":9227,"Ġmeasured":9228,"(PrimalOp":9229,"_parser":9230,"ĠSTEAMWORKS":9231,"_contiguous":9232,"Ġlifetime":9233,"urchase":9234,".peak":9235,"/chunks":9236,"=a":9237,"Account":9238,"BLOCK":9239,"Joint":9240,"PO":9241,"df":9242,"vid":9243,"well":9244,"Ġfamily":9245,"Ġ(&":9246,"Ġreprodu":9247,"Ġstandalone":9248,"_transfer":9249,"derfall":9250,"ĠPurpose":9251,"threat":9252,"ĠBound":9253,"_prob":9254,"ĠThat":9255,"LOP":9256,"_without":9257,"(np":9258,"})]":9259,"=torch":9260,"commands":9261,"Ġsigma":9262,"_slots":9263,"Ġbarrier":9264,"optional":9265,"Free":9266,"Reduce":9267,"cross":9268,"fill":9269,"ik":9270,"Â²":9271,"Ġast":9272,"deterministic":9273,"ulate":9274,"istics":9275,"_large":9276,"_detections":9277,".seq":9278,"Anal":9279,"(uL":9280,"(identity":9281,"ĠBlockly":9282,"Variables":9283,"ossibly":9284,"Msg":9285,"Ġmedia":9286,"ĠGatedLoRA":9287,"servative":9288,"(layer":9289,"(raw":9290,"-x":9291,"-copy":9292,"cursor":9293,"go":9294,"âĸ":9295,"Ġ!(":9296,"Ġpredic":9297,"Ġdl":9298,"_pct":9299,"_post":9300,"ĠCON":9301,"Ġproces":9302,"_lm":9303,"![]),Ċ":9304,"_comm":9305,"gether":9306,"-mode":9307,"Refusal":9308,"Ġinteraction":9309,"---|Ċ":9310,"Ġtyping":9311,"Ġincluding":9312,"_HEADS":9313,"AC":9314,"erent":9315,"Ġcub":9316,"Ġbitnet":9317,"Ġintern":9318,"mpDir":9319,"Ġconfirmed":9320,"_scan":9321,"Ġlon":9322,"_mod":9323,"Ġassembly":9324,"_hash":9325,"{}_":9326,"Ġencode":9327,"ĠReal":9328,"Ġupstream":9329,"versations":9330,"Complete":9331,"Ġinterval":9332,"507":9333,"tokenizer":9334,"_MAN":9335,"IGH":9336,"Ġdrops":9337,"HTMLSurface":9338,"transport":9339,"<_>>":9340,"[:,":9341,"HANGE":9342,")`Ċ":9343,"-wrap":9344,".\"":9345,".assign":9346,"UP":9347,"_en":9348,"lers":9349,"room":9350,"undefined":9351,"Ġrecomp":9352,"(){":9353,"Ġ*=":9354,"ĠTile":9355,"_files":9356,"Ġls":9357,"Ġcop":9358,"_dst":9359,"lik":9360,"_relu":9361,"_exact":9362,"Ġ{},":9363,"Ġless":9364,"-dispatch":9365,"transaction":9366,"/dK":9367,"-thumb":9368,"_parallel":9369,"CII":9370,"Ġmigration":9371,"Jump":9372,"dp":9373,"fwd":9374,"noc":9375,"Ġtags":9376,"desc":9377,"Ġ}],Ċ":9378,".post":9379,"_clock":9380,"ĠFixture":9381,"_kl":9382,"Ġleaves":9383,"_refuses":9384,"creen":9385,"Submit":9386,"Ġdependency":9387,"_signature":9388,"_correct":9389,"avigator":9390,"Simulator":9391,"Font":9392,"HashSet":9393,"Scope":9394,"automation":9395,"dings":9396,"iate":9397,"ience":9398,"uint":9399,"zen":9400,"Ġ&*(":9401,"Ġthreat":9402,"_nan":9403,"_stage":9404,"_access":9405,"Ġrefactor":9406,"pair":9407,".Clear":9408,"Owned":9409,".tracking":9410,"ĠHTTP":9411,"_LEN":9412,"\"\\":9413,"76":9414,";height":9415,";padding":9416,">:Ċ":9417,"Email":9418,"here":9419,"rant":9420,"Ġtiny":9421,"mega":9422,"messages":9423,"Ġdense":9424,"Ġdequantize":9425,"Ġanimation":9426,"_dual":9427,"Ġatol":9428,"Release":9429,"Ġprevent":9430,".created":9431,".bytes":9432,"Ġqkv":9433,"ĠEngagement":9434,"Ġworking":9435,"ĠĠĠĠĠĠĊ":9436,"Ġ\\\"":9437,"ĠQuaternion":9438,"Ġderive":9439,"ĠImplementation":9440,"Ġhappen":9441,".gameObject":9442,"-F":9443,"210":9444,"After":9445,"EOF":9446,"History":9447,"Types":9448,"[n":9449,"_|":9450,"_app":9451,"bind":9452,"fly":9453,"pv":9454,"icle":9455,"ĠScale":9456,"Ġrationale":9457,"ardware":9458,"âĶĢâĶĢâĶĢâĶĢâĶĢâĶĢ":9459,"_naive":9460,"ĠBackend":9461,"ipulator":9462,"ĠIA":9463,".types":9464,"-segment":9465,"Checkpoint":9466,"Constraints":9467,"NetConnection":9468,"WeightEntry":9469,"_functions":9470,"_username":9471,"_diags":9472,"Ġloudly":9473,")(":9474,",k":9475,"/coder":9476,"768":9477,"GN":9478,"Lanes":9479,"rozen":9480,"Ġwired":9481,"_fwd":9482,".pop":9483,"layerwise":9484,"_lut":9485,"####":9486,"Exp":9487,"gged":9488,"ĠExpected":9489,"Ġproducer":9490,"Ġanything":9491,".inter":9492,"_MAIN":9493,"Ġsigned":9494,"-vs":9495,"_{}_":9496,"Ranks":9497,"written":9498,"ictionary":9499,"sequent":9500,"nocapture":9501,"/B":9502,"51":9503,";`":9504,"Graph":9505,"Rigidbody":9506,"_ab":9507,"Ġ(*":9508,"Ġdomin":9509,"ĠNe":9510,"upport":9511,"Ġcomponents":9512,"_high":9513,"):\\":9514,"ĠEnt":9515,"indows":9516,"_variant":9517,"istrib":9518,"Posts":9519,"allowed":9520,"accent":9521,"catter":9522,"_update":9523,"LTLS":9524,"CORD":9525,"Ġ))}Ċ":9526,")/":9527,")NativeMethods":9528,"*.":9529,"=plain":9530,"MarshalAs":9531,"rity":9532,"Ġpower":9533,"Ġbench":9534,"Ġtheta":9535,"olerance":9536,"_cla":9537,"_cycle":9538,"ĠDraw":9539,"_event":9540,"Ġalone":9541,"ĠLook":9542,"ĠHalf":9543,"Ġroutes":9544,"_CON":9545,"ĠOnServer":9546,"_ptxas":9547,"_iCallback":9548,"_ui":9549,"_IMAGE":9550,"SteamNetworkingUtils":9551,"Ġrecording":9552,"Ġsymbols":9553,"Ġconsumers":9554,"_roundtrip":9555,".items":9556,"video":9557,"wl":9558,"Ġtex":9559,"Ġfired":9560,"Ġpredicted":9561,"Ġbatched":9562,"Ġnative":9563,"urv":9564,"show":9565,"_suffix":9566,"_create":9567,"Ġprogress":9568,"ĠHost":9569,"(bool":9570,"Ġmoe":9571,"Apps":9572,"Ġpyright":9573,"tributes":9574,"ĠWengertOp":9575,".SetActive":9576,".channel":9577,"/renderer":9578,"<crate":9579,"[r":9580,"_cta":9581,"_geo":9582,"gmma":9583,"Ġemail":9584,"Ġekf":9585,"shop":9586,"ĠCamera":9587,"ĠNormal":9588,"\"))":9589,"reng":9590,"_rejects":9591,"_gatedlora":9592,".clear":9593,"-field":9594,"_paths":9595,")`.":9596,"Comments":9597,"ĠSelect":9598,"olicies":9599,"verted":9600,"ĠShould":9601,"related":9602,"ĠPacksize":9603,"-parameter":9604,"(min":9605,"53":9606,":\"));Ċ":9607,">()":9608,">>,Ċ":9609,"Rel":9610,"_Steam":9611,"yond":9612,"Ġut":9613,"Ġcatches":9614,"Ġmonitor":9615,"Ġstages":9616,"cost":9617,"ĠSHA":9618,"ilator":9619,"_bool":9620,"sland":9621,"_fake":9622,"Ġlm":9623,"Ġ[{":9624,"ema":9625,"Ġkw":9626,"ĠBatch":9627,"ĠImport":9628,"Ġbeyond":9629,"_action":9630,"ĠUp":9631,".mod":9632,"Ġenfor":9633,"ifications":9634,"Ġverifies":9635,"Ġcommits":9636,"CallbackIdentity":9637,"Ġmasked":9638,"_gettop":9639,"_NUM":9640,"Owner":9641,"expand":9642,"Ġgeo":9643,"ĠValidate":9644,"utotune":9645,"(z":9646,"(seq":9647,"-tr":9648,"<Symbol":9649,"Guard":9650,"Use":9651,"bench":9652,"fl":9653,"luster":9654,"wire":9655,"zy":9656,"Î²":9657,"Ġcredentials":9658,"Ġest":9659,"Ġeas":9660,"igation":9661,"Ġconver":9662,"assthrough":9663,"_finalize":9664,"istill":9665,"Ġassoci":9666,"Ġtesting":9667,"ĠGrammar":9668,"Ġusage":9669,"_hook":9670,"ĠInternal":9671,"![\"":9672,"Ġregs":9673,"Ġtrainable":9674,"_FP":9675,"Ġtrait":9676,"IGHT":9677,"amble":9678,"_SEQ":9679,"rength":9680,"!=":9681,"[CallbackIdentity":9682,"flex":9683,"atibility":9684,"Ġcard":9685,"hell":9686,"Ġbodies":9687,"edQuery":9688,"Ġinherit":9689,"shard":9690,"trie":9691,"Ġcond":9692,"ĠCla":9693,"Ġassertions":9694,".parent":9695,"ĠFixed":9696,"Contains":9697,"Ġ'';Ċ":9698,"ĠDOCA":9699,"ersist":9700,"resolved":9701,"123":9702,"Ġprimitive":9703,"uffic":9704,"Ġ&[\"":9705,"Ġstatement":9706,"username":9707,"Ġdiscovery":9708,"(static":9709,".GetComponent":9710,"Adjoint":9711,"-hidden":9712,"UpdateHandle":9713,"lapse":9714,"Note":9715,"Ġâī¤":9716,"edQueryAttention":9717,"-reduce":9718,".');Ċ":9719,".entries":9720,".registry":9721,"=s":9722,"FER":9723,"Memo":9724,"Save":9725,"You":9726,"_uses":9727,"galaxy":9728,"ount":9729,"policy":9730,"Ġquality":9731,"Ġfrees":9732,"Ġsafety":9733,"Ġground":9734,"ĠAS":9735,"lying":9736,"Coder":9737,"ĠIndex":9738,"REATE":9739,"dividual":9740,"LOG":9741,"Ġscenario":9742,"maining":9743,"Ġparticipant":9744,"Ġtermin":9745,"ĠcuBLAS":9746,"Ġapproach":9747,"IFEST":9748,"_MANIFEST":9749,"(str":9750,"II":9751,"Optim":9752,"Schedule":9753,"Ty":9754,"ares":9755,"dpa":9756,"adge":9757,"terrain":9758,"ĠPlay":9759,"ĠRed":9760,"lippy":9761,"aryOp":9762,"Ġresidency":9763,"ftmp":9764,"Ġroom":9765,"(total":9766,"Ġdisagreement":9767,"OTH":9768,"ATCH":9769,"-depend":9770,"Ġoptimization":9771,"ĠTypeExprKind":9772,"Allow":9773,"Panels":9774,"ĠpchVersion":9775,"ĠOpen":9776,"Ġmomentum":9777,"-file":9778,".radar":9779,"Py":9780,"spect":9781,"stub":9782,"Ġ{}ĊĊ":9783,"Ġdrain":9784,"ĠTrain":9785,"aped":9786,"tool":9787,"lank":9788,"ĠIntegration":9789,".with":9790,"Ġmoho":9791,"Ġunsupported":9792,"Ġsynthetic":9793,"ĠFFIs":9794,"Ġfixes":9795,"WeightMap":9796,"Ġfinally":9797,"-and":9798,"-load":9799,"43":9800,"Long":9801,"YN":9802,"_entity":9803,"bat":9804,"_canonical":9805,"160":9806,"Styles":9807,"Ġuntouched":9808,"_identity":9809,"ĠLM":9810,"ught":9811,"REE":9812,"Compare":9813,"userdata":9814,"clared":9815,"rustum":9816,"Ġconsistent":9817,"Shared":9818,"NodeId":9819,"(head":9820,",\"":9821,"Multimem":9822,"Trigger":9823,"Ġcfie":9824,"anity":9825,"ĠCross":9826,"Ġrmsnorm":9827,".random":9828,"ternary":9829,"Ġtriggers":9830,"rgba":9831,"Ġcontroller":9832,"-start":9833,"_metadata":9834,"(interner":9835,".GetSteamUGC":9836,".ISteamUGC":9837,"_fields":9838,"_ERROR":9839,"RUCT":9840,"Dedent":9841,"-xs":9842,"/g":9843,"Ge":9844,"Le":9845,"TF":9846,"[b":9847,"phase":9848,"arial":9849,"Ġfe":9850,"Ġfeedback":9851,"Ġinp":9852,"(\"-":9853,"Ġtoggle":9854,"_dets":9855,"available":9856,".button":9857,"Operation":9858,"Ġleave":9859,"Ġinstant":9860,"ilerange":9861,"Ġtechforge":9862,"justify":9863,"_extra":9864,"Ġâľĵ":9865,"Ġ===========================================================================":9866,"ĠAdjointExpr":9867,"-shape":9868,"/e":9869,"AG":9870,"Binary":9871,"RMSNorm":9872,"Rpc":9873,"_est":9874,"tical":9875,"ĉprivate":9876,"Ġscop":9877,"Ġ{\\":9878,"rounded":9879,"ilename":9880,"_two":9881,"_tilerange":9882,"shake":9883,".run":9884,"_accept":9885,"screen":9886,"_condition":9887,"(field":9888,"-dark":9889,"DataType":9890,"pytest":9891,"ĠDevice":9892,"Ġstarted":9893,"Ġrelin":9894,"ĠLayout":9895,"_gettable":9896,"orthog":9897,"Barrier":9898,"Ġartifact":9899,"-range":9900,"BTree":9901,"Sprint":9902,"_medium":9903,"options":9904,"payload":9905,"stable":9906,"origin":9907,"Ġequivalent":9908,"igit":9909,"ĠSign":9910,"ĠAuth":9911,"ĠMono":9912,"tails":9913,"_states":9914,".lines":9915,"moment":9916,"Selected":9917,"_Create":9918,"Ġvalidated":9919,"ATA":9920,"ART":9921,"_adjoint":9922,"Ġwriteback":9923,".loss":9924,"repass":9925,"ĠconnectionId":9926,"170":9927,"Ġcheckpointed":9928,"Notification":9929,"Router":9930,"Ġdeployment":9931,"ĠDetermin":9932,"ufficient":9933,"<{":9934,"Acc":9935,"Area":9936,"Relu":9937,"Ġprior":9938,"Ġslow":9939,"Ġsampler":9940,"Ġevict":9941,"Ġvp":9942,"ĠFSM":9943,"okie":9944,"_lse":9945,".for":9946,"_command":9947,"aking":9948,"Ġconfigured":9949,".we":9950,"ĠStringBuilder":9951,"-grid":9952,"-inter":9953,"-device":9954,"(NslTensor":9955,"CommandOption":9956,"Discovery":9957,"_residual":9958,"www":9959,".TryGet":9960,"(\\":9961,"FD":9962,"Freq":9963,"Mark":9964,"Num":9965,"]\\":9966,"_te":9967,"cell":9968,"ĉNativeMethods":9969,"erve":9970,"inate":9971,"legate":9972,"Ġremains":9973,"igest":9974,"ĠSum":9975,"_biases":9976,"ĠTry":9977,"_sass":9978,"_sensitivity":9979,"lips":9980,"epoch":9981,"ĠHow":9982,"(predicate":9983,"psv":9984,"ĠluaL":9985,".request":9986,"forum":9987,"Ġgeneral":9988,"phan":9989,"ĠZeRO":9990,"Ġdocuments":9991,"Ġsolver":9992,"ĠMAC":9993,"Replace":9994,"Visual":9995,"Ġdeferral":9996,"ARMY":9997,"Ġ------------------------------------------------":9998,"(Q":9999,"(Coop":10000,"41":10001,"Folder":10002,"Self":10003,"snapshot":10004,"zk":10005,"erefore":10006,"ars":10007,"Ġclone":10008,"inger":10009,"Ġeconomy":10010,"Ġden":10011,"_tick":10012,"_basic":10013,"_false":10014,"ĠMode":10015,"ĠBOTH":10016,"ierarch":10017,".sibling":10018,"Real":10019,"loads":10020,"ailbox":10021,"_select":10022,"Ġspecified":10023,"ĠExp":10024,"novation":10025,"ffected":10026,"LIC":10027,"_*`":10028,"Ġsynthesized":10029,"Ġskipping":10030,"ĠScene":10031,"Ġblend":10032,"CAL":10033,"GS":10034,"sys":10035,"ty":10036,"destroy":10037,"Ġsink":10038,"Ġelapsed":10039,"Ġdz":10040,"_tree":10041,"_bone":10042,"amount":10043,"ably":10044,"ĠAF":10045,"ĠAssert":10046,"opacity":10047,"ĠDestroy":10048,"_kb":10049,"reader":10050,"-tabs":10051,"eye":10052,"pare":10053,"Colon":10054,"document":10055,"Ġimplemented":10056,"canonical":10057,"Ġevaluation":10058,"Receive":10059,"_verify":10060,"Ġconfidence":10061,"(loss":10062,"-error":10063,".)ĊĊ":10064,"784":10065,";var":10066,">().":10067,"Lsa":10068,"ikernel":10069,"delete":10070,"Ġ})?;Ċ":10071,"Ġeft":10072,"eting":10073,"connectors":10074,"Ġhub":10075,"_equivalence":10076,"Reject":10077,".batch":10078,"(|_|":10079,"Ġcollision":10080,"Env":10081,"Ġ{};Ċ":10082,"_probs":10083,"401":10084,"Application":10085,"ĠComm":10086,"ĠProdu":10087,"markdown":10088,"Ġtempfile":10089,"-empty":10090,"_newtable":10091,"icrosoft":10092,"_LOAD":10093,"ĠYou":10094,"ĠMirrors":10095,"Ġfilters":10096,"Allocator":10097,"Ġclippy":10098,"Authority":10099,"webkit":10100,"batim":10101,"(logits":10102,"/S":10103,"=l":10104,"Two":10105,"[t":10106,"friend":10107,"pattern":10108,"scope":10109,"enes":10110,"seconds":10111,"Ġcb":10112,"router":10113,"ĠDP":10114,"illing":10115,"Enum":10116,"_sequence":10117,"_BE":10118,"LOW":10119,"(cmd":10120,"Ġeverything":10121,"_unified":10122,"_mean":10123,"_sinks":10124,"Ġfaster":10125,"Ġreachable":10126,"Ġincluded":10127,"bservers":10128,"Ġlarger":10129,"ListenSocket":10130,"(ch":10131,":n":10132,"AX":10133,"Red":10134,"Retry":10135,"Zone":10136,"hf":10137,"ns":10138,"Ġflush":10139,"rog":10140,"counter":10141,"shadow":10142,"Ġforum":10143,"ĠCustom":10144,"Ġshadow":10145,".save":10146,"Ġintrodu":10147,"Ġcollection":10148,"Ġ{}:":10149,"overflow":10150,"ĠĠĠĠĠĠĠĠĠĠĠĠĠĠĠĠĠĠĠĠĠĠĠĠĠĠĠĠĠĠĠĠĠĠĠĠĠ":10151,"...,":10152,"-section":10153,"_override":10154,"OUR":10155,"Overlay":10156,"Ġdebugging":10157,"Ġcells":10158,"Ġvisibility":10159,"ĠMinecraft":10160,"requency":10161,"UnityEngine":10162,"(V":10163,",j":10164,".item":10165,":\").":10166,":linear":10167,"<Value":10168,"[{":10169,"_queue":10170,"aches":10171,"access":10172,"score":10173,"switch":10174,"Ġche":10175,"Ġcas":10176,"Ġdp":10177,"ĠClear":10178,"Ġtoy":10179,"Ġanswer":10180,"Ġranges":10181,"ĠAuto":10182,"Ġonline":10183,"ĠOther":10184,"ĠONE":10185,"ĠGLFW":10186,"ĠLO":10187,"-scope":10188,"Ġperf":10189,"_inf":10190,"(pred":10191,".cuda":10192,"aining":10193,".stats":10194,"GameObject":10195,"softmax":10196,":?}\"Ċ":10197,"Ġsilu":10198,"ĠPrecision":10199,"orrowed":10200,"Participant":10201,"csla":10202,"Ġpsz":10203,"98":10204,"=i":10205,"]*":10206,"_env":10207,"lation":10208,"vices":10209,"west":10210,"Ġclick":10211,"Ġecho":10212,"shl":10213,"ĠSR":10214,"Ġexamples":10215,"ĠLegend":10216,"actual":10217,"Named":10218,"-success":10219,"ĠUGC":10220,"rgb":10221,"Ġchecking":10222,"Ġjammer":10223,"Ġminecraft":10224,"ccumulate":10225,"Ġcaptured":10226,"ĠONLY":10227,"Ġscripts":10228,"Ġdeliberately":10229,"-order":10230,"47":10231,"92":10232,"Abs":10233,"CSHA":10234,"_MEM":10235,"diff":10236,"lighter":10237,"vo":10238,"ĠÂ·":10239,"second":10240,"Ġput":10241,"Ġserialize":10242,"izers":10243,"Ġsec":10244,"_format":10245,"Ġasset":10246,".par":10247,"ĠReduce":10248,"ĠMutex":10249,"irth":10250,"Ġproperty":10251,"_gqa":10252,".dis":10253,".div":10254,"Ġrunner":10255,"_TO":10256,"Ġsupp":10257,"ynthes":10258,"Threshold":10259,"cret":10260,"Ġsuperpowers":10261,"RemotePlay":10262,"Ġevaluate":10263,"ĠArraySegment":10264,"Upload":10265,"ĠRadarTrack":10266,"SimState":10267,"Ġignored":10268,"-G":10269,".memory":10270,"110":10271,"65":10272,"BE":10273,"Batch":10274,"Dot":10275,"eff":10276,"ike":10277,"kir":10278,"phases":10279,"sort":10280,"symbol":10281,"eries":10282,"Ġturn":10283,"Ġapi":10284,"()))Ċ":10285,"_finite":10286,"Ġdecal":10287,"_mixtral":10288,"_case":10289,"ĠFix":10290,"may":10291,"ĠVRAM":10292,"Ġaddr":10293,"oldown":10294,"ious":10295,"ĠStack":10296,"LOB":10297,"versarial":10298,"(cpu":10299,"Ġlogsumexp":10300,".hero":10301,"_FUSED":10302,"_meta":10303,"Ġcolumns":10304,"lackwell":10305,"ynchronize":10306,"#\"":10307,"(SealStackError":10308,".collect":10309,";break":10310,"Implement":10311,"IFF":10312,"Issue":10313,"_reduce":10314,"oole":10315,"pkd":10316,"Ġbaked":10317,"Ġwater":10318,"letion":10319,"_tri":10320,"_sentinel":10321,"_man":10322,"Ġmet":10323,"ĠWrga":10324,"={:?}":10325,"INITY":10326,"Entries":10327,"Ġextend":10328,"Ġaccel":10329,"Ġembedded":10330,"reserved":10331,"Ġsmaller":10332,"-projection":10333,"Ġinvariants":10334,"Ġexecute":10335,"Lowering":10336,"_gradients":10337,"lining":10338,"npm":10339,"!%":10340,"Wrapper":10341,"xx":10342,"Ġbloom":10343,"tel":10344,"_bq":10345,"_sw":10346,"_scores":10347,"stride":10348,"ĠLSE":10349,"Ġatomic":10350,"Ġcomposite":10351,"Ġresident":10352,"ĠKeep":10353,"moho":10354,".connection":10355,"ggress":10356,"-galaxy":10357,"ORT":10358,"Ġaligned":10359,"iveness":10360,"ĠChange":10361,"Ġ)ĊĊĊ":10362,"IGN":10363,"Ġdecoded":10364,"Ġskin":10365,"_bandwidth":10366,"SymPtr":10367,"ĠHelper":10368,"ĠClaude":10369,"(output":10370,".args":10371,"/te":10372,"=c":10373,"??":10374,"GUI":10375,"IAL":10376,"Transfer":10377,"WAR":10378,"XM":10379,"hanced":10380,"tot":10381,"Ġbranches":10382,"_bp":10383,"_bw":10384,"ĠRound":10385,"_wrapper":10386,"Ġtruth":10387,"_opt":10388,"Ġclassification":10389,"Ġenergy":10390,"via":10391,"Ġmatched":10392,")?Ċ":10393,"ĠruntimeData":10394,"ĠncclTeam":10395,"Ġreduced":10396,"Generator":10397,"Ġspawned":10398,"ĠâĶĢâĶĢâĶĢâĶĢâĶĢâĶĢâĶĢâĶĢâĶĢâĶĢâĶĢâĶĢâĶĢâĶĢâĶĢâĶĢâĶĢâĶĢâĶĢâĶĢâĶĢâĶĢâĶĢâĶĢâĶĢâĶĢâĶĢâĶĢâĶĢâĶĢâĶĢâĶĢâĶĢâĶĢâĶĢâĶĢâĶĢâĶĢâĶĢâĶĢâĶĢâĶĢâĶĢâĶĢâĶĢâĶĢâĶĢâĶĢâĶĢâĶĢâĶĢâĶĢâĶĢâĶĢâĶĢâĶĢâĶĢâĶĢâĶĢâĶĢâĶĢâĶĢâĶĢâĶĢ":10399,"Ġincludes":10400,"ĠRemote":10401,"Ġinfrastructure":10402,"Validate":10403,"_SUCCESS":10404,")``":10405,",var":10406,"-launch":10407,".Emit":10408,"82":10409,":o":10410,"=m":10411,"AVE":10412,"Bucket":10413,"Fallback":10414,"Kv":10415,"Ġtight":10416,"Ġpop":10417,"------|":10418,"Ġspectral":10419,"unordered":10420,"Ġrect":10421,"Ġwarps":10422,"_prepass":10423,"trics":10424,"ĠPRO":10425,"ĠALL":10426,"ĠMain":10427,"\")`":10428,"-band":10429,"/sin":10430,"_hand":10431,".category":10432,"feas":10433,"memcpy":10434,"_connector":10435,"-guard":10436,"Ġlists":10437,"/forward":10438,"/firestore":10439,"Ġloops":10440,"area":10441,"NEW":10442,"(dead":10443,"updated":10444,".Find":10445,"ĠReport":10446,"_patterns":10447,"Details":10448,"Ġslices":10449,"ĠEntity":10450,"-key":10451,"94":10452,"<()":10453,"Clan":10454,"Ping":10455,"effective":10456,"signal":10457,"}\");ĊĊ":10458,"arb":10459,"Ġfine":10460,"Ġpc":10461,"Ġdequant":10462,"Ġhtml":10463,"ĠFinal":10464,"ĠOptim":10465,"yping":10466,".base":10467,".do":10468,"(size":10469,"Ġnumbers":10470,"_TH":10471,"_TRA":10472,"Ġsubsequent":10473,"Lists":10474,"ictory":10475,"Arrow":10476,"-right":10477,".exp":10478,"_shapes":10479,"_validation":10480,"dks":10481,"Ġbehaviour":10482,"ĠCollect":10483,"Ġsupports":10484,"Ġliterals":10485,"\"#;ĊĊ":10486,"Ġappears":10487,"'}Ċ":10488,"900":10489,":<":10490,">=":10491,"?;ĊĊ":10492,"Feature":10493,"IAS":10494,"ICE":10495,"NOT":10496,"`).ĊĊ":10497,"discord":10498,"kt":10499,"Ġengagement":10500,"Ġsr":10501,"ckpt":10502,"icult":10503,"_be":10504,"usage":10505,"Ġdeleted":10506,"_candidate":10507,"ĠWhether":10508,"Ġorchestrator":10509,".saturating":10510,"/snapshots":10511,".markdown":10512,"(plan":10513,"_variable":10514,"_FOR":10515,"Document":10516,"ĠProcess":10517,"Ġrendering":10518,"kipped":10519,"reserve":10520,"_RES":10521,"_elem":10522,"ĠHttpClient":10523,"Ġraise":10524,"Ġexercises":10525,"(uiL":10526,"(CshaExtras":10527,"(DEVICE":10528,".{}":10529,".view":10530,"Iso":10531,"Timer":10532,"_async":10533,"_UN":10534,"_entries":10535,"llo":10536,"uages":10537,"vw":10538,"Ġbiases":10539,"Ġreshape":10540,"Ġmaint":10541,"ĠSchema":10542,"amed":10543,"_binary":10544,"ĠTF":10545,"Ġran":10546,"Ġtherefore":10547,"Ġprog":10548,"Ġwhy":10549,"ometry":10550,".cleanup":10551,"ĠInitialize":10552,"-target":10553,".now":10554,"Enumer":10555,"note":10556,"akeIP":10557,"Ġtransient":10558,":?}\");Ċ":10559,".nslm":10560,"_grads":10561,".index":10562,"_noise":10563,"implementation":10564,"(method":10565,"-as":10566,".Remove":10567,"_image":10568,"_energy":10569,"nore":10570,"hex":10571,"Ġbin":10572,"Ġns":10573,"mpy":10574,"Ġvfs":10575,"ĠSparse":10576,"_policy":10577,"_power":10578,"Ġexception":10579,"_literal":10580,"-site":10581,"Ġchains":10582,"INF":10583,"sumer":10584,".width":10585,"_secs":10586,"-mix":10587,"Ġappend":10588,"models":10589,"tegrity":10590,"FFN":10591,"umpy":10592,"++)Ċ":10593,"Ġtransformer":10594,"_ema":10595,"ĠScenario":10596,"ĠconversationId":10597,"Ġlogger":10598,"iculty":10599,"-L":10600,"-add":10601,".Input":10602,"/json":10603,"ACT":10604,"BF":10605,"FT":10606,"Low":10607,"[l":10608,"den":10609,"flops":10610,"ndim":10611,"{stderr":10612,"Ġtrit":10613,"Ġfinite":10614,"Ġping":10615,"Ġemoji":10616,"ilar":10617,"_det":10618,".gate":10619,".mo":10620,"RED":10621,"-with":10622,"structor":10623,"ĠNetworkBehaviour":10624,".addEventListener":10625,"Ġevidence":10626,"Ġrequests":10627,"_once":10628,"-blocks":10629,"cuMem":10630,"-existing":10631,"Generate":10632,"_ranks":10633,"_alpha":10634,"Ġconditions":10635,"imitiveType":10636,"Ġearlier":10637,"_packing":10638,"CTIONS":10639,".testing":10640,"Ġinterpolation":10641,"Ġcontribution":10642,"_ADD":10643,"ggressive":10644,"Bits":10645,"BIP":10646,"Clip":10647,"Gated":10648,"NX":10649,"both":10650,"firestore":10651,"lined":10652,"anics":10653,"Ġwires":10654,"Ġequivalence":10655,"onest":10656,"estimated":10657,"_clone":10658,"ĠWindows":10659,"_link":10660,"_static":10661,"_hidden":10662,"Ġpreamble":10663,"ĠKw":10664,"_prologue":10665,"acing":10666,"Ġmouse":10667,"lexity":10668,"/fase":10669,"_pushvalue":10670,"Ġhandled":10671,"ĠâĶĢâĶĢĊ":10672,"ĠProjection":10673,"Ġcluster":10674,"Ownership":10675,"Ġnumeric":10676,"_HOST":10677,"(`/":10678,"_disabled":10679,"Ġescape":10680,"uggest":10681,"LOBAL":10682,";return":10683,"Atomic":10684,"Branch":10685,"DTYPE":10686,"Database":10687,"Fixture":10688,"Has":10689,"Home":10690,"Snap":10691,"stract":10692,"_tcfp":10693,"usic":10694,".pending":10695,"ĠVis":10696,"ĠGrid":10697,"ĠLUT":10698,"={{":10699,"Ġoracle":10700,"Ġuseful":10701,"aching":10702,".connect":10703,"MED":10704,"Ġhex":10705,"_lookup":10706,"Ġverbatim":10707,"ĠDetection":10708,"dataclass":10709,"targets":10710,"Ġreports":10711,"Ġsuch":10712,"Ġderived":10713,"easibility":10714,"ircuit":10715,"_probability":10716,"ooled":10717,"\".Ċ":10718,"-process":10719,".Name":10720,".transpose":10721,"=_":10722,"?(":10723,"@dataclass":10724,"Cpdt":10725,"Math":10726,"Tiny":10727,"[vertexIndex":10728,"_item":10729,"normal":10730,"reamed":10731,"description":10732,"Ġsender":10733,"uned":10734,"Ġnw":10735,"Ġletter":10736,"ĠSave":10737,"ĠTi":10738,"confirm":10739,"ĠhSteamPipe":10740,"Ġâĸ":10741,".pdf":10742,"ĠRank":10743,"ecess":10744,"spd":10745,"_request":10746,".features":10747,"Ġcho":10748,"Ġadding":10749,"Ġregistration":10750,"_xy":10751,"Ġelementwise":10752,"Ġoffload":10753,"ModelDef":10754,"ragma":10755,"Checker":10756,"Ġinitialized":10757,"Permission":10758,"NotFound":10759,"Ġemitters":10760,"(object":10761,"Ġpopulate":10762,"icipants":10763,"Ġtools":10764,"-SXM":10765,"<Expr":10766,"=f":10767,"Dict":10768,"Fp":10769,"MO":10770,"Tape":10771,"vs":10772,"Ġ::":10773,"Ġterm":10774,"Ġsibling":10775,"Ġ(_,":10776,"rafter":10777,"iglu":10778,"_personalizer":10779,"Inv":10780,"Ġassume":10781,"_cli":10782,"ĠBWD":10783,"Ġunfused":10784,"lanes":10785,"ĠsetActive":10786,"ĠInstant":10787,"_expert":10788,"Ġcanvas":10789,"_BIAS":10790,"404":10791,".decision":10792,"ĠncclSymPtr":10793,"rappers":10794,"_INTER":10795,"Ġoffs":10796,"UNITY":10797,"MPOR":10798,"driver":10799,"commend":10800,"Embedding":10801,"Ġconflict":10802,"HttpClient":10803,".code":10804,".Examples":10805,"67":10806,":l":10807,"=[\"":10808,"DP":10809,"Fixed":10810,"Train":10811,"URI":10812,"cmake":10813,"ipts":10814,"ited":10815,"Ġflip":10816,"Ġfeed":10817,"Ġsure":10818,"Ġmp":10819,"lambda":10820,"Ġ\"\\Ċ":10821,"eli":10822,"ĠSession":10823,"ĠClock":10824,"Inferred":10825,".pack":10826,"ifreq":10827,"emaining":10828,"\"));ĊĊ":10829,"_reason":10830,"ayment":10831,"Ġpreced":10832,"Ġparsing":10833,"Ġ{}\\":10834,"Ġenforce":10835,"erializable":10836,"Unbound":10837,"ĠNetworkWriter":10838,"ĠâĶĢâĶĢâĶĢ":10839,"-hooks":10840,"wish":10841,"Ġstubs":10842,"_alt":10843,"Ġdecomposed":10844,"arbage":10845,"\"||":10846,"\"}),":10847,"(other":10848,"-GPU":10849,"-cache":10850,".Q":10851,"Non":10852,"Sensor":10853,"Success":10854,"_ON":10855,"_quad":10856,"iod":10857,"pool":10858,"values":10859,"}):":10860,"stage":10861,"Ġfla":10862,"Ġpx":10863,"Ġsamples":10864,"Ġretrie":10865,"igmoid":10866,").\"\"\"Ċ":10867,"ĠMust":10868,"Convert":10869,"Ġ'',Ċ":10870,"Ġprove":10871,"_hits":10872,"ONS":10873,"Residency":10874,"(current":10875,"Ġscroll":10876,"ĠSteps":10877,"/bwiem":10878,"Ġstreaming":10879,"ISCORD":10880,"kipping":10881,"ĠAlso":10882,".adapter":10883,"What":10884,".stride":10885,"ĠActivation":10886,"Ġrtol":10887,"PublishedFileID":10888,"Processor":10889,"Screenshot":10890,".InputSystem":10891,"(:":10892,"(R":10893,"(args":10894,"112":10895,"Dialog":10896,"SV":10897,"pragma":10898,"qt":10899,"tick":10900,"warning":10901,"oraries":10902,"secut":10903,"Ġfar":10904,"Ġsl":10905,"utable":10906,"peer":10907,"comb":10908,"ĠSavings":10909,"Ġgather":10910,"Ġ[-":10911,"_custom":10912,"Conv":10913,"ĠLaunch":10914,"ĠWait":10915,"Ġcompleted":10916,".font":10917,".sc":10918,"Ġroofline":10919,"Enable":10920,"Dev":10921,"Ġimportance":10922,"-dis":10923,"NetworkManager":10924,"Ġtransaction":10925,"Interface":10926,"Ġsegments":10927,"localhost":10928,"ĠProfile":10929,"Activation":10930,"_VER":10931,"Ġdeclares":10932,"ĠSpanned":10933,"hood":10934,"Received":10935,"ĠHarnessError":10936,".role":10937,":',":10938,"Blueprint":10939,"SA":10940,"_embed":10941,"dfa":10942,"final":10943,"fetch":10944,"guild":10945,"ons":10946,"onth":10947,"leep":10948,"urb":10949,"Ġday":10950,"conn":10951,"ĠPosition":10952,"_mult":10953,"inematic":10954,"ĠELTLS":10955,"Ġkir":10956,"168":10957,"ĠBug":10958,"wake":10959,"Ġinstalled":10960,"_TEST":10961,"IDIA":10962,"158":10963,"Ġsubcommand":10964,"ĠCompare":10965,"FFFF":10966,"_shmem":10967,"Ġvariables":10968,"\"></":10969,"_eligible":10970,"Ġcombinational":10971,"\"/":10972,"(obj":10973,"-lane":10974,".ac":10975,"EE":10976,"Fase":10977,"every":10978,"{i":10979,"utdown":10980,"Ġdraw":10981,"ĠSQ":10982,"_transform":10983,"Ġ*Ċ":10984,"Ġcontainer":10985,"_flops":10986,"verify":10987,"endregion":10988,"\"):Ċ":10989,"ĠHigh":10990,"(position":10991,"RET":10992,"REAM":10993,"_random":10994,".token":10995,"LECT":10996,"SteamNetworkingConfig":10997,".Label":10998,"Ġcommunication":10999,"Subcommand":11000,"TANT":11001,"Ġmanually":11002,"ĠCompileOptions":11003,"ĠNewton":11004,"Ġpadded":11005,"ffici":11006,"Ġdivergence":11007,"original":11008,"Ġâĸ¼":11009,"MPORTANT":11010,"#else":11011,",p":11012,"-type":11013,".checkpoint":11014,".eye":11015,"/fa":11016,"/calibration":11017,"Distance":11018,"El":11019,"FS":11020,"Mutex":11021,"Published":11022,"_join":11023,"margin":11024,"alman":11025,"Ġskeleton":11026,"metry":11027,"Ġdamage":11028,"_tid":11029,"_ternary":11030,"oted":11031,"ĠCodegen":11032,"_samples":11033,"container":11034,"ĠAss":11035,"_cat":11036,"Ġkf":11037,"ĠWalk":11038,"Ġsound":11039,"Ġ];ĊĊ":11040,".ne":11041,"Ġoverlap":11042,"(frame":11043,"(dtype":11044,"Ġcommitted":11045,"_through":11046,"ĠZERO":11047,"Ġdrive":11048,".values":11049,"_NAME":11050,"Ġreceiver":11051,"QueryHandle":11052,"interpre":11053,"Ġaccumulators":11054,"ublishedFileId":11055,".character":11056,"ĠEditorGUILayout":11057,"Coroutine":11058,"orthogonal":11059,"elihood":11060,"#pragma":11061,",children":11062,".url":11063,"/app":11064,"Binding":11065,"Multi":11066,"NSE":11067,"Predicate":11068,"Priority":11069,"RING":11070,"_X":11071,"_SteamNetworking":11072,"bc":11073,"rand":11074,"two":11075,"remote":11076,"Ġsn":11077,"Ġsx":11078,"Ġ(\".":11079,"ĠSAME":11080,"ĠSmoke":11081,"ilization":11082,"Ġ*(":11083,"imera":11084,"Ġgating":11085,"_sy":11086,"conversation":11087,"verity":11088,"ĠPref":11089,"ĠPlease":11090,"_multi":11091,"ĠEmpty":11092,"\")).":11093,"ĠDO":11094,"quis":11095,"StmtKind":11096,"-base":11097,"-class":11098,"emote":11099,"Ġlowerer":11100,"Ġtopology":11101,"Ġrecipe":11102,"Utility":11103,"Ġaddressing":11104,"ĠMultiFreq":11105,"authorized":11106,"Ġ===================================================================Ċ":11107,"-quant":11108,"-Auth":11109,".row":11110,"132":11111,"=o":11112,"Days":11113,"END":11114,"_im":11115,"_sha":11116,"bid":11117,"tab":11118,"uity":11119,"Ġactions":11120,"Ġnaming":11121,"Ġ\"//":11122,"Ġstaged":11123,"_bkv":11124,"Ġgives":11125,"**,":11126,"ewrite":11127,".page":11128,"endar":11129,"ĠMul":11130,"complete":11131,"SteamNetConnection":11132,"Proxy":11133,"ĠException":11134,"ITICAL":11135,"192":11136,"](../../":11137,"(len":11138,"boarding":11139,"_ffi":11140,"ĠAXSL":11141,"_ERemote":11142,"Ġlocation":11143,"Ġcreation":11144,"ĠGroupedQueryAttention":11145,"FnDef":11146,"Ġcriterion":11147,"Ġunconditionally":11148,"(url":11149,",o":11150,"-config":11151,"-export":11152,"-By":11153,"-avatar":11154,"/tensor":11155,"/tier":11156,"Arc":11157,"_O":11158,"_->":11159,"builder":11160,"lr":11161,"zone":11162,"Ġnumpy":11163,"Ġ`&":11164,"Ġhuman":11165,"_multiple":11166,"ifiers":11167,"_cpdt":11168,"Ġ'\\":11169,"_struct":11170,"ritten":11171,"_ret":11172,"_remaining":11173,"_axs":11174,"rained":11175,"/social":11176,"_history":11177,"ĠOnStart":11178,"Ġpassing":11179,"Ġcaught":11180,"Ġproducing":11181,"cycle":11182,"ĠDev":11183,"SteamAPICall":11184,"aptive":11185,"++;Ċ":11186,"Ġports":11187,"ĠToString":11188,"ĠÎ²":11189,"Ġsurfaced":11190,"umericLiteral":11191,"Entitlement":11192,"Ġswap":11193,"Ġlogging":11194,".rotation":11195,"_padded":11196,"Ġpixels":11197,"-Authored":11198,"(item":11199,"-`":11200,"@media":11201,"EX":11202,"EAP":11203,"Pe":11204,"Possibly":11205,"Src":11206,"Tabs":11207,"Visible":11208,"_ef":11209,"nx":11210,"erp":11211,"erand":11212,"strap":11213,"Ġfx":11214,"anth":11215,"()}":11216,"lapping":11217,"ulk":11218,"olume":11219,"_specs":11220,"_missing":11221,"_monitor":11222,"ĠRigidbody":11223,"ĠOpus":11224,"_epilogue":11225,"_harness":11226,".calibration":11227,"_copy":11228,"PED":11229,"_DPad":11230,".TCFP":11231,"Force":11232,"Angle":11233,"LayerNorm":11234,"Ġeffects":11235,"Ġarrays":11236,"drant":11237,"Ġcovered":11238,"fficient":11239,".strip":11240,"Domain":11241,"[reportPossibly":11242,"UnboundVariable":11243,"[reportPossiblyUnboundVariable":11244,"-map":11245,".an":11246,":t":11247,"<osc":11248,"@anth":11249,"BS":11250,"HF":11251,"Location":11252,"Nullable":11253,"[o":11254,"[int":11255,"acon":11256,"sol":11257,"});ĊĊ":11258,"ince":11259,"rece":11260,"Ġmd":11261,"Ġ\"#":11262,"Ġdat":11263,"Ġhist":11264,"_magnitude":11265,"Ġattack":11266,"ĠHE":11267,"ĠKcp":11268,"RESS":11269,"Ġhelp":11270,"DEFAULT":11271,"Ġtimeline":11272,"-store":11273,"Addr":11274,"ĠSegment":11275,"ĠSearch":11276,"ropic":11277,"afely":11278,"Ġmodified":11279,"quals":11280,"littable":11281,"={}\",Ċ":11282,"ĠCheckpoint":11283,"interface":11284,"ĠCopyright":11285,"Ġcontaining":11286,"ĠZkOp":11287,"Extractor":11288,"Ġunreachable":11289,"ĠPatternKind":11290,"noreply":11291,"@anthropic":11292,"!important":11293,"(json":11294,"-code":11295,".reg":11296,".query":11297,";const":11298,"GIN":11299,"_gener":11300,"`s":11301,"element":11302,"limit":11303,"trace":11304,"{\"":11305,"erator":11306,"inst":11307,"Ġpun":11308,"Ġrename":11309,"_port":11310,"olated":11311,"ĠCCR":11312,"Ġrisk":11313,"ĠRender":11314,"Ġprotocol":11315,"_stack":11316,"-source":11317,".click":11318,"ERE":11319,"Ġwriting":11320,"-group":11321,"Unre":11322,"-warp":11323,"Buttons":11324,"Ġoperands":11325,"Ġbetter":11326,"FACE":11327,"_overhead":11328,"Ġfollowing":11329,"Ġ```ĊĊ":11330,"ĠToy":11331,"(Boolean":11332,"_trait":11333,"Ġelems":11334,"IlpConstraints":11335,"totype":11336,"EAPONS":11337,"(j":11338,")],Ċ":11339,",u":11340,"-variant":11341,"/<":11342,"220":11343,"Axes":11344,"Sort":11345,"]`,":11346,"category":11347,"fuse":11348,"length":11349,"nv":11350,"ragg":11351,"apps":11352,"Ġgw":11353,"_optimizer":11354,"_obj":11355,"Ġprecondition":11356,"Ġadditive":11357,"Ġleaf":11358,"preview":11359,"LOC":11360,"(clippy":11361,"Ġprints":11362,"Ġpacket":11363,"ĠZone":11364,"`].Ċ":11365,"ĠMove":11366,"_calibrate":11367,"Ġstructured":11368,"Ġsynth":11369,"Ġsynchron":11370,"ĠFullBuffer":11371,"ĠOwned":11372,"ģâĶģâĶģâĶģâĶģâĶģâĶģâĶģâĶģâĶģâĶģâĶģâĶģâĶģâĶģâĶģâĶ":11373,"averTypes":11374,"Ġbroken":11375,"(userId":11376,"-header":11377,".ends":11378,";justify":11379,"Achie":11380,"\\.":11381,"|--------":11382,"delta":11383,"Ġpla":11384,"Ġbi":11385,"Ġmass":11386,"()`,":11387,"mpir":11388,"_buffers":11389,"ĠCell":11390,"ĠCEP":11391,"verified":11392,".panel":11393,"Ġcompression":11394,".style":11395,"Setup":11396,"mish":11397,"Ġkeyed":11398,"issa":11399,":?}\"),Ċ":11400,"Ġdiffers":11401,"ĠnowIso":11402,"_char":11403,"Ġskips":11404,"})\",Ċ":11405,"Ġbugs":11406,"Override":11407,"ĠWhy":11408,"_subprocess":11409,"_SEG":11410,"Ġtasks":11411,"Ġpreviously":11412,"Ġindependently":11413,"ffffff":11414,"Ġmachine":11415,"quippedItem":11416,"Ġinternally":11417,"RUCTURE":11418,"OURCE":11419,"Ġcascade":11420,"secutive":11421,")\")Ċ":11422,"/unit":11423,"GIC":11424,"Single":11425,"[float":11426,"dy":11427,"tld":11428,"Ġcsla":11429,"Ġfootprint":11430,"_placement":11431,"olate":11432,"ĠTop":11433,"indent":11434,"ĠDictionary":11435,"parser":11436,"ĠIter":11437,"(|(_,":11438,"!(\"\\":11439,"_cos":11440,"_program":11441,"(function":11442,"_baseline":11443,"_FREE":11444,"Ġallocates":11445,"Ġconsistency":11446,"_thermal":11447,"Ġlauncher":11448,"Ġmoves":11449,"Optional":11450,"wiki":11451,"_alarm":11452,"valuation":11453,"(argc":11454,"_points":11455,"ĠâĪĪ":11456,"RejectReason":11457,"fficiency":11458,"\"]);Ċ":11459,".int":11460,"/{":11461,"Cst":11462,"DIT":11463,"Err":11464,"_{}\",":11465,"sv":11466,"tmov":11467,"standard":11468,"ingest":11469,"():":11470,"Ġworst":11471,"Ġdrag":11472,"(\"\").":11473,"Ġgpi":11474,"_surface":11475,"Ġisolation":11476,"Instruction":11477,"ĠDirection":11478,"ynth":11479,"Loss":11480,"anging":11481,".stat":11482,"-graph":11483,"arned":11484,"Ġarr":11485,"Ġmoved":11486,"_BU":11487,"ĠConnection":11488,"tokio":11489,"ĠResponse":11490,"issues":11491,"\\tcvt":11492,"rolled":11493,"-reset":11494,"Ġclaimed":11495,"opulated":11496,".Send":11497,"Ġviews":11498,"Ġmovement":11499,"_rawgeti":11500,"Ġclamped":11501,"Ġ'').":11502,"ĠTempDir":11503,"Ġplumb":11504,"SeqCst":11505,"ĠBTreeMap":11506,"ĠâĨĲ":11507,"feasible":11508,"_FORMAT":11509,"/O":11510,"=*/":11511,"Find":11512,"Picker":11513,"_US":11514,"ghost":11515,"ping":11516,"site":11517,"tl":11518,"});Ċ":11519,"hest":11520,"Ġfma":11521,"Ġfraction":11522,"Ġrevision":11523,"ĠdB":11524,"Ġol":11525,"partic":11526,"Std":11527,"Ġshuffle":11528,"Ġprimitives":11529,"aster":11530,".wk":11531,"ĠReview":11532,"(fixture":11533,"Ġlambda":11534,"Ġmock":11535,"ymmetric":11536,"Ġminimum":11537,".description":11538,"Column":11539,"RAIN":11540,"_smoke":11541,"Ġmasking":11542,".vis":11543,"ĠcreateExample":11544,"ĠVarIds":11545,"caller":11546,"Ġmeaning":11547,"Ġconditional":11548,"Ġaxes":11549,"ĠONNX":11550,"-icons":11551,"Ġtrip":11552,"Infrastructure":11553,"ĠOverride":11554,"Services":11555,"*)":11556,"-y":11557,"-termin":11558,".var":11559,".variable":11560,"/cep":11561,"=function":11562,"Scorer":11563,"Tokens":11564,"Tags":11565,"When":11566,"how":11567,"paged":11568,"rst":11569,"ws":11570,"inue":11571,"Ġam":11572,"Ġpatch":11573,"coop":11574,"_tol":11575,"_triton":11576,"_dist":11577,"_distance":11578,"toLowerCase":11579,"ĠOper":11580,"Ġproves":11581,"cols":11582,"crimin":11583,"ĠuseMemo":11584,"ERNEL":11585,"([Ċ":11586,"-case":11587,"Servers":11588,"-status":11589,"ĠNetworkReader":11590,"ĠSeq":11591,"(gpu":11592,"/bin":11593,"NEG":11594,"_MAT":11595,"_labels":11596,"ĠArchitecture":11597,"Args":11598,"_verilog":11599,"DimExpr":11600,"Ġsimulation":11601,"Ġoccur":11602,"_reduction":11603,"-agent":11604,".Re":11605,".Instance":11606,".Contains":11607,"=N":11608,"_low":11609,"`):":11610,"binary":11611,"bitnet":11612,"Ġfactory":11613,"Ġsimp":11614,"adjoint":11615,"Ġeager":11616,"atever":11617,"(\"//":11618,"ĠTriton":11619,"Ġtogether":11620,"exec":11621,"Ġlight":11622,"Ġdecre":11623,"Ġ<>Ċ":11624,"ffort":11625,"_stealth":11626,"publish":11627,"ava":11628,"_tensors":11629,".isArray":11630,"AppID":11631,"Ġimplementations":11632,"/plan":11633,"ĠREAD":11634,"Ġsynced":11635,"WindowMetadata":11636,"Ġpreserve":11637,"ĠQuantize":11638,"caffold":11639,"DecoratorConfig":11640,"ĠTapeOp":11641,"Ġtwice":11642,"(expected":11643,"));--":11644,".lanes":11645,"_ia":11646,"tiny":11647,"release":11648,"Ġtransp":11649,"ancy":11650,"Ġsampling":11651,"Ġisland":11652,"Ġreload":11653,"Ġrespawn":11654,"Ġmenu":11655,"Ġwd":11656,"Ġindividual":11657,"raight":11658,"ĠSo":11659,"ceil":11660,"ĠTH":11661,"Inst":11662,".png":11663,"Ġprod":11664,"ĠGUI":11665,"..(":11666,"-back":11667,".context":11668,"callee":11669,"-typed":11670,"-forward":11671,"_counts":11672,"(normalized":11673,"_PER":11674,"_admin":11675,".ekf":11676,"-actions":11677,"-seed":11678,"Ġlinked":11679,"_codes":11680,"ecessary":11681,"(workspace":11682,",d":11683,"655":11684,"Cross":11685,"Public":11686,"Score":11687,"]])Ċ":11688,"`);":11689,"internal":11690,"onClick":11691,"Ġsocial":11692,"ivial":11693,"Ġgrow":11694,"_cell":11695,"ĠFiles":11696,"ĠDtype":11697,"-track":11698,"Respon":11699,".store":11700,"Choice":11701,"IntCC":11702,"Applied":11703,"Ġvery":11704,"Ġcorrespon":11705,"-rl":11706,"StatusCode":11707,"(deco":11708,"ĠTokenizer":11709,"Ġsuccessfully":11710,"ĠMoE":11711,"Ġpreserves":11712,"ĠCSLA":11713,"ĠNodeId":11714,"spdlog":11715,",f":11716,".ef":11717,".ffn":11718,":inline":11719,"BinOp":11720,"HGlobal":11721,"Training":11722,"Uuid":11723,"_la":11724,"ric":11725,"safetensors":11726,"Ġfive":11727,"Ġpd":11728,"Ġpages":11729,"());":11730,"chn":11731,"_front":11732,"ĠRandom":11733,"_cycles":11734,"riate":11735,"primal":11736,"Ġaltern":11737,"Ġunified":11738,"omial":11739,"ĠLICE":11740,"_we":11741,".frame":11742,"Ġregions":11743,"_CSHA":11744,"notated":11745,"Composite":11746,"ĠConstruct":11747,"ĠCaller":11748,"AuthHeaders":11749,"ighb":11750,"Ġpartner":11751,"_STREAM":11752,"}`);Ċ":11753,"words":11754,"Targets":11755,"_shard":11756,"Packing":11757,"OUND":11758,"ĠConstant":11759,"Ġimplicit":11760,".stringify":11761,"vantage":11762,"footer":11763,"ĠLICENSE":11764,"(UGC":11765,"(unit":11766,"-muted":11767,".Error":11768,"Cmd":11769,"Cloud":11770,"LM":11771,"NER":11772,"WGGO":11773,"XX":11774,"_`":11775,"_);Ċ":11776,"gemm":11777,"inv":11778,"Ġtriton":11779,"Ġfb":11780,"dec":11781,"Ġsa":11782,"Ġserialized":11783,"Ġmix":11784,"icmp":11785,"Ġwz":11786,"_transpose":11787,"_tbl":11788,"_builder":11789,"(\"\");Ċ":11790,".predict":11791,"_critical":11792,"lyph":11793,"_normal":11794,"_neg":11795,"Ġunless":11796,".fusion":11797,".sqrt":11798,"projection":11799,"Ġ&[&":11800,"Loaded":11801,"ĠThree":11802,"-call":11803,"reamble":11804,"Ġlisten":11805,"_PS":11806,"},{":11807,"ĠNetworkMessage":11808,"One":11809,"FileId":11810,"ĠĠĠĠĠĠĠĠĠĠĠĠĠĠĠĠĠĠĠĠĠĠĠĠĠĠĠĠĠĠĠĠĠĠĠĠ":11811,"Ġgenerator":11812,"egacy":11813,"Login":11814,"(index":11815,"Ġtracing":11816,"Pair":11817,"Ġannotation":11818,"Ġestimated":11819,"ĠReference":11820,"ĠValidation":11821,"Transaction":11822,"Ġdestroyed":11823,"ĠNEW":11824,"Ġ------------------------------------------------------------":11825,"<()>":11826,"(W":11827,"(error":11828,"(list":11829,"-output":11830,".rope":11831,".html":11832,"=d":11833,"Fall":11834,"_import":11835,"ee":11836,"fb":11837,"tadd":11838,"world":11839,"arly":11840,"Ġci":11841,"Ġserial":11842,"mesh":11843,"Ġvet":11844,"(\",":11845,"otonic":11846,"_fraction":11847,"Ġanim":11848,"ĠPe":11849,"ardown":11850,"Ġassemb":11851,"_diagnostics":11852,"ĠĠĠĠĠĠĠĠĠĠĠĠĠĠĠĠĠĠĠĠĠĠĠĠĠĠ":11853,"Ġproper":11854,"_wt":11855,"_latency":11856,"ĠUTF":11857,"_intern":11858,"Relay":11859,".buffer":11860,"serve":11861,"))]Ċ":11862,"Ġqi":11863,"ALSE":11864,"Ġpositional":11865,"Ġstarting":11866,"Collider":11867,"Ġtracker":11868,"Short":11869,"panned":11870,"_owner":11871,"-weights":11872,"Ġmantissa":11873,"ĠFuncState":11874,"megaConf":11875,")</":11876,"-Type":11877,".version":11878,"66":11879,";){":11880,"ISteam":11881,"[p":11882,"_Z":11883,"blog":11884,"hance":11885,"nn":11886,"ntid":11887,"Ġaz":11888,"already":11889,"Ġpossible":11890,"Ġsending":11891,"Ġbel":11892,"unique":11893,"ĠNUL":11894,"Ġexceed":11895,"ĠMed":11896,"radial":11897,"ĠGPT":11898,"_gbs":11899,"Ġ]);Ċ":11900,"ĠInit":11901,"_selected":11902,"_CODE":11903,"ORM":11904,"-wise":11905,"Gamepad":11906,"override":11907,"vertical":11908,"_INDEX":11909,"planner":11910,"Ġmarkers":11911,"Colors":11912,"Weights":11913,"ĠYosys":11914,"Ġstrip":11915,".prev":11916,"Ġoutcomes":11917,"ToStringUTF":11918,"Ġuppercase":11919,"-masked":11920,"Ġguarantee":11921,"<'_>)":11922,"/projects":11923,"_DOCS":11924,"ĠAFTER":11925,"ĠProjectionRef":11926,"ĠnowIsoString":11927,")];Ċ":11928,"-ast":11929,"-ink":11930,".render":11931,".accept":11932,"/pre":11933,"BO":11934,"Mock":11935,"MUL":11936,"Root":11937,"SP":11938,"Win":11939,"]`Ċ":11940,"_importance":11941,"finalize":11942,"normalized":11943,"tra":11944,"}_{":11945,"stored":11946,"enef":11947,"Ġtb":11948,"Ġaggreg":11949,"Ġrejection":11950,"()],Ċ":11951,"pet":11952,"Ġdataset":11953,"ublas":11954,"Ġgreedy":11955,"_scatter":11956,"ĠFilter":11957,"sets":11958,"ĠLOD":11959,"Ġwho":11960,"Ġwhatever":11961,"clusive":11962,"(sub":11963,"_expon":11964,"ridden":11965,"_BF":11966,".toLowerCase":11967,"Ġminim":11968,"UDGET":11969,"AuthIdentity":11970,"ĠAddress":11971,"Scan":11972,"ĠTypeExpr":11973,"Ġaccumulated":11974,"Ġpackage":11975,"ĠProbe":11976,"ĠresolveAuthIdentity":11977,"ĠCharacter":11978,"Ġinvest":11979,"tenant":11980,"Ġerrs":11981,"Ġglobals":11982,"allest":11983,"drive":11984,"Ġcreates":11985,"Ġlifecycle":11986,"Authentication":11987,"-readable":11988,"Vertices":11989,"Ġreferenced":11990,"($":11991,".al":11992,"GPT":11993,"KF":11994,"Next":11995,"Parse":11996,"Placement":11997,"[name":11998,"bb":11999,"finite":12000,"nd":12001,"}`,":12002,"Ġtenant":12003,"Ġcx":12004,"ateUpdate":12005,"ighest":12006,"Ġstability":12007,"agination":12008,"Ġconservative":12009,"_feedback":12010,"ĠMark":12011,"Ġonto":12012,"mass":12013,"ĠByte":12014,"ĠOK":12015,"ĠGlobal":12016,"Ġresources":12017,"Ġperform":12018,"Ġmatrices":12019,"Ġheap":12020,"CET":12021,"ĠConnector":12022,"Ġnonzero":12023,".Text":12024,"ĠborderWidth":12025,"Architecture":12026,"_ceil":12027,"ĠChanges":12028,"Ġnnz":12029,"Ġrecv":12030,"ĠncclGinSignal":12031,"_codebook":12032,"hausted":12033,"liding":12034,"prefix":12035,"^^^^":12036,"_INFO":12037,"URIComponent":12038,"_ERemotePlay":12039,"-CE":12040,"-implementation":12041,"/se":12042,"/wiki":12043,":N":12044,"Focus":12045,"Packed":12046,"Platform":12047,"Sec":12048,"[dict":12049,"âī":12050,"style":12051,"review":12052,"Ġbt":12053,"Ġwo":12054,"ament":12055,"Ġhint":12056,"locked":12057,"ĠAssign":12058,"veal":12059,"ĠOmegaConf":12060,"cached":12061,"_grammar":12062,"-server":12063,".snap":12064,"_provider":12065,"-fixture":12066,"-frame":12067,"Ġextras":12068,"-info":12069,"irectory":12070,"Ġreply":12071,"lpack":12072,"Ġlowered":12073,"}`,Ċ":12074,"offline":12075,"itespace":12076,"_GLOBAL":12077,"_signs":12078,"/Cargo":12079,"(ncclGin":12080,"_CUDACC":12081,"_comment":12082,".searchParams":12083,"_TRANS":12084,",null":12085,"-channel":12086,".height":12087,".InputAction":12088,";\",":12089,"AST":12090,"NR":12091,"RON":12092,"Transpose":12093,"[MarshalAs":12094,"ales":12095,"oison":12096,"xis":12097,"|Ċ":12098,"Ġphysics":12099,"Ġsvg":12100,"Ġmiddle":12101,"Ġ`-":12102,"_blk":12103,"Ġseeded":12104,"Ġgit":12105,"_sdk":12106,"Ġlift":12107,"ĠPOST":12108,"_dynamic":12109,"ĠRTX":12110,"ĠFLOP":12111,"ĠME":12112,"ird":12113,"Conn":12114,"_vs":12115,"oser":12116,"ĠOAuth":12117,"eps":12118,"ĠLe":12119,"NameInput":12120,".grid":12121,"Ġaddresses":12122,".condition":12123,"ToServer":12124,"Ġinterpre":12125,"SET":12126,"Ġ...(":12127,"Assembly":12128,"Ġgames":12129,"_loader":12130,"fpga":12131,"Beacon":12132,"Ġassignments":12133,"Ġmanual":12134,"Ġpartials":12135,"ĠDecision":12136,"ĠnetId":12137,"Ġintentionally":12138,"(sc":12139,"Before":12140,"SMEM":12141,"Trace":12142,"_encode":12143,"beta":12144,"gs":12145,"rn":12146,"Ġque":12147,"atype":12148,"reason":12149,"Ġsrgb":12150,"rote":12151,"Ġdirty":12152,"ishes":12153,"ĠScalar":12154,"trit":12155,"ĠTrans":12156,"_dy":12157,"ĠAN":12158,"thumbnail":12159,"ĠMersenne":12160,"ĠDuration":12161,"ĠBe":12162,"Ġalive":12163,"Ġcompatibility":12164,"collection":12165,"ĠHead":12166,"Ġpress":12167,"Program":12168,".wrapping":12169,"Ġjitter":12170,"Ġplanning":12171,"152":12172,"ĠContext":12173,"ĠConnect":12174,"Ġextends":12175,"CTA":12176,"obby":12177,"ĠVerilator":12178,"firms":12179,"Ġinitialize":12180,"(()=>{":12181,"-events":12182,"common":12183,"Ġagents":12184,"groups":12185,"Ġlocally":12186,"-threads":12187,"Ġâľħ":12188,"Ġlikely":12189,"Ġstrictly":12190,"Ġcorrupt":12191,"ĠAllocate":12192,"ĠtranslateY":12193,"ĠHEAD":12194,"(K":12195,"(nsl":12196,".Inter":12197,".velocity":12198,"/Auth":12199,"COM":12200,"Hir":12201,"JE":12202,"_os":12203,"bra":12204,"ĠÂ":12205,"ros":12206,"Ġmy":12207,"_pinned":12208,"(\"<":12209,"Ġgx":12210,"Ġgarbage":12211,"ĠPca":12212,"ĠElement":12213,"\")]ĊĊ":12214,"_epoch":12215,"_stages":12216,"Names":12217,"_interner":12218,"Ġsettings":12219,"Ġheadroom":12220,"PUT":12221,"erequis":12222,"-dynamic":12223,"ĠsourceJoint":12224,"ĠEnv":12225,"Premium":12226,"ItemDef":12227,"Ġdrives":12228,"aracters":12229,"Ġclasses":12230,"TestHarness":12231,"Ġseparately":12232,"Workspace":12233,"Ġdidn":12234,"ĠFusionLevel":12235,"Ġcompletion":12236,"Ġmechanism":12237,"destroyed":12238,"Ġâĸ¼Ċ":12239,"(Vec":12240,",c":12241,"-ext":12242,".media":12243,"/api":12244,"<double":12245,"GT":12246,"Paginator":12247,"Sample":12248,"gres":12249,"long":12250,"Ġpresence":12251,"ĠTerrain":12252,"imination":12253,"Ġgz":12254,"_scaling":12255,"Ġdecorated":12256,"ĠNull":12257,"Ġpublish":12258,"Ġmutation":12259,"Ġord":12260,".sensors":12261,".guild":12262,"REST":12263,"matrix":12264,"-fix":12265,"ĠTensorView":12266,"ĠStatic":12267,"Attn":12268,"Ġapprop":12269,"ĠJIT":12270,"Ġends":12271,"Scenario":12272,"pressions":12273,"ĠSetup":12274,"temperature":12275,"ĠWeb":12276,".username":12277,"Ġallows":12278,".useState":12279,"RITE":12280,"objdump":12281,"Ġanalyzer":12282,"BitNet":12283,"lugins":12284,"-dependent":12285,".parameters":12286,"Ġappropriate":12287,"(channel":12288,"*,":12289,"-files":12290,".Max":12291,"/T":12292,"/docs":12293,"240":12294,"61":12295,";min":12296,";box":12297,"<N":12298,"IUM":12299,"Placeholder":12300,"Site":12301,"_unknown":12302,"ker":12303,"vable":12304,"storage":12305,"Ġamb":12306,"ctrl":12307,"Ġreliable":12308,"iginal":12309,"oly":12310,"olded":12311,"usp":12312,"ĠCor":12313,"ĠCalibration":12314,"_flush":12315,"Ġdelay":12316,"_done":12317,"ĠMilestone":12318,"too":12319,"ĠBlackwell":12320,"Ġpublished":12321,"ĠLinux":12322,"_lines":12323,"fail":12324,"Detection":12325,"quish":12326,"allbacks":12327,".copy":12328,"Ġtracked":12329,"Counts":12330,"_adamw":12331,"[]>":12332,"}`}>Ċ":12333,"alignment":12334,"Ġaccident":12335,"Ġsends":12336,"Ġfalling":12337,"':<":12338,"Ġauthority":12339,"Ġpruning":12340,"ersonality":12341,"pgaLowering":12342,"ĠLinkage":12343,"Ġinvoked":12344,"NullOr":12345,"ĠASCII":12346,"ĠMonoBehaviour":12347,".TryGetValue":12348,"interpret":12349,"Ġplumbing":12350,"pgaLoweringError":12351,"');ĊĊ":12352,")->":12353,",v":12354,",set":12355,".count":12356,"Bf":12357,"Bias":12358,"BWD":12359,"Lut":12360,"Legend":12361,"Smoke":12362,"WS":12363,"[index":12364,"]+":12365,"`;Ċ":12366,"cap":12367,"cmd":12368,"optimizer":12369,"})}":12370,"Ġtreat":12371,"Ġtgt":12372,"deploy":12373,"Ġblog":12374,"admap":12375,"Ġwitness":12376,"ulse":12377,"Ġdwq":12378,"Ġsections":12379,"assed":12380,"alls":12381,"Ġho":12382,"Initial":12383,"ĠAwake":12384,"ifetime":12385,"pruned":12386,"Ġmembers":12387,".file":12388,"_instr":12389,"ĠuseRef":12390,"250":12391,"Ġactivity":12392,"Units":12393,"-diff":12394,"Ġweb":12395,"Ġlogit":12396,"_refusal":12397,"Ġsimilar":12398,"ously":12399,"ĠĠĠĠĠĠĠĠĠĠĠĠĠĠĠĠĠĠĠĠĠĠĠĠĠĠĠĠĠĠĠĠĠĠĠĠĠĠĠĠĠĠĠĠĠĠĠĠĠĠĠ":12400,"246":12401,"Ġsaving":12402,"Events":12403,"AMP":12404,".comment":12405,"ABI":12406,"Constant":12407,".offset":12408,"ĠPrincipal":12409,".IsNullOr":12410,"-submenu":12411,"WengertList":12412,"ĠBTreeSet":12413,"'));Ċ":12414,"Make":12415,"Ok":12416,"Plus":12417,"[e":12418,"_render":12419,"_analysis":12420,"Ġenter":12421,"enable":12422,"Ġtd":12423,"Ġbank":12424,"Ġ(-":12425,"Ġreverted":12426,"Ġmuch":12427,"Ġdual":12428,"shift":12429,"_preamble":12430,"ĠTILE":12431,"ĠCache":12432,"Ġgranularity":12433,"verilog":12434,"Ġhonest":12435,"Indent":12436,"ĠAL":12437,"ĠAccept":12438,"ĠEMA":12439,"nslm":12440,"ĠDType":12441,"Ġunion":12442,".finalize":12443,"ĠKiB":12444,"Ġenumerate":12445,"REEN":12446,"Statement":12447,"vie":12448,"Ġadamw":12449,"Ġadversarial":12450,"Char":12451,"_BUDGET":12452,"ĠCount":12453,"Ġlogical":12454,"ĠZK":12455,".visible":12456,"Importance":12457,"Temp":12458,"ĠWeapon":12459,"_VOCAB":12460,"LocalPlayer":12461,".displayName":12462,".minecraft":12463,"tracks":12464,"ReactionRole":12465,"masked":12466,"Ġmade":12467,"stricted":12468,"alculator":12469,"(text":12470,"(Vector":12471,")throw":12472,";display":12473,"First":12474,"Gt":12475,"IMA":12476,"NV":12477,"UX":12478,"Upd":12479,"nil":12480,"::-":12481,"Ġ(=":12482,"Ġrebuild":12483,"lama":12484,"Ġstudent":12485,"_pcall":12486,"ivery":12487,"Ġdescri":12488,"Ġhazard":12489,"ĠFBIP":12490,"emission":12491,"),ĊĊ":12492,"Ġattr":12493,"Ġatlas":12494,"Ġcompose":12495,".signal":12496,".cursor":12497,"Ġroles":12498,"product":12499,"Ġadvance":12500,"quick":12501,"ĠEnum":12502,"130":12503,"ĠShow":12504,"Ġextracted":12505,"Ġinvoke":12506,"ĠpchName":12507,"Ġprofiles":12508,"relative":12509,"Ġauthorization":12510,"_extract":12511,"Ġimpro":12512,"ncclGin":12513,"_recording":12514,"weapons":12515,"Ġstatistics":12516,"_TOKENS":12517,"-derived":12518,"ĠAXSLinear":12519,"/plans":12520,"'))":12521,"(log":12522,"*Ċ":12523,"-ref":12524,"-user":12525,".usage":12526,":/":12527,"DL":12528,"_Add":12529,"hot":12530,"ios":12531,"ky":12532,"Ġpk":12533,"ropped":12534,"Ġrelay":12535,"Ġretained":12536,"coy":12537,"_pSteam":12538,"_plus":12539,"term":12540,"_sparsity":12541,"Ġanneal":12542,"!({Ċ":12543,"002":12544,"_wq":12545,"122":12546,"Ġprice":12547,".no":12548,".tier":12549,"Dead":12550,"classes":12551,"UserStatus":12552,"panded":12553,"ĠChimera":12554,"Ġmultiply":12555,"Ġcls":12556,"ĠDesc":12557,"Ġsurviv":12558,"ltPack":12559,"sigmoid":12560,"crypted":12561,"VALID":12562,"ĠAtomicU":12563,"ĠSteamAPICall":12564,"_imm":12565,"(MethodImpl":12566,"-form":12567,"/block":12568,":-":12569,"=u":12570,">The":12571,"Grounded":12572,"HAS":12573,"LER":12574,"Scheme":12575,"[{}":12576,"aign":12577,"fix":12578,"nstderr":12579,"vfs":12580,"Ġctypes":12581,"Ġsix":12582,"Ġsimpl":12583,"Ġsmooth":12584,"Ġscorer":12585,"Ġsql":12586,"lare":12587,"Ġ`__":12588,"urable":12589,"âĶľâĶĢâĶĢ":12590,"ĠSurface":12591,"_binding":12592,"Ġlora":12593,"Ġhf":12594,"_mm":12595,"Inlining":12596,"ĠRange":12597,"ĠFp":12598,"codes":12599,"_stat":12600,"_stub":12601,"ĠILP":12602,"-safe":12603,"_hints":12604,"Ġprevents":12605,"!(\"%":12606,".wv":12607,"StringLiteral":12608,"-fit":12609,"-first":12610,"-current":12611,"Ġextended":12612,"ĠEnderfall":12613,"Ġworkers":12614,"144":12615,"(CSteamID":12616,"Then":12617,"Ġsums":12618,"created":12619,"_Is":12620,"asurement":12621,"-vocab":12622,"!(\"{:?}":12623,"ĠrequireAdmin":12624,"Ġhigher":12625,"Ġexports":12626,"-aligned":12627,"ĠParseError":12628,"Ġreplaces":12629,".Aggressive":12630,"(KirType":12631,"Media":12632,"(MethodImplOptions":12633,".AggressiveInlining":12634,".<":12635,"<void":12636,"Ab":12637,"Air":12638,"Accept":12639,"CS":12640,"Drop":12641,"Loc":12642,"_OR":12643,"_angle":12644,"Ġaren":12645,"Ġfinding":12646,"Ġpoll":12647,"Ġsprite":12648,"Ġbounded":12649,"Ġnumel":12650,"ĠCmd":12651,"Ġdedic":12652,"abilities":12653,"orted":12654,"_dp":12655,"ĠRet":12656,"_cstr":12657,"ĠâĢ¦":12658,"ĠMissing":12659,"ĠValues":12660,"_events":12661,"Ġstrong":12662,"_lens":12663,"rcs":12664,"ownership":12665,"ĠUs":12666,"Ġprepare":12667,".client":12668,"ills":12669,"prec":12670,"uality":12671,"Ġqt":12672,"Ġ===\\":12673,"Ġvalidates":12674,"Ġsubsystem":12675,"Ġprefetch":12676,"Ġ---ĊĊ":12677,"_column":12678,"_scaled":12679,"-open":12680,"Ġtemporary":12681,"-expert":12682,"steps":12683,"CFPMode":12684,"Ġdivisible":12685,"Ġcurve":12686,"encodeURIComponent":12687,"Ġvisual":12688,"Ġdefinitions":12689,"Ġexponent":12690,"ACHE":12691,"Ġcopies":12692,"maybe":12693,".icon":12694,":d":12695,"Lua":12696,"Language":12697,"PASS":12698,"RAD":12699,"_Ċ":12700,"given":12701,"|>":12702,"}\"));Ċ":12703,"Ġtbl":12704,"declared":12705,"Ġnan":12706,"Ġreused":12707,"Ġreverse":12708,"Ġ}))Ċ":12709,"Ġdatabase":12710,"isLoading":12711,"umulative":12712,"aml":12713,"ĠEvent":12714,"Ġprofiler":12715,"_rece":12716,"-buffer":12717,"_detect":12718,"_deterministic":12719,"ĠIII":12720,".full":12721,"_profiler":12722,"Ġadjacent":12723,"ĠCons":12724,"Ġ\"\";Ċ":12725,"_Left":12726,"(req":12727,"(uint":12728,"smoke":12729,"Ġrefusals":12730,"ĠParameter":12731,"-SMEM":12732,"ĠÎ¸":12733,"CustomOp":12734,"Verify":12735,"_speculative":12736,"-document":12737,"ociation":12738,"Ġsurviving":12739,"ĠDecor":12740,"OWN":12741,"Ġkeywords":12742,"Ġmerged":12743,"Ġdedicated":12744,"(res":12745,"-null":12746,".children":12747,";text":12748,"=x":12749,"DER":12750,"HS":12751,"Lt":12752,"Slider":12753,"];\"));Ċ":12754,"ajor":12755,"high":12756,"net":12757,"vanced":12758,"Ġachie":12759,"around":12760,"Ġfilled":12761,"Ġpersist":12762,"anit":12763,"lope":12764,"unce":12765,"Ġretain":12766,"()=>":12767,"uracy":12768,"terfly":12769,"(\"}\\":12770,"ĠCU":12771,"Ġlanded":12772,"Ġhits":12773,"ĠPolicy":12774,"ĠPublic":12775,"_capture":12776,"009":12777,"Ġpropag":12778,"ugging":12779,"Ġarea":12780,"Ġparses":12781,"angled":12782,"Ġupsert":12783,"MAND":12784,"Compute":12785,"Ġdoca":12786,"Refresh":12787,"(next":12788,".address":12789,"Ġinvocation":12790,"ĠNextRequest":12791,"Positions":12792,"_stmts":12793,"(connection":12794,"packing":12795,"azy":12796,"Ġreqwest":12797,"_diag":12798,"BrowserHandle":12799,"Alignment":12800,"ĠDeterministic":12801,"ierarchy":12802,"(IntCC":12803,"-valid":12804,"116":12805,"Calibration":12806,"Horizontal":12807,"]);":12808,"_Right":12809,"clo":12810,"hook":12811,"skipping":12812,"Ġinverse":12813,"Ġdd":12814,"slices":12815,"ĠCO":12816,"ĠCargo":12817,"ĠClose":12818,"Ġgt":12819,"**.":12820,"Instant":12821,"_numerical":12822,"ĠunBrowserHandle":12823,"_lce":12824,"_hb":12825,"(prev":12826,"Ġemitting":12827,"):**Ċ":12828,"Respawn":12829,"ĠRelease":12830,"_rs":12831,"-match":12832,"ansion":12833,"claude":12834,"Blockly":12835,"_unique":12836,"CommandSubcommand":12837,"Ġaccumulates":12838,"Ġthreading":12839,"=TCFPMode":12840,"Ġsequences":12841,"-probe":12842,"Ġgoes":12843,"Ġavoids":12844,"Ġbuttons":12845,"_emission":12846,"Ġexpects":12847,"Ġcontrols":12848,"Ġobserve":12849,"Ġmedian":12850,"Ġsliced":12851,"Ġlargest":12852,"respond":12853,"Vertical":12854,"-iteration":12855,"_LAYOUT":12856,"_VERBS":12857,"particip":12858,".visit":12859,"(md":12860,"(root":12861,"-moment":12862,"/call":12863,";flex":12864,"Boot":12865,"Created":12866,"TCFP":12867,"_enum":12868,"aque":12869,"lm":12870,"latest":12871,"vations":12872,"enance":12873,"oring":12874,"Ġtap":12875,"Ġcy":12876,"Ġfeasible":12877,"Ġ([":12878,"Ġnt":12879,"Ġnest":12880,"Ġreached":12881,"Ġreaches":12882,"erson":12883,"ĠWCET":12884,"_limit":12885,"ternate":12886,"column":12887,"coring":12888,"ĠInst":12889,"(buf":12890,"_contains":12891,"ĠStandard":12892,"points":12893,"LOOR":12894,"ĠEnable":12895,"_PACK":12896,".identity":12897,"_fpga":12898,"Ġthroughput":12899,"Ġmodify":12900,".**Ċ":12901,"Ġcommunity":12902,"Ġcloses":12903,"Without":12904,"Ġwalker":12905,"Ġtooltip":12906,"uiltins":12907,"Ġmapped":12908,"Ġfade":12909,"Ġmagnitudes":12910,"Ġfriendship":12911,"aussian":12912,"ĠNVIDIA":12913,"ĠDeploy":12914,"Ġ::=":12915,"_altitude":12916,"-terminated":12917,"_criticality":12918,"-cor":12919,"-value":12920,"-compile":12921,"-action":12922,"-enabled":12923,"/in":12924,"214":12925,"63":12926,"AI":12927,"Capture":12928,"DU":12929,"Lan":12930,"PC":12931,"rmsnorm":12932,"scalar":12933,"}%":12934,"Ġavg":12935,"Ġsized":12936,"Ġ{{":12937,"Ġbands":12938,"Ġrewrites":12939,"Ġepi":12940,"_panic":12941,"Ġlit":12942,"_many":12943,"ccr":12944,"-budget":12945,"STACK":12946,"Project":12947,"(byte":12948,"_product":12949,"Decode":12950,"acme":12951,"-dtype":12952,"Ġarbit":12953,"_BASE":12954,"ĠConfirm":12955,"Ġlogs":12956,"_PRE":12957,"MessageSize":12958,"mediates":12959,"ĠProject":12960,"-norm":12961,"ILL":12962,"needs":12963,"cpkd":12964,"cuModule":12965,"Ġmanip":12966,"enticated":12967,".WEAPONS":12968,"Ġderivation":12969,"_minus":12970,"ĠQuantized":12971,"tempts":12972,"KernelConfig":12973,"stitute":12974,"haust":12975,"ĠDisconnect":12976,"_rcs":12977,"Ġyields":12978,"-plans":12979,"tachment":12980,"âķĲâķĲâķĲâķĲâķĲâķĲâķĲâķĲâķĲâķĲâķĲâķĲâķĲâķĲâķĲâķĲâķĲâķĲâķĲâķĲâķĲâķĲâķĲâķĲâķĲâķĲâķĲâķĲâķĲâķĲâķĲâķĲ":12981,"brif":12982,"Ġ-----------------------------------------------------------------------Ċ":12983,"ĠMultiFreqRadar":12984,"(__":12985,"(parse":12986,",</":12987,".Value":12988,"/auth":12989,"/python":12990,"09":12991,"Brain":12992,"BUG":12993,"Blittable":12994,"DONE":12995,"Denied":12996,"FlashAttention":12997,"Go":12998,"PRO":12999,"PKD":13000,"Random":13001,"_insert":13002,"silu":13003,"levant":13004,"Ġschemas":13005,"Ġnx":13006,"Ġmanager":13007,"()?":13008,"()ĊĊĊ":13009,"ateau":13010,"ceLock":13011,"ilp":13012,"_branch":13013,"Ġconv":13014,"ĠCpdt":13015,"Ġdeep":13016,"Ġcooldown":13017,"ersonic":13018,"ĠLow":13019,"125":13020,"104":13021,"ĠHirNode":13022,"ĠULP":13023,"Ġchat":13024,".close":13025,"))}":13026,"Reserved":13027,"(time":13028,".stop":13029,"Ġcancel":13030,"-function":13031,"Ġmoments":13032,"Ġreplacement":13033,"FileName":13034,"FFER":13035,"ĠĠĠĠĠĠĠĠĠĠĠĠĠĠĠĠĠĠĠĠĠĠĠĠĠĠĠĠĠĠĠĠĠĠĠĠĠĠ":13036,".Create":13037,"Ġhandlers":13038,"Ġprefill":13039,"!==\"":13040,"Extend":13041,"tempdir":13042,"relation":13043,"-through":13044,"Ġviewport":13045,"lueprints":13046,"HTMLBrowser":13047,"Ġcurv":13048,"Ġgeodetic":13049,"Ġdwk":13050,"ĠGET":13051,"ncclResult":13052,"CUresult":13053,".removeEventListener":13054,"Ġdecomposition":13055,"Ġreplaced":13056,"_INFINITY":13057,".actionButton":13058,"Ġincrement":13059,"WARD":13060,"(osc":13061,"-lib":13062,"-axis":13063,".encode":13064,"/h":13065,":F":13066,":i":13067,"Back":13068,"Native":13069,"Optimizer":13070,"Raw":13071,"_velocity":13072,"oof":13073,"{background":13074,"ĉif":13075,"Ġaudio":13076,"det":13077,"Ġpb":13078,"Ġscheme":13079,"pection":13080,"rapped":13081,"ĠCHANGE":13082,"pto":13083,"ĠFloat":13084,"ĠFallback":13085,"irc":13086,"ĠBool":13087,"ĠGPI":13088,"ĠLicense":13089,"ĠLobby":13090,"_wh":13091,".match":13092,".custom":13093,"calendar":13094,"-findings":13095,"othing":13096,"Ġplanned":13097,"ĠStmt":13098,".reset":13099,"Ġinterle":13100,"claim":13101,".delete":13102,"Ġlowers":13103,"Ġservers":13104,"_unary":13105,"_STRUCTURE":13106,"Ġkeepdim":13107,"ISO":13108,"Bearer":13109,"||(":13110,"Ġcommunic":13111,".auto":13112,"Ġregressions":13113,"Ġderef":13114,"ĠFieldElement":13115,"Ġgoal":13116,"_emitted":13117,"Ġsignatures":13118,"_chunks":13119,"_correction":13120,"_temporaries":13121,"ĠHTML":13122,"frames":13123,"ĠEdgegapWindowMetadata":13124,"ĠEmbedding":13125,"_LINUX":13126,"ĠjointCopy":13127,"ĠReceive":13128,"CodegenError":13129,"_BUFFER":13130,"Ġsimply":13131,"-commit":13132,"/issues":13133,"Finite":13134,"Hint":13135,"IV":13136,"PHA":13137,"Presence":13138,"Passthrough":13139,"Sensitivity":13140,"Wall":13141,"_URL":13142,"firebase":13143,"{font":13144,"}x":13145,"inish":13146,"repr":13147,"reset":13148,"Ġ=====":13149,"Ġscaffold":13150,"metadata":13151,"Ġrestore":13152,"idge":13153,"_borrow":13154,"Ġconcat":13155,"ĠClass":13156,"Ġdeterminism":13157,"Ġ%{}_":13158,"Indic":13159,"Ġ[]":13160,".ptr":13161,"ĠFI":13162,"ĠEF":13163,"ĠEResult":13164,"ĠGe":13165,"-batches":13166,"-syntax":13167,"Ġpermission":13168,".score":13169,"Ġroll":13170,"ĠcallId":13171,"utoff":13172,"(dt":13173,"(nn":13174,"Ġconsider":13175,"ĠgridPos":13176,".evaluate":13177,"Edgegap":13178,"(_)Ċ":13179,".example":13180,"PlayerManager":13181,"ĠAdmin":13182,"Ġcheckpointing":13183,"(Spanned":13184,"ABE":13185,"Tech":13186,"_shim":13187,"_helpers":13188,"Ġwalks":13189,"Ġtransitions":13190,"Verilog":13191,"nodes":13192,"HashCode":13193,"Management":13194,"Manipulator":13195,"<Firestore":13196,"Ġsympy":13197,"Conflict":13198,"ĠDimExpr":13199,"_transition":13200,"AXS":13201,"-array":13202,"/codegen":13203,"<Option":13204,"=${":13205,"Amount":13206,"Dataset":13207,"Estim":13208,"Managed":13209,"`)ĊĊ":13210,"aled":13211,"db":13212,"fusion":13213,"{ptx":13214,"âĪ":13215,"ster":13216,"Ġtiming":13217,"anim":13218,"utor":13219,"adj":13220,"Ġ})?;ĊĊ":13221,"Ġmac":13222,"Ġeye":13223,"Ġdate":13224,"Ġdue":13225,"Ġduplicate":13226,"Ġstraight":13227,"ĠTIER":13228,"_fold":13229,"_mixed":13230,"_mismatch":13231,"ultane":13232,".publish":13233,"ĠRec":13234,"_cross":13235,"Ġkcp":13236,"osit":13237,"Ġunpacked":13238,"igned":13239,"Ġproxy":13240,"Ġproperties":13241,")))":13242,"-pack":13243,".table":13244,"Ġleading":13245,"Ġactiv":13246,"allocator":13247,"Ġexpand":13248,"Ġowning":13249,"_FALSE":13250,"Ġindexing":13251,"229":13252,"Ġqueries":13253,"Packet":13254,"Ġprovides":13255,"ĠGeneric":13256,"Newline":13257,"ĠStrategy":13258,"-parser":13259,"Ġdwv":13260,"Ġsymmetric":13261,"Emitter":13262,"legend":13263,"Ġguarantees":13264,"bservation":13265,"/techforge":13266,"ĠNewtonsoft":13267,"(un":13268,"(line":13269,"+{}":13270,"-z":13271,"-self":13272,"-CTA":13273,".To":13274,".main":13275,".compute":13276,"/(":13277,"=block":13278,"Cre":13279,"MMA":13280,"Nsl":13281,"gpi":13282,"speed":13283,"{border":13284,"atial":13285,"Ġtiers":13286,"Ġfolding":13287,"uling":13288,"urrow":13289,"Ġdays":13290,"ĠSensor":13291,"327":13292,"trusted":13293,"(\"===":13294,"Ġdemo":13295,"ĠRule":13296,"ĠRNG":13297,"emy":13298,"Ġprop":13299,"_dead":13300,"textarea":13301,".scale":13302,"_hadamard":13303,"(pca":13304,"ERT":13305,"(Level":13306,"_comb":13307,"Ġdataclass":13308,"ĠExisting":13309,"-cell":13310,"NetworkServer":13311,"LOAD":13312,"Ġpassword":13313,"ĠUnaryOp":13314,"_registers":13315,"_unsigned":13316,"_timeout":13317,"Ġedges":13318,".apply":13319,"ĠAppId":13320,"cipient":13321,"translate":13322,"-vac":13323,"Ġprocessing":13324,"BackwardExtract":13325,"Ġconverted":13326,"-uniform":13327,".docs":13328,"ĠControl":13329,"_OPT":13330,"ĠSwiGLUFFN":13331,"mirrors":13332,"Ġprocesses":13333,".markdownPreview":13334,"TinyMLP":13335,"mpirical":13336,"_MATMUL":13337,".alternate":13338,"ĠÂ±":13339,"(sum":13340,"(run":13341,"(Ordering":13342,")]`":13343,".Model":13344,"Both":13345,"Begin":13346,"Calculator":13347,"];\").":13348,"_U":13349,"bex":13350,"dm":13351,"dummy":13352,"gqa":13353,"Ġtab":13354,"arithmetic":13355,"Ġft":13356,"anner":13357,"anifest":13358,"Ġbtn":13359,"()[":13360,"Ġwins":13361,"Ġinset":13362,"ĠSampling":13363,"izmos":13364,"Ġconfirms":13365,"ĠCPKD":13366,"Ġtouched":13367,"Ġ[[":13368,".pred":13369,"ĠRpc":13370,"ĠDown":13371,"Ġuv":13372,"Ġbypass":13373,"undles":13374,"ĠIMPORTANT":13375,"ĠUDP":13376,".uk":13377,".sType":13378,"Ġnearest":13379,"Ġmatters":13380,"DED":13381,"(db":13382,"LETE":13383,"_rot":13384,"ĠComb":13385,"ĠGetComponent":13386,"Ġquantum":13387,"Texture":13388,"LoadData":13389,"repo":13390,"_errs":13391,"===Ċ":13392,"IPAddr":13393,"}`;Ċ":13394,"ĠAnti":13395,"Ġpython":13396,"Mount":13397,"while":13398,"_note":13399,".object":13400,"ĠArmy":13401,"Ġfollows":13402,".admin":13403,"Argument":13404,"ĠRadarBand":13405,".unified":13406,"Ġconnectors":13407,"Ġcompletes":13408,"stitutional":13409,"ĠRoute":13410,"âĤĤ":13411,"})]}),":13412,"Ġenforced":13413,"Ġestab":13414,"_swiglu":13415,"Indicator":13416,"(count":13417,",h":13418,".engagement":13419,"<dyn":13420,"FakeIP":13421,"Hat":13422,"IES":13423,"OAuth":13424,"|------|":13425,"alanced":13426,"Ġfrozen":13427,"_bundle":13428,"_sin":13429,"ĠDiff":13430,"ĠBefore":13431,"parate":13432,".runtime":13433,"ĠIL":13434,"ĠIO":13435,"kept":13436,"ĠThey":13437,".begin":13438,".draft":13439,"ĠInner":13440,".net":13441,"{}\\":13442,"-position":13443,"-policy":13444,"Ġmaximum":13445,"-danger":13446,"_BIN":13447,"HAT":13448,"_EDIT":13449,"-init":13450,"ĠncclLsa":13451,"ROM":13452,"Animation":13453,"_isnumber":13454,"Ġcheckpoints":13455,"Ġrenders":13456,"EditorState":13457,"Ġabstract":13458,"Ġreceipt":13459,"_AND":13460,"_heartbeat":13461,"-lg":13462,"unsqueeze":13463,"retch":13464,"DescriptorSet":13465,"manifest":13466,"-preview":13467,"Gradients":13468,"LACE":13469,"_ALPHA":13470,"ĠAdapterKind":13471,"ingerprint":13472,"_EDITOR":13473,"%);Ċ":13474,",[":13475,"-importance":13476,".j":13477,".validate":13478,"/hir":13479,"69":13480,"<C":13481,"<Diagnostic":13482,"=float":13483,"HIGH":13484,"Pending":13485,"Remaining":13486,"Sound":13487,"])`":13488,"ci":13489,"diagnostic":13490,"flags":13491,"hal":13492,"opt":13493,"polation":13494,"{--":13495,"Ġqualified":13496,"ened":13497,"arr":13498,"Ġcaching":13499,"itu":13500,"Ġnil":13501,"Ġnavigator":13502,"Ġmma":13503,"Ġincoming":13504,"ĠCpu":13505,"Ġdeg":13506,"!(&":13507,"ĠEstim":13508,"Ġalgorithm":13509,"ĠLower":13510,"_wk":13511,"_stop":13512,".rand":13513,"_are":13514,"loadConst":13515,"ĠInvalid":13516,".cont":13517,"Proj":13518,"Ġdefine":13519,"Ġ&[]);ĊĊ":13520,"_lod":13521,"_BAND":13522,"Ġ(`--":13523,"Ġsubject":13524,"FIG":13525,"_PO":13526,"111":13527,"_ESteamNetworkingConfig":13528,"_rotation":13529,"Ġconsumption":13530,"-context":13531,"Adjacent":13532,"ĠLoop":13533,"ĠChunk":13534,"Ġinitialization":13535,"ĠAppend":13536,"Ġmanagement":13537,"FusedCe":13538,"Overrides":13539,"Face":13540,"ĠnetworkManager":13541,"dependent":13542,"Allocation":13543,"adamw":13544,"_rounding":13545,"Ġclaims":13546,".keys":13547,".startsWith":13548,"GradTarget":13549,"Ġcriteria":13550,"Ġquestion":13551,"Ġceiling":13552,"emaError":13553,"_INTERFACE":13554,"_exponents":13555,"!(\"{:?}\",":13556,"ISOString":13557,"(WeightEntry":13558,")\"":13559,"-register":13560,".X":13561,".Json":13562,"<PathBuf":13563,"Cpu":13564,"Feedback":13565,"IDE":13566,"LIN":13567,"_PI":13568,"_enter":13569,"cmp":13570,"dQ":13571,"lhs":13572,"}\")ĊĊ":13573,"hello":13574,"Ġfreq":13575,"urret":13576,"ĠdP":13577,"Ġdecay":13578,"Ġanimator":13579,"Ġrst":13580,"_dataloader":13581,".pos":13582,"_warps":13583,"ĠWE":13584,"_ai":13585,"Properties":13586,"DEAD":13587,"ĠExample":13588,"Ġgetattr":13589,"-warning":13590,"PECI":13591,"Ġsubstring":13592,"Ġdiscord":13593,"ĠDecode":13594,"(stmt":13595,"_uniform":13596,".info":13597,"_STAT":13598,"Ġsigns":13599,"_MIN":13600,"ĠTransformerBlock":13601,"WengertOp":13602,"_FIRE":13603,"README":13604,"Analysis":13605,"GNORE":13606,"_trip":13607,"$/":13608,"(header":13609,")!==":13610,"-prune":13611,".transition":13612,"/pr":13613,"=...":13614,"Categories":13615,"Pinned":13616,"Virtual":13617,"[^":13618,"_quality":13619,"diagnostics":13620,"ks":13621,"erative":13622,"recommended":13623,"itative":13624,"itigation":13625,"Ġpull":13626,"Ġny":13627,"Ġretention":13628,"peg":13629,"Ġ`*":13630,"igits":13631,"Ġversions":13632,"img":13633,"Ġforces":13634,"ĠCalib":13635,"Ġgfd":13636,"Ġln":13637,"ĠPin":13638,".pi":13639,"ĠMIT":13640,"161":13641,"Concrete":13642,"ocused":13643,"_each":13644,"ĠImage":13645,"axs":13646,"ĠuseCallback":13647,"_named":13648,"feed":13649,"Ġcheckout":13650,"Ġsplice":13651,"refcount":13652,"ĠStream":13653,"ĠgetFirebase":13654,"ServerList":13655,">,ĊĊ":13656,"ildcard":13657,"Ġexpose":13658,"_impl":13659,"ROID":13660,"(NumericLiteral":13661,"<uint":13662,"Ġunderlying":13663,"IRROR":13664,".init":13665,"_calls":13666,"Ġmoving":13667,"_keys":13668,"Ġnorms":13669,".AddComponent":13670,"ĠDataLink":13671,"Ġcaptures":13672,"Ġ``(":13673,"_identification":13674,"NewResult":13675,"Ġexercised":13676,"Ġprediction":13677,"(NetworkConnectionToClient":13678,"ĠavatarUrl":13679,"-CSHA":13680,".Has":13681,"Signature":13682,"ForumPost":13683,"language":13684,"Ġassociated":13685,"ĠEnvironment":13686,"_ANDROID":13687,")**ĊĊ":13688,",{}":13689,"-i":13690,"-correct":13691,"-emission":13692,".Un":13693,"/NSL":13694,"/prelude":13695,":function":13696,":translate":13697,"Follow":13698,"Sent":13699,"TN":13700,"docker":13701,"each":13702,"finding":13703,"uches":13704,"»¿":13705,"ï»¿":13706,"reference":13707,"Ġaway":13708,"Ġserialization":13709,"Ġscoring":13710,"utils":13711,"Ġbirth":13712,"Ġ//////////////////////////////////":13713,"Ġeval":13714,"Ġvy":13715,"ising":13716,"elif":13717,"ĠSafety":13718,"_box":13719,"_batches":13720,"Ġgenu":13721,"upper":13722,"opServices":13723,"ĠVma":13724,"ĠWq":13725,"mutable":13726,"compiled":13727,"_kir":13728,"/schemas":13729,"Ġcollapse":13730,"-task":13731,".walk":13732,"_SER":13733,"(doc":13734,"Ġfloating":13735,"LECTIONS":13736,"Ġsubstitution":13737,"RAN":13738,"Ġkvt":13739,"Ġguards":13740,"Ġacceptance":13741,"Ġsignals":13742,"Ġhardcoded":13743,"Ġadjoints":13744,"(conversation":13745,"_elementwise":13746,"chitectural":13747,"_levels":13748,"<&'":13749,"ĠĠĠĠĠĠĠĠĠĠĠĠĠĠĠĠĠĠĠĠĠĠĠĠĠĠĠĠĠĠ":13750,"ĠREQUIRED":13751,"ĠWireId":13752,"Ġdiverged":13753,"GradientHook":13754,"Ġpicks":13755,".updateQueue":13756,"ĠAsset":13757,"Ġpredicates":13758,"GatedLora":13759,"enefit":13760,".InteropServices":13761,"\"use":13762,")&&":13763,"+)":13764,",N":13765,",S":13766,"/N":13767,"/k":13768,"/data":13769,"/memory":13770,"Bundle":13771,"Fold":13772,"Html":13773,"Large":13774,"Mirror":13775,"OE":13776,"_used":13777,"_Reserved":13778,"cquire":13779,"done":13780,"fresh":13781,"oom":13782,"tp":13783,"trees":13784,"retry":13785,"Ġta":13786,"also":13787,"Ġphys":13788,"Ġdfa":13789,"ĠSem":13790,"ĠSimple":13791,"ĠTHE":13792,"Ġconcurrent":13793,"Ġgive":13794,"_sites":13795,"Ġri":13796,"ĠPATH":13797,").**":13798,"ĠRaw":13799,"upabase":13800,"ĠFake":13801,"emb":13802,"ĠMiB":13803,"ĠEquals":13804,"Ġ'@":13805,"ĠDispatch":13806,"computed":13807,"Ġpermissions":13808,"address":13809,".sin":13810,"avbar":13811,".ty":13812,".tile":13813,".isFinite":13814,"-footer":13815,"-drive":13816,"_CTX":13817,"_CACHE":13818,"LOSS":13819,"Ġexpansion":13820,"pending":13821,"reply":13822,"lastic":13823,"-tool":13824,"_isfunction":13825,".mesh":13826,"Ġexpressions":13827,"Baseline":13828,"_constant":13829,".extract":13830,"ĠWithin":13831,"Common":13832,"HTTPRequest":13833,"Ġ\"$(":13834,"Ġsatisfies":13835,"Ġhyper":13836,"BlogPost":13837,"Unreliable":13838,"_ZERO":13839,"(..":13840,"(());Ċ":13841,"(Base":13842,"-'":13843,"-api":13844,".res":13845,".ptx":13846,".Ptr":13847,"/moho":13848,"Less":13849,"Pooled":13850,"SINDEX":13851,"[start":13852,"_ap":13853,"brain":13854,"iqu":13855,"live":13856,"pl":13857,"Î±":13858,"Ġ----------------":13859,"stop":13860,"Ġcz":13861,"Ġsays":13862,"Ġbracket":13863,"Ġreported":13864,"Ġdfs":13865,"olid":13866,"(\"=\"":13867,"ĠCfie":13868,"_serve":13869,"Ġdets":13870,"ĠPV":13871,"ĠMCP":13872,"ĠEW":13873,"quared":13874,"Idle":13875,"Stick":13876,"Ġunpack":13877,"Ġprojects":13878,"rename":13879,"Ġorphan":13880,".google":13881,"ĠsetLoading":13882,"(pref":13883,"TypeInfo":13884,"Ġrounded":13885,"Cookie":13886,"-title":13887,"_coast":13888,"Ġenumer":13889,"RESH":13890,"Ġdataclasses":13891,"Ġworktree":13892,"Ġdisk":13893,"_EP":13894,"OnLoad":13895,"\\tmov":13896,"Preferences":13897,"_INT":13898,"(TokenKind":13899,"Ġablation":13900,"renaLayout":13901,"ĠWengertType":13902,"Ġexecutable":13903,".useEffect":13904,"ILED":13905,".OnClient":13906,"Ġthresholds":13907,"Receiver":13908,"Classification":13909,"Ġselector":13910,"PagePanel":13911,"Ġweapons":13912,"Editing":13913,"-offload":13914,"Ġeliminated":13915,"upports":13916,"ĠOtherwise":13917,"Enumerator":13918,"Ġcorresponding":13919,"_GLOBALSINDEX":13920,"(ex":13921,"(location":13922,"-defined":13923,".None":13924,".thermal":13925,"/Debug":13926,"=await":13927,"Draw":13928,"KB":13929,"PCA":13930,"Personalizer":13931,"\\\\":13932,"]`.Ċ":13933,"bad":13934,"iag":13935,"lend":13936,"Ġul":13937,"orical":13938,"Ġfi":13939,"decode":13940,"_tiny":13941,"_bodies":13942,"ubble":13943,"Ġglob":13944,"ĠNative":13945,"_drop":13946,"ĠRect":13947,"upload":13948,"\").Ċ":13949,"_wv":13950,"_gv":13951,".feature":13952,"ypass":13953,"Ġrespect":13954,"ĠHash":13955,"ĠHealth":13956,"Ġxs":13957,"mouse":13958,"spaces":13959,"_extern":13960,".top":13961,"_cons":13962,"Ġadmit":13963,"ALSTACK":13964,"-clip":13965,"_BAK":13966,"Ġcfgs":13967,"-wide":13968,"ĠĠĠĠĠĠĠĠĠĠĠĠĠĠĠĠĠĠĠĠĠĠĠĠĠĠĠĠĠĠĠĠĠĠ":13969,"ĠĠĠĠĠĠĠĠĠĠĠĠĠĠĠĠĠĠĠĠĠĠĠĠĠĠĠĠĠĠĠĠĠĠĠĠĠĠĠĠ":13970,".Current":13971,"transfer":13972,"replay":13973,"EventType":13974,"ArraySegment":13975,"boxes":13976,".members":13977,"Ġiterations":13978,"Ġrecent":13979,"_{}_{}":13980,"ĠGenerated":13981,"grades":13982,"Worker":13983,"legacy":13984,"<Self":13985,"Ġdenom":13986,"ĠOwnedNewResult":13987,"Stdio":13988,"triton":13989,"Bootstrap":13990,"_BAKED":13991,"'),Ċ":13992,"(VarId":13993,"(params":13994,"-attention":13995,".entry":13996,".IntPtr":13997,"/A":13998,"/R":13999,"/expr":14000,"<nsl":14001,"FASE":14002,"Tube":14003,"YS":14004,"_self":14005,"_ME":14006,"buffers":14007,"monitor":14008,"ov":14009,"vh":14010,"Ġmention":14011,"Ġwx":14012,"Ġ\"\",Ċ":14013,"Ġ\"./":14014,"urations":14015,"Ġdashboard":14016,"Ġridge":14017,"ĠPE":14018,"_major":14019,"Inner":14020,"opper":14021,"toISOString":14022,"ĠVAL":14023,"reduction":14024,"pper":14025,"_world":14026,"_gpus":14027,".free":14028,"Ġnotes":14029,".symbol":14030,"probe":14031,"-player":14032,"quantum":14033,"Ġinstances":14034,"IDs":14035,"AppId":14036,"Ġworkflow":14037,"_iff":14038,"lpha":14039,"Keyboard":14040,"ROUP":14041,".lookup":14042,"Ġorders":14043,"-high":14044,"gradation":14045,"Activity":14046,"ReadOnly":14047,"(content":14048,"-compatible":14049,"Ġsomething":14050,"venue":14051,"Assets":14052,"GuildId":14053,"Ġobserved":14054,"Ġrepresentation":14055,"Ġwaiting":14056,"ĠLocalParam":14057,"recque":14058,"ĠNslList":14059,".classList":14060,"ĠvkCmd":14061,"Deployment":14062,".assignments":14063,"'d":14064,"-ii":14065,".wait":14066,"/profile":14067,"83":14068,";e":14069,"Dst":14070,"Drag":14071,"Multiplier":14072,"fidence":14073,"obs":14074,"wrong":14075,"ĲĊ":14076,"Ġpn":14077,"edge":14078,"Ġip":14079,"())ĊĊ":14080,"character":14081,"eleration":14082,"_system":14083,"_mass":14084,"Ġcovariance":14085,"Ġ[...":14086,"ĠEltPack":14087,"_negative":14088,"ĠDONE":14089,"ĠDISABLESTEAMWORKS":14090,"ĠBuffer":14091,"quare":14092,"setId":14093,"..].":14094,"_ld":14095,"extra":14096,"cluster":14097,"irections":14098,"_initial":14099,"(policy":14100,".discord":14101,"Propagation":14102,"aki":14103,"(scale":14104,"ĠRequires":14105,".isfinite":14106,"Ġ},ĊĊ":14107,")?.":14108,"append":14109,"Unified":14110,"Ġfunctional":14111,"NetworkClient":14112,"ords":14113,"ĠQK":14114,"-wrga":14115,"clean":14116,"MessageId":14117,"Ġconsult":14118,"_threat":14119,"ĠâĶĮ":14120,"(host":14121,"_MS":14122,"EditorManager":14123,"BufferSize":14124,"Ġrespons":14125,"VENT":14126,"OwnProperty":14127,"ĠToggle":14128,"Ġcounters":14129,"_zone":14130,"RadarBand":14131,"Validation":14132,"cognized":14133,"aggreg":14134,"Ġ===================================================================ĊĊĊ":14135,"WrgaPlan":14136,"Ġenforcement":14137,"Achievement":14138,".variables":14139,".PtrToStringUTF":14140,"(G":14141,"(is":14142,")\"),Ċ":14143,".aligned":14144,"Budget":14145,"Bridge":14146,"Eval":14147,"Lik":14148,"Multip":14149,"Typing":14150,"WRGA":14151,"[v":14152,"danger":14153,"guard":14154,"multi":14155,"river":14156,"wap":14157,"Ġtiled":14158,"Ġaverage":14159,"Ġimm":14160,"Ġmailbox":14161,"Ġwgmma":14162,"Ġwrappers":14163,"idget":14164,"ĠSuccess":14165,"Ġghost":14166,"ensitive":14167,"Ġlang":14168,"Ġhon":14169,"Ġhadamard":14170,"ĠPacked":14171,"liance":14172,"(&[\"":14173,"ĠMixed":14174,"ĠDon":14175,"ĠOFF":14176,"ĠGREEN":14177,"ĠLE":14178,"facc":14179,"_debug":14180,"_game":14181,".ln":14182,".link":14183,"program":14184,"))`":14185,"(slot":14186,".training":14187,"(event":14188,"ĠOnStop":14189,"Apply":14190,"cludes":14191,"Ġdiscover":14192,"Ġcolors":14193,"-integration":14194,"ĠNetworkTime":14195,"\\tmul":14196,"_pushboolean":14197,"(gate":14198,"Ġbuffered":14199,"(handle":14200,".Ld":14201,"_cep":14202,"ĠVariable":14203,"ĠChannel":14204,"Ġresolver":14205,"reserves":14206,"Ġmultiplier":14207,"ĠsignalOp":14208,"Ġdistill":14209,"Ġlinks":14210,"package":14211,"UANT":14212,"ĠQuantum":14213,"Ġticks":14214,"_arguments":14215,"coveredProjection":14216,"ĠActive":14217,"ĠMockServer":14218,"Authenticated":14219,"_TextMeshPro":14220,"Ġviolation":14221,"Ġdeliver":14222,".functional":14223,"metics":14224,"BTreeMap":14225,"Ġmeaningful":14226,"\"`,":14227,"\"ĊĊĊ":14228,"(left":14229,"-k":14230,"-use":14231,"-child":14232,".Load":14233,"Broadcast":14234,"Curve":14235,"Ffn":14236,"Kinematic":14237,"]{":14238,"bps":14239,"dff":14240,"gv":14241,"hash":14242,"iated":14243,"iadd":14244,"land":14245,"ratic":14246,"ython":14247,"Ġ;":14248,"als":14249,"Ġbo":14250,"Ġinject":14251,"rait":14252,"ĠSentinel":14253,"_page":14254,"_policies":14255,"trunc":14256,"ĠTMP":14257,"ĠCost":14258,"Ġang":14259,"Ġrand":14260,"ĠPure":14261,"ptq":14262,"ĠRot":14263,"_cursor":14264,"outcome":14265,"indic":14266,"\")?;Ċ":14267,"Ġprogra":14268,"ĠWH":14269,"_storage":14270,"_defs":14271,"ĠHadamard":14272,".spec":14273,".schemas":14274,".mat":14275,"ĠInference":14276,")):":14277,"pda":14278,"Ġneighb":14279,"_SH":14280,"Ġreflect":14281,"novations":14282,"inalg":14283,"Ġ===Ċ":14284,"Ġdiscovered":14285,".rect":14286,"Collect":14287,"ĠSelection":14288,"_advance":14289,"Thermal":14290,"Animator":14291,"ĠNslTensorDesc":14292,"Connections":14293,"-node":14294,"-normal":14295,"226":14296,"ModelSpec":14297,"Moe":14298,"})\"Ċ":14299,"Checkout":14300,"_elevation":14301,"_layouts":14302,"UNK":14303,"Ġseparator":14304,"ĠISteamMatchmaking":14305,"DeviceType":14306,"Price":14307,"maker":14308,"Workshop":14309,"avigation":14310,"XTURE":14311,"ReduceSum":14312,"<_>>()Ċ":14313,"YouTube":14314,"ĠSummary":14315,"_MEMORY":14316,"ĠAddressSpace":14317,"Scancode":14318,"_instrumentation":14319,"(connectionId":14320,"ository":14321,"(BaseModel":14322,":transparent":14323,"><":14324,"He":14325,"MT":14326,"Music":14327,"Sprite":14328,"\\x":14329,"]))Ċ":14330,"aco":14331,"clock":14332,"large":14333,"random":14334,"tap":14335,"was":14336,"wrapping":14337,"Ġrain":14338,"online":14339,"aration":14340,"itHub":14341,"Ġ`Ċ":14342,"Ġequality":14343,"ĠSC":14344,"ĠSaved":14345,"illa":14346,"_beta":14347,"ĠCE":14348,"strip":14349,"Ġhot":14350,"Ġthreaded":14351,"ĠDict":14352,"ĠLAN":14353,"_wires":14354,"ĠWorld":14355,"_deq":14356,"mutation":14357,"Ġcompress":14358,".side":14359,".singleton":14360,"anceled":14361,".not":14362,
[...]
